#include "magic_wand_model_data.h"

// We need to keep the data array aligned on some architectures.
#ifdef __has_attribute
#define HAVE_ATTRIBUTE(x) __has_attribute(x)
#else
#define HAVE_ATTRIBUTE(x) 0
#endif

#if HAVE_ATTRIBUTE(aligned) || (defined(__GNUC__) && !defined(__clang__))
#define DATA_ALIGN_ATTRIBUTE __attribute__((aligned(4)))
#else
#define DATA_ALIGN_ATTRIBUTE
#endif

const unsigned char g_magic_wand_model_data[] DATA_ALIGN_ATTRIBUTE = {
  // Paste the data of the char array in `src/model.cc` here
  0x08, 0x00, 0x00, 0x00, 0x54, 0x46, 0x4c, 0x33, 0x62, 0xff, 0xff, 0xff,
  0x03, 0x00, 0x00, 0x00, 0x10, 0x00, 0x00, 0x00, 0x24, 0x00, 0x00, 0x00,
  0x78, 0x00, 0x00, 0x00, 0x24, 0x00, 0x00, 0x00, 0x05, 0x00, 0x00, 0x00,
  0x78, 0x05, 0x00, 0x00, 0xb0, 0x04, 0x00, 0x00, 0xe0, 0x02, 0x00, 0x00,
  0x60, 0x02, 0x00, 0x00, 0x54, 0x01, 0x00, 0x00, 0x01, 0x00, 0x00, 0x00,
  0x78, 0x00, 0x00, 0x00, 0x13, 0x00, 0x00, 0x00, 0xd4, 0x2f, 0x00, 0x00,
  0xd0, 0x2f, 0x00, 0x00, 0xdc, 0x2e, 0x00, 0x00, 0x68, 0x2e, 0x00, 0x00,
  0xfc, 0x2d, 0x00, 0x00, 0xac, 0x11, 0x00, 0x00, 0x98, 0x10, 0x00, 0x00,
  0xbc, 0x0e, 0x00, 0x00, 0x60, 0x06, 0x00, 0x00, 0xfc, 0x05, 0x00, 0x00,
  0x78, 0x05, 0x00, 0x00, 0xa8, 0x2f, 0x00, 0x00, 0xa4, 0x2f, 0x00, 0x00,
  0xa0, 0x2f, 0x00, 0x00, 0x9c, 0x2f, 0x00, 0x00, 0x98, 0x2f, 0x00, 0x00,
  0x94, 0x2f, 0x00, 0x00, 0x90, 0x2f, 0x00, 0x00, 0x8c, 0x2f, 0x00, 0x00,
  0x0f, 0x00, 0x00, 0x00, 0x4d, 0x4c, 0x49, 0x52, 0x20, 0x43, 0x6f, 0x6e,
  0x76, 0x65, 0x72, 0x74, 0x65, 0x64, 0x2e, 0x00, 0x00, 0x00, 0x0e, 0x00,
  0x18, 0x00, 0x04, 0x00, 0x08, 0x00, 0x0c, 0x00, 0x10, 0x00, 0x14, 0x00,
  0x0e, 0x00, 0x00, 0x00, 0x14, 0x00, 0x00, 0x00, 0x5c, 0x00, 0x00, 0x00,
  0x60, 0x00, 0x00, 0x00, 0x64, 0x00, 0x00, 0x00, 0x84, 0x00, 0x00, 0x00,
  0x12, 0x00, 0x00, 0x00, 0x04, 0x2f, 0x00, 0x00, 0xa0, 0x2e, 0x00, 0x00,
  0xf8, 0x2d, 0x00, 0x00, 0x98, 0x2d, 0x00, 0x00, 0x30, 0x2d, 0x00, 0x00,
  0xdc, 0x10, 0x00, 0x00, 0xc0, 0x0f, 0x00, 0x00, 0xe4, 0x0d, 0x00, 0x00,
  0xa0, 0x05, 0x00, 0x00, 0x3c, 0x05, 0x00, 0x00, 0xb0, 0x04, 0x00, 0x00,
  0xe8, 0x03, 0x00, 0x00, 0x38, 0x03, 0x00, 0x00, 0xa4, 0x02, 0x00, 0x00,
  0x10, 0x02, 0x00, 0x00, 0x90, 0x01, 0x00, 0x00, 0xfc, 0x00, 0x00, 0x00,
  0x80, 0x00, 0x00, 0x00, 0x01, 0x00, 0x00, 0x00, 0x00, 0x00, 0x00, 0x00,
  0x01, 0x00, 0x00, 0x00, 0x11, 0x00, 0x00, 0x00, 0x08, 0x00, 0x00, 0x00,
  0x1c, 0x04, 0x00, 0x00, 0x58, 0x03, 0x00, 0x00, 0xc8, 0x02, 0x00, 0x00,
  0x24, 0x02, 0x00, 0x00, 0xac, 0x01, 0x00, 0x00, 0x10, 0x01, 0x00, 0x00,
  0x94, 0x00, 0x00, 0x00, 0x10, 0x00, 0x00, 0x00, 0x04, 0x00, 0x00, 0x00,
  0x6d, 0x61, 0x69, 0x6e, 0x00, 0x00, 0x00, 0x00, 0x8e, 0xff, 0xff, 0xff,
  0x00, 0x00, 0x00, 0x09, 0x04, 0x00, 0x00, 0x00, 0x1c, 0x00, 0x00, 0x00,
  0x10, 0x00, 0x00, 0x00, 0x04, 0x00, 0x00, 0x00, 0x4e, 0xd2, 0xff, 0xff,
  0x00, 0x00, 0x80, 0x3f, 0x01, 0x00, 0x00, 0x00, 0x11, 0x00, 0x00, 0x00,
  0x01, 0x00, 0x00, 0x00, 0x10, 0x00, 0x00, 0x00, 0xf6, 0xfb, 0xff, 0xff,
  0x00, 0x00, 0x00, 0x19, 0x01, 0x00, 0x00, 0x00, 0xce, 0xd1, 0xff, 0xff,
  0x10, 0x00, 0x00, 0x00, 0x12, 0x00, 0x00, 0x00, 0x14, 0x00, 0x00, 0x00,
  0x20, 0x00, 0x00, 0x00, 0x02, 0x00, 0x00, 0x00, 0x01, 0x00, 0x00, 0x00,
  0x03, 0x00, 0x00, 0x00, 0x08, 0x00, 0x00, 0x00, 0x49, 0x64, 0x65, 0x6e,
  0x74, 0x69, 0x74, 0x79, 0x00, 0x00, 0x00, 0x00, 0x08, 0xd2, 0xff, 0xff,
  0x00, 0x00, 0x0e, 0x00, 0x18, 0x00, 0x08, 0x00, 0x0c, 0x00, 0x10, 0x00,
  0x07, 0x00, 0x14, 0x00, 0x0e, 0x00, 0x00, 0x00, 0x00, 0x00, 0x00, 0x08,
  0x03, 0x00, 0x00, 0x00, 0x18, 0x00, 0x00, 0x00, 0x0c, 0x00, 0x00, 0x00,
  0x04, 0x00, 0x00, 0x00, 0xdc, 0xd1, 0xff, 0xff, 0x01, 0x00, 0x00, 0x00,
  0x10, 0x00, 0x00, 0x00, 0x03, 0x00, 0x00, 0x00, 0x0f, 0x00, 0x00, 0x00,
  0x05, 0x00, 0x00, 0x00, 0x02, 0x00, 0x00, 0x00, 0x46, 0xd2, 0xff, 0xff,
  0x10, 0x00, 0x00, 0x00, 0x11, 0x00, 0x00, 0x00, 0x14, 0x00, 0x00, 0x00,
  0x30, 0x00, 0x00, 0x00, 0x02, 0x00, 0x00, 0x00, 0x01, 0x00, 0x00, 0x00,
  0x03, 0x00, 0x00, 0x00, 0x1a, 0x00, 0x00, 0x00, 0x73, 0x65, 0x71, 0x75,
  0x65, 0x6e, 0x74, 0x69, 0x61, 0x6c, 0x2f, 0x64, 0x65, 0x6e, 0x73, 0x65,
  0x5f, 0x31, 0x2f, 0x42, 0x69, 0x61, 0x73, 0x41, 0x64, 0x64, 0x00, 0x00,
  0x38, 0xd2, 0xff, 0xff, 0xd6, 0xfd, 0xff, 0xff, 0x00, 0x00, 0x00, 0x08,
  0x03, 0x00, 0x00, 0x00, 0x24, 0x00, 0x00, 0x00, 0x18, 0x00, 0x00, 0x00,
  0x0c, 0x00, 0x00, 0x00, 0x00, 0x00, 0x06, 0x00, 0x08, 0x00, 0x07, 0x00,
  0x06, 0x00, 0x00, 0x00, 0x00, 0x00, 0x00, 0x01, 0x01, 0x00, 0x00, 0x00,
  0x0f, 0x00, 0x00, 0x00, 0x03, 0x00, 0x00, 0x00, 0x0e, 0x00, 0x00, 0x00,
  0x04, 0x00, 0x00, 0x00, 0x01, 0x00, 0x00, 0x00, 0xfe, 0xfc, 0xff, 0xff,
  0x00, 0x00, 0x00, 0x09, 0x01, 0x00, 0x00, 0x00, 0xd6, 0xd2, 0xff, 0xff,
  0x10, 0x00, 0x00, 0x00, 0x10, 0x00, 0x00, 0x00, 0x14, 0x00, 0x00, 0x00,
  0x2c, 0x00, 0x00, 0x00, 0x02, 0x00, 0x00, 0x00, 0x01, 0x00, 0x00, 0x00,
  0x10, 0x00, 0x00, 0x00, 0x15, 0x00, 0x00, 0x00, 0x73, 0x65, 0x71, 0x75,
  0x65, 0x6e, 0x74, 0x69, 0x61, 0x6c, 0x2f, 0x64, 0x65, 0x6e, 0x73, 0x65,
  0x2f, 0x52, 0x65, 0x6c, 0x75, 0x00, 0x00, 0x00, 0x1c, 0xd3, 0xff, 0xff,
  0x00, 0x00, 0x0a, 0x00, 0x10, 0x00, 0x04, 0x00, 0x08, 0x00, 0x0c, 0x00,
  0x0a, 0x00, 0x00, 0x00, 0x02, 0x00, 0x00, 0x00, 0x10, 0x00, 0x00, 0x00,
  0x04, 0x00, 0x00, 0x00, 0x01, 0x00, 0x00, 0x00, 0x0e, 0x00, 0x00, 0x00,
  0x02, 0x00, 0x00, 0x00, 0x0d, 0x00, 0x00, 0x00, 0x03, 0x00, 0x00, 0x00,
  0x7a, 0xfd, 0xff, 0xff, 0x00, 0x00, 0x00, 0x16, 0x01, 0x00, 0x00, 0x00,
  0x52, 0xd3, 0xff, 0xff, 0x10, 0x00, 0x00, 0x00, 0x0f, 0x00, 0x00, 0x00,
  0x14, 0x00, 0x00, 0x00, 0x30, 0x00, 0x00, 0x00, 0x02, 0x00, 0x00, 0x00,
  0x01, 0x00, 0x00, 0x00, 0x70, 0x00, 0x00, 0x00, 0x1a, 0x00, 0x00, 0x00,
  0x73, 0x65, 0x71, 0x75, 0x65, 0x6e, 0x74, 0x69, 0x61, 0x6c, 0x2f, 0x66,
  0x6c, 0x61, 0x74, 0x74, 0x65, 0x6e, 0x2f, 0x52, 0x65, 0x73, 0x68, 0x61,
  0x70, 0x65, 0x00, 0x00, 0x44, 0xd3, 0xff, 0xff, 0xe2, 0xfe, 0xff, 0xff,
  0x00, 0x00, 0x00, 0x05, 0x01, 0x00, 0x00, 0x00, 0x38, 0x00, 0x00, 0x00,
  0x2c, 0x00, 0x00, 0x00, 0x14, 0x00, 0x00, 0x00, 0x00, 0x00, 0x0e, 0x00,
  0x14, 0x00, 0x00, 0x00, 0x10, 0x00, 0x0c, 0x00, 0x08, 0x00, 0x04, 0x00,
  0x0e, 0x00, 0x00, 0x00, 0x03, 0x00, 0x00, 0x00, 0x01, 0x00, 0x00, 0x00,
  0x03, 0x00, 0x00, 0x00, 0x01, 0x00, 0x00, 0x00, 0x01, 0x00, 0x00, 0x00,
  0x0d, 0x00, 0x00, 0x00, 0x01, 0x00, 0x00, 0x00, 0x0c, 0x00, 0x00, 0x00,
  0xe2, 0xd3, 0xff, 0xff, 0x10, 0x00, 0x00, 0x00, 0x0e, 0x00, 0x00, 0x00,
  0x1c, 0x00, 0x00, 0x00, 0x40, 0x00, 0x00, 0x00, 0x04, 0x00, 0x00, 0x00,
  0x01, 0x00, 0x00, 0x00, 0x07, 0x00, 0x00, 0x00, 0x01, 0x00, 0x00, 0x00,
  0x10, 0x00, 0x00, 0x00, 0x22, 0x00, 0x00, 0x00, 0x73, 0x65, 0x71, 0x75,
  0x65, 0x6e, 0x74, 0x69, 0x61, 0x6c, 0x2f, 0x6d, 0x61, 0x78, 0x5f, 0x70,
  0x6f, 0x6f, 0x6c, 0x69, 0x6e, 0x67, 0x32, 0x64, 0x5f, 0x31, 0x2f, 0x4d,
  0x61, 0x78, 0x50, 0x6f, 0x6f, 0x6c, 0x00, 0x00, 0xe4, 0xd3, 0xff, 0xff,
  0xc2, 0xfe, 0xff, 0xff, 0x00, 0x00, 0x00, 0x01, 0x24, 0x00, 0x00, 0x00,
  0x18, 0x00, 0x00, 0x00, 0x04, 0x00, 0x00, 0x00, 0xb4, 0xfe, 0xff, 0xff,
  0x01, 0x00, 0x00, 0x00, 0x01, 0x00, 0x00, 0x00, 0x00, 0x00, 0x00, 0x01,
  0x01, 0x00, 0x00, 0x00, 0x0c, 0x00, 0x00, 0x00, 0x03, 0x00, 0x00, 0x00,
  0x0b, 0x00, 0x00, 0x00, 0x07, 0x00, 0x00, 0x00, 0x09, 0x00, 0x00, 0x00,
  0x72, 0xd4, 0xff, 0xff, 0x10, 0x00, 0x00, 0x00, 0x0d, 0x00, 0x00, 0x00,
  0x1c, 0x00, 0x00, 0x00, 0x2c, 0x00, 0x00, 0x00, 0x04, 0x00, 0x00, 0x00,
  0x01, 0x00, 0x00, 0x00, 0x15, 0x00, 0x00, 0x00, 0x01, 0x00, 0x00, 0x00,
  0x10, 0x00, 0x00, 0x00, 0x0c, 0x00, 0x00, 0x00, 0x74, 0x66, 0x6c, 0x2e,
  0x63, 0x6f, 0x6e, 0x76, 0x5f, 0x32, 0x64, 0x31, 0x00, 0x00, 0x00, 0x00,
  0xb8, 0xd4, 0xff, 0xff, 0x00, 0x00, 0x0e, 0x00, 0x1a, 0x00, 0x08, 0x00,
  0x0c, 0x00, 0x10, 0x00, 0x07, 0x00, 0x14, 0x00, 0x0e, 0x00, 0x00, 0x00,
  0x00, 0x00, 0x00, 0x05, 0x01, 0x00, 0x00, 0x00, 0x3c, 0x00, 0x00, 0x00,
  0x30, 0x00, 0x00, 0x00, 0x14, 0x00, 0x00, 0x00, 0x00, 0x00, 0x0e, 0x00,
  0x18, 0x00, 0x17, 0x00, 0x10, 0x00, 0x0c, 0x00, 0x08, 0x00, 0x04, 0x00,
  0x0e, 0x00, 0x00, 0x00, 0x03, 0x00, 0x00, 0x00, 0x03, 0x00, 0x00, 0x00,
  0x03, 0x00, 0x00, 0x00, 0x03, 0x00, 0x00, 0x00, 0x00, 0x00, 0x00, 0x01,
  0x01, 0x00, 0x00, 0x00, 0x0b, 0x00, 0x00, 0x00, 0x01, 0x00, 0x00, 0x00,
  0x0a, 0x00, 0x00, 0x00, 0x46, 0xff, 0xff, 0xff, 0x00, 0x00, 0x00, 0x11,
  0x01, 0x00, 0x00, 0x00, 0x1e, 0xd5, 0xff, 0xff, 0x10, 0x00, 0x00, 0x00,
  0x0c, 0x00, 0x00, 0x00, 0x1c, 0x00, 0x00, 0x00, 0x40, 0x00, 0x00, 0x00,
  0x04, 0x00, 0x00, 0x00, 0x01, 0x00, 0x00, 0x00, 0x15, 0x00, 0x00, 0x00,
  0x01, 0x00, 0x00, 0x00, 0x08, 0x00, 0x00, 0x00, 0x20, 0x00, 0x00, 0x00,
  0x73, 0x65, 0x71, 0x75, 0x65, 0x6e, 0x74, 0x69, 0x61, 0x6c, 0x2f, 0x6d,
  0x61, 0x78, 0x5f, 0x70, 0x6f, 0x6f, 0x6c, 0x69, 0x6e, 0x67, 0x32, 0x64,
  0x2f, 0x4d, 0x61, 0x78, 0x50, 0x6f, 0x6f, 0x6c, 0x00, 0x00, 0x00, 0x00,
  0x78, 0xd5, 0xff, 0xff, 0x00, 0x00, 0x0e, 0x00, 0x14, 0x00, 0x00, 0x00,
  0x08, 0x00, 0x0c, 0x00, 0x07, 0x00, 0x10, 0x00, 0x0e, 0x00, 0x00, 0x00,
  0x00, 0x00, 0x00, 0x01, 0x30, 0x00, 0x00, 0x00, 0x24, 0x00, 0x00, 0x00,
  0x10, 0x00, 0x00, 0x00, 0x0c, 0x00, 0x10, 0x00, 0x00, 0x00, 0x04, 0x00,
  0x08, 0x00, 0x0f, 0x00, 0x0c, 0x00, 0x00, 0x00, 0x01, 0x00, 0x00, 0x00,
  0x01, 0x00, 0x00, 0x00, 0x00, 0x00, 0x00, 0x01, 0x01, 0x00, 0x00, 0x00,
  0x0a, 0x00, 0x00, 0x00, 0x03, 0x00, 0x00, 0x00, 0x00, 0x00, 0x00, 0x00,
  0x06, 0x00, 0x00, 0x00, 0x08, 0x00, 0x00, 0x00, 0x00, 0x00, 0x0a, 0x00,
  0x0c, 0x00, 0x07, 0x00, 0x00, 0x00, 0x08, 0x00, 0x0a, 0x00, 0x00, 0x00,
  0x00, 0x00, 0x00, 0x03, 0x01, 0x00, 0x00, 0x00, 0xe2, 0xd5, 0xff, 0xff,
  0x10, 0x00, 0x00, 0x00, 0x0b, 0x00, 0x00, 0x00, 0x1c, 0x00, 0x00, 0x00,
  0x28, 0x00, 0x00, 0x00, 0x04, 0x00, 0x00, 0x00, 0x01, 0x00, 0x00, 0x00,
  0x40, 0x00, 0x00, 0x00, 0x03, 0x00, 0x00, 0x00, 0x08, 0x00, 0x00, 0x00,
  0x0b, 0x00, 0x00, 0x00, 0x74, 0x66, 0x6c, 0x2e, 0x63, 0x6f, 0x6e, 0x76,
  0x5f, 0x32, 0x64, 0x00, 0xcc, 0xd5, 0xff, 0xff, 0xc2, 0xd6, 0xff, 0xff,
  0x04, 0x00, 0x00, 0x00, 0x40, 0x00, 0x00, 0x00, 0x4d, 0xf6, 0x17, 0xbd,
  0xd9, 0x33, 0xe0, 0x3f, 0x5f, 0x1f, 0x10, 0xc0, 0xec, 0xd2, 0xe8, 0xbf,
  0x1f, 0x12, 0xe4, 0xbc, 0xa9, 0x4b, 0xd1, 0xbe, 0x3b, 0x74, 0x9a, 0x3f,
  0xfa, 0x59, 0xba, 0xbf, 0xed, 0xba, 0x2e, 0x3e, 0xc6, 0x35, 0x7a, 0xbf,
  0x1c, 0x35, 0xbe, 0xbf, 0xc3, 0xd0, 0x5b, 0xc0, 0x88, 0x8c, 0x34, 0xc0,
  0x28, 0xf6, 0x75, 0x3f, 0x05, 0x41, 0x48, 0x3e, 0xd5, 0xec, 0x09, 0xc0,
  0x6a, 0xd6, 0xff, 0xff, 0x10, 0x00, 0x00, 0x00, 0x0a, 0x00, 0x00, 0x00,
  0x10, 0x00, 0x00, 0x00, 0x20, 0x00, 0x00, 0x00, 0x01, 0x00, 0x00, 0x00,
  0x10, 0x00, 0x00, 0x00, 0x0d, 0x00, 0x00, 0x00, 0x73, 0x74, 0x64, 0x2e,
  0x63, 0x6f, 0x6e, 0x73, 0x74, 0x61, 0x6e, 0x74, 0x31, 0x00, 0x00, 0x00,
  0x4c, 0xd6, 0xff, 0xff, 0x42, 0xd7, 0xff, 0xff, 0x04, 0x00, 0x00, 0x00,
  0x20, 0x00, 0x00, 0x00, 0x01, 0xc0, 0x5c, 0xc0, 0x60, 0x45, 0x16, 0xbf,
  0x6d, 0x15, 0x38, 0xbf, 0x88, 0xf0, 0xd5, 0xbf, 0xf9, 0xfe, 0x54, 0xc0,
  0x00, 0xb6, 0xf2, 0xbf, 0x58, 0x45, 0x24, 0x3c, 0x3c, 0xde, 0x90, 0xbc,
  0xca, 0xd6, 0xff, 0xff, 0x10, 0x00, 0x00, 0x00, 0x09, 0x00, 0x00, 0x00,
  0x10, 0x00, 0x00, 0x00, 0x20, 0x00, 0x00, 0x00, 0x01, 0x00, 0x00, 0x00,
  0x08, 0x00, 0x00, 0x00, 0x0c, 0x00, 0x00, 0x00, 0x73, 0x74, 0x64, 0x2e,
  0x63, 0x6f, 0x6e, 0x73, 0x74, 0x61, 0x6e, 0x74, 0x00, 0x00, 0x00, 0x00,
  0xac, 0xd6, 0xff, 0xff, 0xa2, 0xd7, 0xff, 0xff, 0x04, 0x00, 0x00, 0x00,
  0x00, 0x08, 0x00, 0x00, 0x17, 0x3b, 0x89, 0xbe, 0x0b, 0xdc, 0x9f, 0x3c,
  0x1e, 0x45, 0xfe, 0xba, 0x29, 0x1e, 0x45, 0xbc, 0x31, 0x06, 0xcf, 0xbe,
  0x16, 0x0f, 0xa9, 0x3e, 0xba, 0xed, 0x96, 0x3c, 0x4c, 0x33, 0xfa, 0xbd,
  0x8e, 0x2e, 0xa1, 0xbe, 0xee, 0x80, 0xcf, 0x3d, 0x04, 0x70, 0x53, 0xbe,
  0x3f, 0xd9, 0xd6, 0xbd, 0xe7, 0x0c, 0xb1, 0xbd, 0x07, 0xb3, 0xa6, 0xbe,
  0x0c, 0x20, 0xfc, 0x3c, 0x63, 0x30, 0x67, 0xbe, 0xa1, 0xba, 0x52, 0xbe,
  0x45, 0x5e, 0xdf, 0xbd, 0xce, 0xfa, 0xaa, 0xbc, 0x73, 0x48, 0xfd, 0xbd,
  0xb1, 0xa3, 0x96, 0x3c, 0xb1, 0x31, 0x74, 0x3d, 0xde, 0x1e, 0x9f, 0xbc,
  0x4d, 0xc1, 0x3a, 0x3b, 0xdc, 0xd2, 0x48, 0xbe, 0x13, 0xd1, 0x84, 0xbd,
  0x33, 0xe0, 0xd4, 0x3d, 0x7f, 0xb0, 0x59, 0xbe, 0x3a, 0x5a, 0x95, 0x3e,
  0xd3, 0xf9, 0x66, 0x3e, 0xa7, 0xa0, 0x47, 0x3e, 0x25, 0x7e, 0x69, 0xbe,
  0xcc, 0xa7, 0x02, 0x3b, 0x9a, 0x00, 0xcf, 0xbc, 0xdb, 0x8c, 0xb8, 0xbe,
  0x1e, 0x79, 0xfc, 0xbe, 0xa3, 0x9d, 0x62, 0xbe, 0xd6, 0xca, 0xb8, 0xbd,
  0xb4, 0x1f, 0x11, 0xbf, 0x0e, 0xcd, 0x09, 0xbf, 0x3e, 0x98, 0x74, 0xbe,
  0x51, 0x61, 0xf3, 0x3d, 0xaa, 0x84, 0x2d, 0x3d, 0xa4, 0x86, 0x08, 0x3e,
  0x6b, 0x1d, 0x73, 0xbe, 0xff, 0x4d, 0x51, 0x3e, 0x08, 0x4e, 0xcd, 0x3d,
  0x5c, 0x19, 0x73, 0x3d, 0xa0, 0xff, 0xb4, 0xbe, 0x5b, 0x2f, 0xf6, 0x3d,
  0x99, 0xf4, 0x35, 0x3d, 0x5f, 0x5a, 0x0d, 0xbd, 0xab, 0xfd, 0xcc, 0xbe,
  0x6a, 0xef, 0xb5, 0xbe, 0x82, 0x42, 0x64, 0xbd, 0x33, 0xf2, 0x1c, 0xbe,
  0x7b, 0x2c, 0x94, 0x3d, 0x38, 0x4e, 0x27, 0x3d, 0xff, 0x57, 0x52, 0x3e,
  0x83, 0xc1, 0x0d, 0x3e, 0x2b, 0x32, 0x96, 0x3c, 0x40, 0xce, 0x6f, 0x3d,
  0x9a, 0x9e, 0xfe, 0x3d, 0x42, 0x13, 0x94, 0x3d, 0x9c, 0x31, 0x09, 0xbe,
  0xc9, 0xaf, 0x9c, 0x3b, 0x50, 0x1e, 0xe2, 0xbd, 0x59, 0x59, 0xcb, 0xbd,
  0xab, 0x4b, 0x03, 0xbf, 0xcc, 0x59, 0x3d, 0xbf, 0xcf, 0x11, 0xa4, 0xbe,
  0x78, 0xbb, 0x96, 0x3d, 0x57, 0xd3, 0x75, 0x3e, 0xb6, 0x80, 0x4e, 0xbd,
  0x0e, 0x02, 0xe9, 0xbd, 0x06, 0xd6, 0x87, 0xbd, 0x60, 0x19, 0x1c, 0x3e,
  0x5c, 0x8e, 0x54, 0xbe, 0x37, 0xf9, 0x73, 0xbe, 0x7c, 0x52, 0x00, 0x3e,
  0xf7, 0xa7, 0x99, 0x3e, 0xb9, 0x79, 0x94, 0xbd, 0x4f, 0x6a, 0x2a, 0x3e,
  0x05, 0xe0, 0x1d, 0x3e, 0x48, 0x71, 0x90, 0x3c, 0x73, 0xa8, 0x65, 0x3f,
  0x02, 0x4d, 0xeb, 0x3a, 0xc0, 0x8e, 0x1a, 0xbd, 0xfa, 0xcc, 0x14, 0xbf,
  0xa3, 0x4f, 0x83, 0xbd, 0x99, 0x93, 0x44, 0x3d, 0xd5, 0x0a, 0x14, 0xbe,
  0x18, 0xc4, 0x02, 0x3e, 0xcd, 0x89, 0x9a, 0x3d, 0x3c, 0xdc, 0xd6, 0xba,
  0x5f, 0xcd, 0xb5, 0xbe, 0xab, 0x58, 0x9b, 0x3e, 0x34, 0xa6, 0xd1, 0xbc,
  0x44, 0xd0, 0xfc, 0x3e, 0x63, 0xc0, 0xaa, 0x3e, 0x69, 0x25, 0xa7, 0x3e,
  0xea, 0x1d, 0x65, 0x3d, 0xf9, 0xc4, 0x48, 0xbe, 0xce, 0x55, 0x7f, 0x3d,
  0x4d, 0xed, 0xa5, 0x3d, 0xf7, 0x9f, 0xca, 0xbd, 0x4f, 0x63, 0x1c, 0xbe,
  0x61, 0xe3, 0x8a, 0x3d, 0x8f, 0x4d, 0x5c, 0xbe, 0xfb, 0xcd, 0x26, 0x3e,
  0x60, 0xf9, 0x03, 0xbf, 0x1e, 0xab, 0xa5, 0xbe, 0x0a, 0xc9, 0x07, 0xbe,
  0x39, 0x5c, 0xc6, 0xbd, 0xb5, 0xe1, 0xeb, 0xbd, 0x94, 0xfe, 0x70, 0xbe,
  0x52, 0x19, 0x80, 0xbe, 0xc9, 0xb3, 0x66, 0x3e, 0xcc, 0x12, 0xa9, 0xbd,
  0x57, 0x2c, 0xbd, 0xbd, 0x3b, 0x5e, 0xd9, 0xbd, 0xe0, 0xd9, 0xaa, 0xbd,
  0x2e, 0x8f, 0x43, 0xbe, 0xcd, 0x72, 0xbc, 0xbe, 0x0c, 0x04, 0x87, 0xbc,
  0xb2, 0x74, 0xa2, 0x3e, 0x73, 0xaf, 0x27, 0x3d, 0xc8, 0x20, 0x78, 0x3d,
  0x22, 0x4e, 0x09, 0x3e, 0x12, 0x87, 0xae, 0xbe, 0x3a, 0xcf, 0xb3, 0xbe,
  0x61, 0xeb, 0x97, 0xbe, 0xaa, 0xc2, 0x2a, 0x3f, 0x0b, 0x31, 0x11, 0x3d,
  0x80, 0xa0, 0x45, 0x3e, 0xf7, 0xcb, 0x28, 0x3e, 0xca, 0xa5, 0x3d, 0x3e,
  0xf5, 0x16, 0xbc, 0xbe, 0xe1, 0xd0, 0x8b, 0xbe, 0x9d, 0x0e, 0xb3, 0xbe,
  0x2b, 0x5b, 0xed, 0xbc, 0x50, 0xae, 0x07, 0x3e, 0xcc, 0x2e, 0x78, 0x3d,
  0x44, 0x3e, 0x7a, 0x3e, 0x17, 0xac, 0x75, 0x3e, 0x9e, 0xd5, 0x42, 0xbe,
  0x6b, 0x5b, 0x5b, 0xbe, 0x9d, 0xe3, 0x63, 0xbe, 0x2c, 0x99, 0xb8, 0x3d,
  0x88, 0x15, 0x0f, 0xbe, 0x80, 0x74, 0x01, 0x3e, 0x3f, 0xd0, 0x08, 0xbe,
  0x41, 0xfb, 0x33, 0xbe, 0xdc, 0x11, 0xb3, 0xbd, 0x93, 0xe6, 0xd3, 0xbd,
  0x7f, 0x57, 0x39, 0x3d, 0x1d, 0xee, 0x5e, 0x3e, 0x8f, 0x73, 0xcc, 0x3e,
  0x34, 0x37, 0xdd, 0xbb, 0x25, 0x60, 0x84, 0x3d, 0x70, 0x39, 0x52, 0x3d,
  0x97, 0xb7, 0x09, 0x3c, 0xd0, 0x4c, 0x38, 0x3e, 0xdc, 0x57, 0xa1, 0x3e,
  0xf3, 0x3f, 0x51, 0x3e, 0x11, 0x8f, 0x04, 0x3f, 0x00, 0xfc, 0x67, 0xbe,
  0xe1, 0xf6, 0x58, 0xbe, 0x64, 0x04, 0x0e, 0xbe, 0xcc, 0x72, 0x02, 0xbe,
  0xe0, 0xd4, 0xee, 0xbd, 0x0c, 0x84, 0x88, 0xbe, 0x13, 0xfa, 0x1f, 0xbe,
  0x7a, 0xd8, 0xda, 0xbd, 0x60, 0x48, 0x84, 0xbe, 0xab, 0xf1, 0x98, 0xbe,
  0x8d, 0xb2, 0x03, 0x3d, 0x33, 0x20, 0x55, 0xbd, 0x10, 0x1d, 0xe5, 0xbd,
  0x45, 0x46, 0x63, 0xbe, 0x11, 0x36, 0xf5, 0xbd, 0x77, 0xef, 0x7a, 0x3e,
  0x9c, 0x0f, 0x2e, 0xbe, 0x7e, 0x90, 0x0e, 0xbe, 0x88, 0xc4, 0x7b, 0xbd,
  0xe0, 0x74, 0x99, 0xbc, 0x9e, 0x34, 0xcc, 0xbd, 0x91, 0x38, 0x71, 0xbe,
  0x46, 0x6f, 0xc9, 0xbc, 0x1a, 0x03, 0x4a, 0x3e, 0xc6, 0x7f, 0xba, 0xbd,
  0x72, 0x01, 0x00, 0xbd, 0x09, 0xd4, 0x26, 0x3e, 0x33, 0xe0, 0x15, 0xbf,
  0xbc, 0x3b, 0xb7, 0xbd, 0x43, 0xcc, 0xcd, 0x3e, 0x8c, 0x90, 0xc0, 0xbd,
  0x2c, 0xa1, 0x8b, 0x3c, 0xf9, 0x91, 0x1c, 0xbe, 0xdb, 0x12, 0xd5, 0x3d,
  0x25, 0x5f, 0x0c, 0x3d, 0x20, 0xc8, 0x2d, 0xbf, 0x5b, 0xa3, 0x32, 0xbe,
  0xb2, 0xd2, 0x4f, 0xbd, 0xc0, 0x1c, 0x01, 0x3f, 0xed, 0xf9, 0x86, 0x3e,
  0x8b, 0x81, 0x8f, 0x3e, 0xd7, 0xb9, 0x1f, 0x3e, 0x63, 0x9d, 0x49, 0x3e,
  0xfb, 0x86, 0x0f, 0xbf, 0xd1, 0xc9, 0x3c, 0xbe, 0xb1, 0xb7, 0x1a, 0x3e,
  0x74, 0xad, 0x4b, 0x3e, 0x3c, 0x4a, 0x87, 0x3d, 0x46, 0xa9, 0x28, 0xbe,
  0x7f, 0x5d, 0x4e, 0xbd, 0xa8, 0x6c, 0x5e, 0x3e, 0xcf, 0x1b, 0xf0, 0xbe,
  0x5f, 0x88, 0x28, 0xbe, 0x83, 0x99, 0x59, 0x3e, 0xf5, 0xfb, 0x5c, 0x3e,
  0xdf, 0x83, 0xc8, 0x3d, 0x57, 0x49, 0x24, 0x3e, 0x33, 0xd7, 0xe2, 0x3d,
  0x25, 0xed, 0xcc, 0xbe, 0xde, 0x37, 0x22, 0x3b, 0x11, 0xca, 0x80, 0xbd,
  0xd7, 0x82, 0x90, 0xba, 0xeb, 0xee, 0xe2, 0xbe, 0x0e, 0xba, 0x56, 0xbf,
  0x50, 0xd1, 0x52, 0xbe, 0xb9, 0xe3, 0xcf, 0xbd, 0x23, 0xfd, 0x02, 0xbf,
  0xf8, 0xd0, 0x08, 0xbc, 0x3b, 0x06, 0x9a, 0xbd, 0x0b, 0x0a, 0x16, 0xbd,
  0xf5, 0x03, 0xa5, 0xbe, 0xac, 0x5d, 0x17, 0xbf, 0x5f, 0xe6, 0xf9, 0xbd,
  0xc9, 0xba, 0x0a, 0xbe, 0x13, 0xb7, 0xe2, 0xbc, 0x91, 0xa4, 0x05, 0xbd,
  0x6d, 0xb0, 0x19, 0xbd, 0x2e, 0xb5, 0x55, 0xbd, 0x53, 0xb5, 0x8a, 0x3e,
  0x65, 0xa2, 0x87, 0x3e, 0x31, 0x9c, 0x37, 0xbe, 0x1d, 0x55, 0x2c, 0xbd,
  0xd9, 0x38, 0x44, 0x3e, 0xf7, 0xf5, 0xe5, 0x3c, 0x66, 0xdb, 0x27, 0xbc,
  0xd3, 0x61, 0x76, 0x3e, 0x5a, 0x4f, 0xd1, 0x3d, 0x51, 0x60, 0x4a, 0x3f,
  0xa3, 0x33, 0x92, 0x3e, 0x84, 0x9f, 0x33, 0xbd, 0xdc, 0x4a, 0xc6, 0xbe,
  0x4d, 0xae, 0xe9, 0xbd, 0x6d, 0x9a, 0x39, 0xbe, 0x0b, 0x28, 0x67, 0xbd,
  0xf6, 0xa1, 0x09, 0x3f, 0xdd, 0x05, 0xb0, 0x3d, 0xe0, 0xb8, 0x7d, 0xbc,
  0x7a, 0x78, 0x21, 0x3e, 0x8a, 0x4a, 0xf1, 0x3e, 0xc0, 0x71, 0x2f, 0xbe,
  0xb3, 0x94, 0x39, 0xbe, 0xee, 0xd1, 0x52, 0xbe, 0x2a, 0x3a, 0xca, 0x3d,
  0x74, 0x39, 0x63, 0xbd, 0x34, 0xe7, 0x95, 0x3e, 0x6a, 0x04, 0x32, 0xbe,
  0xe3, 0xe3, 0x28, 0x3d, 0x3a, 0xe5, 0x9e, 0xbd, 0xab, 0x1b, 0xab, 0xbd,
  0x3a, 0xf1, 0x60, 0xbd, 0xee, 0x65, 0x75, 0xbd, 0x24, 0x4e, 0x8f, 0xbe,
  0xaf, 0xea, 0x03, 0x3c, 0x56, 0x24, 0x51, 0x3e, 0x32, 0x61, 0x6b, 0x3c,
  0x7d, 0xdb, 0x8a, 0xbd, 0x89, 0x3b, 0xde, 0xbd, 0x8d, 0x8d, 0x64, 0x3e,
  0x12, 0x44, 0xf9, 0x3d, 0x75, 0x58, 0xa6, 0xbd, 0x14, 0x1f, 0x56, 0xbd,
  0x95, 0x0d, 0x80, 0x3e, 0x33, 0x15, 0xd7, 0x3c, 0x57, 0xeb, 0x84, 0x3d,
  0x90, 0x62, 0x03, 0xbd, 0x40, 0x2c, 0x7e, 0x3e, 0x59, 0xb9, 0xcd, 0x3e,
  0x1c, 0x46, 0xca, 0x3d, 0x9e, 0xe7, 0x0c, 0xbf, 0xcb, 0x9c, 0x3c, 0x3d,
  0x6d, 0x1d, 0x85, 0xbe, 0x18, 0x9c, 0xbb, 0xbd, 0x57, 0x3e, 0x43, 0x3e,
  0x27, 0x06, 0x43, 0xbd, 0x29, 0x02, 0xb9, 0x3e, 0x53, 0x2e, 0xfb, 0x3d,
  0x93, 0x3d, 0x1b, 0xbf, 0x8e, 0xdd, 0x5f, 0xbe, 0x46, 0x49, 0x8d, 0xbd,
  0x8a, 0x15, 0xb6, 0xbd, 0x9c, 0x04, 0xc1, 0xbd, 0xa4, 0xab, 0x08, 0xbe,
  0x7e, 0x2e, 0x01, 0xbe, 0xba, 0xe5, 0x67, 0x3e, 0x32, 0xdf, 0x74, 0xbe,
  0x99, 0x99, 0x47, 0xbe, 0x59, 0x25, 0x8b, 0xbe, 0x7d, 0xdb, 0xe9, 0xbd,
  0x40, 0x93, 0x39, 0xbe, 0x71, 0x21, 0x74, 0xbe, 0xc0, 0x10, 0x12, 0xbe,
  0x2a, 0xf1, 0x94, 0x3e, 0xd5, 0x2d, 0x24, 0x3c, 0x58, 0x7c, 0x76, 0xbe,
  0x3e, 0x78, 0x3f, 0x3d, 0xf6, 0x65, 0xf1, 0x3c, 0x09, 0xed, 0xe7, 0x3c,
  0xc1, 0xad, 0x02, 0xbe, 0xcc, 0x8d, 0xf7, 0x3d, 0xe7, 0xde, 0x07, 0xbf,
  0xa7, 0x06, 0xb9, 0xbe, 0x6a, 0x36, 0xda, 0x3d, 0xea, 0xbe, 0xa1, 0x3e,
  0x9c, 0x95, 0xd3, 0xbd, 0xe6, 0xde, 0xf0, 0xbd, 0x17, 0xea, 0x87, 0x3e,
  0xf9, 0xf3, 0x77, 0x3e, 0xfb, 0xd8, 0x89, 0x3d, 0x8d, 0x31, 0x22, 0xbf,
  0xe5, 0x24, 0x19, 0x3d, 0xab, 0x42, 0x39, 0x3c, 0x9c, 0xb7, 0xc7, 0xbd,
  0xad, 0x0a, 0x21, 0x3e, 0x06, 0x3f, 0x71, 0xbd, 0x7f, 0xff, 0xc1, 0x3d,
  0xb0, 0x5b, 0x8d, 0x3e, 0xcc, 0xbd, 0xf6, 0xbe, 0x18, 0xd8, 0xf0, 0xbd,
  0x48, 0xc3, 0xb3, 0xbe, 0x08, 0x2a, 0xdd, 0xbd, 0xbc, 0x35, 0xf8, 0xbd,
  0x43, 0x3c, 0x42, 0xbe, 0x34, 0xa9, 0xe7, 0xbd, 0x4f, 0x81, 0x7d, 0x3e,
  0x0a, 0x49, 0x46, 0xbe, 0xf4, 0x18, 0x9b, 0xbe, 0x46, 0xe4, 0x60, 0xbe,
  0xc6, 0x6c, 0xb7, 0xbd, 0x4c, 0x40, 0x97, 0xbd, 0xb8, 0x04, 0x11, 0xbe,
  0x12, 0xa1, 0x26, 0x3f, 0xf9, 0xd2, 0xc7, 0xbb, 0xb7, 0xe6, 0x53, 0x3e,
  0xc8, 0x01, 0x11, 0xbe, 0x2b, 0xf0, 0x08, 0x3f, 0xd0, 0xc3, 0x42, 0xbd,
  0x01, 0x9e, 0x86, 0xbc, 0xce, 0x7e, 0xe5, 0xbd, 0x43, 0x8c, 0x4b, 0x3e,
  0x40, 0x89, 0xcf, 0x3d, 0x07, 0xc8, 0x4e, 0x3d, 0xd8, 0x20, 0x89, 0x3e,
  0x33, 0x03, 0xbd, 0x3e, 0x46, 0x59, 0x5c, 0x3b, 0x03, 0x20, 0x23, 0x3d,
  0xf6, 0xc9, 0x26, 0x3d, 0x49, 0xa7, 0x4b, 0x3d, 0xe6, 0x86, 0x88, 0xbe,
  0x70, 0xa3, 0x76, 0xbd, 0x02, 0xad, 0xa9, 0xbd, 0x43, 0x23, 0x6d, 0xbf,
  0x9c, 0x84, 0x12, 0xbc, 0x52, 0xb0, 0x0b, 0xbb, 0xf7, 0x9d, 0xa1, 0x3d,
  0x1d, 0x2e, 0xfb, 0xbe, 0x6c, 0xf4, 0x5b, 0xbe, 0xf4, 0x88, 0xf0, 0xbd,
  0x3c, 0x68, 0xc8, 0xbe, 0x23, 0x4c, 0x04, 0xbf, 0x74, 0xc7, 0x71, 0xbd,
  0x59, 0xdc, 0x47, 0xbe, 0x09, 0x9b, 0x93, 0xbe, 0x9b, 0x5f, 0xde, 0xbe,
  0x64, 0xf4, 0xba, 0x3d, 0xdc, 0xfc, 0x05, 0xbe, 0x91, 0xb7, 0x95, 0xbe,
  0x38, 0xe4, 0x4b, 0x3b, 0x93, 0x4b, 0xd4, 0xbd, 0x93, 0x5e, 0x50, 0xbe,
  0x46, 0x64, 0x5f, 0xbe, 0x80, 0x6f, 0xca, 0xbc, 0x49, 0x45, 0x93, 0x3d,
  0x2b, 0x63, 0x30, 0xbc, 0xf0, 0x98, 0x3c, 0xbe, 0x6d, 0x52, 0xc9, 0x3e,
  0xbd, 0xdd, 0xcd, 0xbc, 0xd1, 0xf1, 0xde, 0xbd, 0xd6, 0x3b, 0x1c, 0xbe,
  0x1c, 0xf9, 0x94, 0x3e, 0x8c, 0x99, 0xc5, 0x3d, 0x31, 0x89, 0x33, 0x3d,
  0xff, 0x68, 0xaa, 0x3e, 0x95, 0xba, 0x85, 0x3e, 0x9a, 0x9d, 0xfc, 0x3d,
  0x9a, 0x3c, 0x83, 0x3e, 0x5e, 0xd7, 0x92, 0x3e, 0x9b, 0xba, 0x17, 0x3c,
  0x08, 0x48, 0x13, 0xbe, 0xc0, 0x07, 0x39, 0xbe, 0x82, 0x9b, 0x4f, 0x3e,
  0x3e, 0x67, 0x85, 0x3d, 0xd7, 0x9c, 0xa4, 0x3d, 0x7e, 0x5a, 0xbf, 0x3d,
  0xa7, 0xb4, 0x27, 0x3e, 0x62, 0x75, 0x8a, 0xbe, 0x74, 0x88, 0x34, 0xbb,
  0x24, 0x64, 0xfb, 0xbd, 0xa5, 0x1d, 0x8a, 0xbe, 0xcf, 0x95, 0x1a, 0xbe,
  0x54, 0xc7, 0x50, 0xbb, 0x11, 0xf1, 0xc2, 0x3e, 0x6f, 0x89, 0x37, 0xbd,
  0x93, 0x15, 0x7b, 0x3e, 0x45, 0x22, 0x7a, 0xbd, 0x3e, 0x03, 0xeb, 0xbd,
  0x96, 0x50, 0x07, 0xbe, 0x5e, 0x52, 0x81, 0x3e, 0xb6, 0x04, 0x56, 0xbd,
  0x68, 0x99, 0x4b, 0xbc, 0x21, 0x50, 0x97, 0xbd, 0xb1, 0x50, 0xc2, 0xbd,
  0xbb, 0x04, 0x19, 0x3e, 0xe8, 0x78, 0x32, 0x3e, 0x19, 0x77, 0xdb, 0x3b,
  0xda, 0x18, 0x15, 0xbe, 0x38, 0x8d, 0x99, 0x3d, 0xf3, 0xcf, 0x08, 0x3d,
  0xed, 0x71, 0x20, 0x3e, 0xcc, 0x86, 0x49, 0x3c, 0x62, 0x1c, 0x3c, 0xbd,
  0xf9, 0xf3, 0xca, 0xbb, 0x8d, 0xce, 0x0a, 0x3d, 0x78, 0x72, 0x40, 0xbe,
  0x86, 0xff, 0x8d, 0x3e, 0xcf, 0xd4, 0x1f, 0xbe, 0xe1, 0xa7, 0x47, 0x3c,
  0xe4, 0x7a, 0x42, 0xbe, 0x65, 0x97, 0xed, 0x3c, 0x9a, 0x40, 0x7b, 0x3c,
  0x11, 0xa6, 0x22, 0xbd, 0x65, 0x8f, 0xff, 0xbd, 0x7c, 0xdf, 0x95, 0xbd,
  0xff, 0x27, 0xba, 0x3e, 0x7f, 0x63, 0x14, 0xbd, 0x94, 0x4f, 0x84, 0xbc,
  0xbf, 0x32, 0x78, 0xbe, 0x87, 0x47, 0x4e, 0x3d, 0xae, 0x48, 0xbc, 0xbb,
  0xcd, 0x57, 0xe4, 0xbd, 0xc7, 0xc5, 0x8c, 0xbd, 0xb1, 0x01, 0x70, 0x3d,
  0xa7, 0x7f, 0xac, 0xbd, 0xfd, 0xd7, 0x80, 0xbd, 0x83, 0x38, 0xf1, 0xbd,
  0x11, 0xdd, 0x11, 0x3e, 0xc1, 0xe4, 0xd1, 0xba, 0x25, 0x54, 0x25, 0xbe,
  0xad, 0x82, 0x5a, 0x3e, 0x7c, 0xf6, 0x2a, 0xbd, 0xb8, 0xb8, 0x01, 0x3e,
  0xff, 0xe1, 0x6d, 0x3a, 0xc3, 0x5c, 0x68, 0xbe, 0x24, 0x68, 0x8f, 0xbd,
  0x26, 0xff, 0x56, 0xbd, 0x0c, 0xaa, 0x41, 0xbf, 0x37, 0xa5, 0x3d, 0xbe,
  0xb0, 0x6b, 0xff, 0xbd, 0xa7, 0x85, 0xb2, 0xbe, 0x4c, 0x6d, 0x30, 0x3f,
  0xb7, 0x69, 0x39, 0x3d, 0xa1, 0x53, 0x63, 0x3e, 0xa6, 0xd0, 0x6e, 0xbf,
  0x72, 0xda, 0xcc, 0x3e, 0xdd, 0x6b, 0x93, 0xbe, 0xbe, 0xb1, 0xbf, 0xbd,
  0xa7, 0xb6, 0x09, 0xbf, 0x91, 0xf1, 0xbe, 0x3e, 0x37, 0x0b, 0xb1, 0x3c,
  0x42, 0xf0, 0xa6, 0x3c, 0xe6, 0x4e, 0x42, 0xbd, 0xcb, 0x71, 0x41, 0xbe,
  0x41, 0x5a, 0x11, 0xbe, 0x5f, 0x8b, 0xad, 0xbd, 0x0a, 0xc2, 0x1b, 0xbe,
  0xc7, 0x29, 0x79, 0xbd, 0xd2, 0x48, 0xd3, 0xbe, 0x74, 0x34, 0xb4, 0x3c,
  0xe2, 0x32, 0x17, 0x3f, 0x7b, 0xcc, 0x84, 0xbc, 0x28, 0x2e, 0x1a, 0x3d,
  0xf4, 0x65, 0x27, 0xbd, 0xd3, 0xdc, 0x2c, 0xbd, 0x4d, 0xa8, 0x0f, 0xbe,
  0xa2, 0x41, 0x73, 0x3c, 0xd1, 0xbd, 0x7a, 0x3d, 0xf7, 0xe2, 0x90, 0xbd,
  0x0a, 0xdf, 0xff, 0xff, 0x10, 0x00, 0x00, 0x00, 0x08, 0x00, 0x00, 0x00,
  0x1c, 0x00, 0x00, 0x00, 0x38, 0x00, 0x00, 0x00, 0x04, 0x00, 0x00, 0x00,
  0x10, 0x00, 0x00, 0x00, 0x04, 0x00, 0x00, 0x00, 0x01, 0x00, 0x00, 0x00,
  0x08, 0x00, 0x00, 0x00, 0x1a, 0x00, 0x00, 0x00, 0x73, 0x65, 0x71, 0x75,
  0x65, 0x6e, 0x74, 0x69, 0x61, 0x6c, 0x2f, 0x63, 0x6f, 0x6e, 0x76, 0x32,
  0x64, 0x5f, 0x31, 0x2f, 0x43, 0x6f, 0x6e, 0x76, 0x32, 0x44, 0x00, 0x00,
  0x04, 0xdf, 0xff, 0xff, 0xfa, 0xdf, 0xff, 0xff, 0x04, 0x00, 0x00, 0x00,
  0x80, 0x01, 0x00, 0x00, 0xde, 0x35, 0xa8, 0x3c, 0x0d, 0x28, 0xe3, 0x3c,
  0x33, 0x6d, 0x9c, 0xbd, 0x38, 0xab, 0x8b, 0x3d, 0xf3, 0xb4, 0x12, 0x3f,
  0x16, 0x56, 0xbc, 0xbb, 0xa3, 0x7c, 0x8c, 0x3d, 0xcf, 0xa6, 0xb4, 0xbe,
  0x55, 0xba, 0x47, 0x3e, 0xe5, 0xe0, 0x15, 0xbe, 0xa9, 0x9d, 0x9a, 0xbe,
  0x21, 0xec, 0x1c, 0xbe, 0xab, 0x57, 0x31, 0xbe, 0xa3, 0x78, 0x04, 0x3d,
  0x0c, 0xe7, 0xd9, 0x3d, 0xb8, 0x22, 0x87, 0xbd, 0x57, 0x42, 0xcd, 0x3c,
  0xf5, 0x67, 0x8d, 0x3c, 0x55, 0x31, 0xc1, 0xbd, 0x48, 0x5c, 0x17, 0x3d,
  0x25, 0x2d, 0x40, 0xbd, 0x01, 0xc8, 0xc6, 0xbd, 0x43, 0xf2, 0xa2, 0x3d,
  0x53, 0x69, 0x36, 0xbb, 0x8c, 0xaf, 0x10, 0x3e, 0xac, 0x12, 0x56, 0xbe,
  0x19, 0x96, 0xd2, 0x3d, 0x66, 0x0e, 0x82, 0xbd, 0xa7, 0x58, 0x50, 0xbd,
  0x2d, 0x44, 0x38, 0x3e, 0xb2, 0x68, 0xf3, 0xbd, 0x88, 0x1c, 0x17, 0x3d,
  0x66, 0x93, 0xd0, 0x3d, 0x11, 0x8f, 0xfd, 0xbd, 0xdc, 0xb3, 0x3f, 0x3e,
  0x7a, 0x7a, 0x75, 0x3b, 0x5b, 0x01, 0x05, 0xbe, 0xc1, 0xb8, 0xcc, 0x3d,
  0xce, 0x00, 0x8f, 0xbe, 0xce, 0xe7, 0xca, 0x3d, 0x87, 0xa6, 0x1e, 0x3d,
  0x33, 0x80, 0xc9, 0xbd, 0x32, 0x2c, 0xd6, 0x3d, 0xb0, 0x27, 0x98, 0xbe,
  0x84, 0x2f, 0x25, 0x3e, 0xe7, 0xcd, 0xd9, 0xbd, 0x76, 0xca, 0x85, 0xbd,
  0x48, 0xc0, 0x17, 0x3d, 0xd2, 0x6f, 0x22, 0x3d, 0x8e, 0x6a, 0xbd, 0xbb,
  0x81, 0xb1, 0x91, 0xbc, 0xbf, 0x98, 0x5e, 0x3e, 0x1e, 0x3b, 0x02, 0xbe,
  0x2d, 0xf8, 0x01, 0xbf, 0x17, 0x75, 0xab, 0xbe, 0xfc, 0xdd, 0xf4, 0x3d,
  0x1e, 0x75, 0xa6, 0x3d, 0x93, 0x35, 0x6c, 0x3c, 0xb3, 0xd7, 0x2d, 0x3d,
  0x47, 0x7f, 0x04, 0x3f, 0xe1, 0x22, 0xfe, 0xbe, 0x8d, 0xae, 0xa4, 0xbe,
  0x31, 0xc1, 0x44, 0xbe, 0xdd, 0x98, 0x9e, 0x3d, 0xf2, 0x14, 0x9d, 0x3e,
  0x92, 0x52, 0x40, 0x3e, 0x09, 0xe8, 0xd7, 0x3e, 0xa9, 0x20, 0xb7, 0x3d,
  0x6f, 0x3a, 0x2c, 0x3d, 0xb9, 0x05, 0xb5, 0x3d, 0x13, 0xe7, 0x09, 0x3c,
  0xbe, 0x00, 0x92, 0x3a, 0x87, 0xd7, 0xdf, 0x3d, 0xa7, 0xc2, 0xf4, 0xbd,
  0xf5, 0x2c, 0x7e, 0xbe, 0xa8, 0x05, 0x03, 0x3f, 0x14, 0x52, 0x44, 0x3e,
  0xfb, 0xf9, 0x04, 0x3d, 0x2c, 0x10, 0xa2, 0xbe, 0xa2, 0x75, 0x44, 0x3e,
  0x7f, 0xf5, 0x3d, 0x3d, 0x4b, 0x3e, 0x11, 0xbd, 0x62, 0x38, 0x59, 0x3d,
  0x56, 0x47, 0xe7, 0x3b, 0xda, 0xed, 0x22, 0x3e, 0xa8, 0x29, 0xbb, 0x3d,
  0x4a, 0x5c, 0xaa, 0x3d, 0x3a, 0x34, 0x40, 0xbe, 0x27, 0x34, 0x58, 0x3e,
  0x8b, 0xd4, 0xde, 0x3e, 0x63, 0xde, 0x44, 0x3e, 0x2d, 0xaa, 0xfe, 0xbd,
  0xc6, 0x77, 0x84, 0xbe, 0xe0, 0x78, 0x8f, 0xbd, 0xae, 0xe1, 0x8d, 0xbe,
  0x36, 0xb9, 0xaa, 0xbe, 0xe2, 0xe0, 0xff, 0xff, 0x10, 0x00, 0x00, 0x00,
  0x07, 0x00, 0x00, 0x00, 0x1c, 0x00, 0x00, 0x00, 0x38, 0x00, 0x00, 0x00,
  0x04, 0x00, 0x00, 0x00, 0x08, 0x00, 0x00, 0x00, 0x04, 0x00, 0x00, 0x00,
  0x03, 0x00, 0x00, 0x00, 0x01, 0x00, 0x00, 0x00, 0x18, 0x00, 0x00, 0x00,
  0x73, 0x65, 0x71, 0x75, 0x65, 0x6e, 0x74, 0x69, 0x61, 0x6c, 0x2f, 0x63,
  0x6f, 0x6e, 0x76, 0x32, 0x64, 0x2f, 0x43, 0x6f, 0x6e, 0x76, 0x32, 0x44,
  0x00, 0x00, 0x00, 0x00, 0xdc, 0xe0, 0xff, 0xff, 0xd2, 0xe1, 0xff, 0xff,
  0x04, 0x00, 0x00, 0x00, 0xc0, 0x00, 0x00, 0x00, 0x3c, 0xdf, 0xba, 0x3e,
  0x8c, 0x07, 0xb0, 0x3e, 0x93, 0x1f, 0xd5, 0xbe, 0x8f, 0x7c, 0x4c, 0x3d,
  0xdb, 0x1f, 0xdc, 0xbe, 0xba, 0x54, 0xe4, 0xbe, 0xfd, 0xcb, 0x09, 0xbc,
  0x74, 0x87, 0x80, 0xbe, 0xdb, 0x48, 0x91, 0x3e, 0x2e, 0xc0, 0xa1, 0x3e,
  0x12, 0x5a, 0xad, 0x3d, 0x24, 0x5c, 0x76, 0x3e, 0x61, 0x40, 0x8b, 0xbe,
  0xaa, 0xed, 0xe1, 0x3d, 0xcd, 0xdf, 0x00, 0xbe, 0xd2, 0xeb, 0x6b, 0x3e,
  0x2b, 0xfd, 0xb5, 0x3e, 0xc8, 0xe8, 0xc6, 0x3e, 0x62, 0x84, 0xaf, 0x3e,
  0x8c, 0x97, 0x57, 0xbe, 0xb3, 0x7d, 0xba, 0x3e, 0x37, 0x99, 0x5e, 0x3e,
  0x2f, 0xd8, 0xdd, 0xbc, 0xda, 0x3c, 0x11, 0x3e, 0xc1, 0xec, 0xbe, 0x3e,
  0x5c, 0x73, 0x8d, 0xbe, 0xe2, 0x8b, 0xf3, 0xbd, 0x9e, 0x03, 0xa8, 0x3e,
  0x16, 0xf6, 0xa5, 0xbe, 0x35, 0xa6, 0x1c, 0x3d, 0x1d, 0xe4, 0xc1, 0xbd,
  0x1c, 0x28, 0x29, 0x3e, 0x33, 0x01, 0xde, 0x3e, 0x0b, 0xa6, 0xb1, 0x3e,
  0x45, 0x7a, 0x46, 0x3e, 0xb1, 0x6f, 0xb7, 0x3d, 0xeb, 0x65, 0xe2, 0x3e,
  0x70, 0x1a, 0xdf, 0xbe, 0x7e, 0x1b, 0x25, 0x3d, 0xaa, 0xfc, 0x50, 0xbe,
  0xbc, 0x18, 0x4c, 0x3e, 0xfa, 0x1c, 0x07, 0xbe, 0xba, 0xf1, 0x37, 0xbc,
  0x6c, 0x12, 0x61, 0x3e, 0xc3, 0x37, 0x9a, 0xbe, 0xa2, 0xb6, 0x92, 0x3d,
  0xf8, 0xa9, 0x5d, 0xbe, 0x4a, 0x99, 0x4c, 0x3e, 0xfa, 0xe1, 0xff, 0xff,
  0x10, 0x00, 0x00, 0x00, 0x06, 0x00, 0x00, 0x00, 0x14, 0x00, 0x00, 0x00,
  0x30, 0x00, 0x00, 0x00, 0x02, 0x00, 0x00, 0x00, 0x03, 0x00, 0x00, 0x00,
  0x10, 0x00, 0x00, 0x00, 0x19, 0x00, 0x00, 0x00, 0x73, 0x65, 0x71, 0x75,
  0x65, 0x6e, 0x74, 0x69, 0x61, 0x6c, 0x2f, 0x64, 0x65, 0x6e, 0x73, 0x65,
  0x5f, 0x31, 0x2f, 0x4d, 0x61, 0x74, 0x4d, 0x75, 0x6c, 0x00, 0x00, 0x00,
  0xec, 0xe1, 0xff, 0xff, 0xe2, 0xe2, 0xff, 0xff, 0x04, 0x00, 0x00, 0x00,
  0x00, 0x1c, 0x00, 0x00, 0x29, 0x44, 0x17, 0x3e, 0x85, 0x92, 0x4d, 0x3e,
  0xad, 0x97, 0xa9, 0xbe, 0xc9, 0xc9, 0xab, 0xbe, 0x59, 0x5f, 0x54, 0xbd,
  0x9c, 0x2e, 0x5b, 0x3e, 0x86, 0x5f, 0xba, 0x3d, 0xd3, 0xae, 0x1b, 0x3e,
  0xb0, 0x5f, 0x44, 0xbe, 0xfe, 0x4c, 0xc6, 0xbe, 0xc9, 0xdd, 0x06, 0xbf,
  0x15, 0xc6, 0x0e, 0xbf, 0x58, 0x13, 0x48, 0xbe, 0xbf, 0x2f, 0x1e, 0xbd,
  0x4d, 0xd3, 0x7a, 0x3d, 0x77, 0x7f, 0xa8, 0xbe, 0x33, 0x5c, 0xd0, 0x3c,
  0x5b, 0x36, 0xce, 0xbd, 0x19, 0x47, 0x8c, 0x3c, 0x88, 0xd3, 0xee, 0xbe,
  0xe5, 0x06, 0x80, 0x3e, 0x7e, 0xa6, 0xdf, 0xbe, 0x15, 0xd4, 0xfc, 0x3e,
  0xd6, 0x4b, 0xc1, 0xbe, 0x94, 0xfe, 0x5c, 0x3e, 0xd0, 0x43, 0x09, 0xbf,
  0x7e, 0x0b, 0xb8, 0xbe, 0xc8, 0x6a, 0x7b, 0xbd, 0xff, 0x03, 0x98, 0xbe,
  0x22, 0x7b, 0x86, 0x3d, 0x73, 0xec, 0x86, 0x3d, 0xc1, 0xa6, 0x07, 0x3e,
  0x75, 0x6e, 0x92, 0xbd, 0x21, 0x32, 0x07, 0xbb, 0xb4, 0xf3, 0x9c, 0xbd,
  0x68, 0xcc, 0x86, 0x3d, 0x57, 0x37, 0x24, 0x3e, 0xb8, 0x5a, 0x6c, 0xbe,
  0xdf, 0xcb, 0xd0, 0x3e, 0xe6, 0x84, 0x56, 0xbe, 0x57, 0xca, 0xc1, 0x3d,
  0x2b, 0x32, 0x7d, 0xbe, 0x88, 0x15, 0xe7, 0xbe, 0x74, 0x52, 0x38, 0x3d,
  0x5e, 0x93, 0xf2, 0xbd, 0x82, 0x4a, 0x88, 0x3d, 0x2d, 0x11, 0xc1, 0x3d,
  0x30, 0x50, 0x79, 0x3e, 0x52, 0x6b, 0xb0, 0x3d, 0xf2, 0xad, 0xb2, 0xbc,
  0xc6, 0x2f, 0xae, 0xbe, 0xac, 0xf3, 0x61, 0xbe, 0xd1, 0x82, 0x83, 0x3e,
  0x77, 0x43, 0x93, 0x3e, 0x3a, 0xee, 0x18, 0x3f, 0xe6, 0x6e, 0x35, 0xbe,
  0x6e, 0x4c, 0x37, 0x3e, 0xa1, 0x34, 0x63, 0xbd, 0xc2, 0x32, 0x70, 0xbe,
  0xda, 0x10, 0x8a, 0x3d, 0xfa, 0x35, 0xf6, 0xbd, 0xaa, 0x2f, 0xa2, 0x3d,
  0xc0, 0x64, 0xb4, 0xbc, 0x6a, 0xff, 0x6b, 0x3e, 0x2a, 0x09, 0xb4, 0x3d,
  0xd4, 0xe2, 0x78, 0xbe, 0xe3, 0x78, 0x0d, 0xbe, 0xff, 0xe1, 0x3c, 0xbe,
  0xda, 0x50, 0xab, 0x3d, 0xf1, 0x2b, 0x21, 0xbe, 0xea, 0x28, 0x6a, 0x3e,
  0xfc, 0x1b, 0xed, 0xbe, 0x16, 0xb8, 0x9e, 0x3d, 0x1e, 0x37, 0x9b, 0xbe,
  0x70, 0x68, 0x82, 0xbe, 0xad, 0xd1, 0x1d, 0xbc, 0xe2, 0x56, 0xa9, 0xbe,
  0xeb, 0xf3, 0xe6, 0x3c, 0x62, 0xa7, 0x95, 0xbd, 0xed, 0x3e, 0x89, 0xbc,
  0x03, 0xe9, 0x7f, 0xbc, 0xaa, 0x48, 0x54, 0xbe, 0xc9, 0xbc, 0xee, 0xbe,
  0x3b, 0x4e, 0xf2, 0xbd, 0xc0, 0x3a, 0x8c, 0x3c, 0x93, 0x0f, 0xc2, 0x3d,
  0x01, 0x15, 0x70, 0x3e, 0x7b, 0x93, 0x59, 0xbf, 0x20, 0xd0, 0x39, 0x3b,
  0x03, 0xf8, 0x89, 0xbe, 0x14, 0xeb, 0x5e, 0xbe, 0x7a, 0x51, 0x4c, 0xbd,
  0xb6, 0xb6, 0x12, 0xbf, 0x47, 0xd6, 0x4d, 0x3d, 0xb7, 0x05, 0xe5, 0x3d,
  0xb5, 0x91, 0xd5, 0xbd, 0xc8, 0x7d, 0x05, 0xbe, 0x67, 0xa0, 0xf0, 0x3d,
  0xac, 0x33, 0x4f, 0xbe, 0x81, 0xe9, 0x2d, 0xbe, 0x11, 0xdf, 0x3f, 0x3d,
  0x1c, 0xd8, 0x8c, 0xbe, 0x83, 0x6d, 0xf6, 0x3c, 0xf8, 0x5a, 0x0f, 0xbf,
  0x89, 0x65, 0xc1, 0x3c, 0x1a, 0xe0, 0xef, 0xbc, 0x2a, 0x62, 0x15, 0x3c,
  0x19, 0x8a, 0x6b, 0x3d, 0xf9, 0x77, 0x9c, 0xbe, 0xbc, 0x46, 0x82, 0x3c,
  0xe4, 0xfd, 0x8a, 0x3d, 0xd8, 0x31, 0x2e, 0xbd, 0x25, 0x02, 0xb1, 0xbd,
  0x55, 0x8c, 0xba, 0xbd, 0xb8, 0x64, 0xd3, 0xbd, 0xdb, 0x90, 0xa5, 0xbe,
  0x12, 0x3d, 0x69, 0x3e, 0x31, 0xc9, 0xb0, 0xbd, 0xf7, 0xd1, 0x31, 0x3e,
  0x6f, 0x12, 0x3d, 0x3d, 0x9d, 0x7e, 0x24, 0x3e, 0xb2, 0xb3, 0x4d, 0xbe,
  0xe7, 0x99, 0x82, 0xbd, 0x41, 0x35, 0xb9, 0x3d, 0xcc, 0x01, 0x4a, 0x3b,
  0xdd, 0x49, 0xa8, 0xbd, 0x3f, 0xc1, 0xbc, 0xbd, 0x66, 0x57, 0x80, 0x3e,
  0x0c, 0x82, 0xb2, 0x3d, 0xfa, 0x98, 0x45, 0xbc, 0x30, 0x74, 0x3a, 0x3e,
  0x67, 0x51, 0x0c, 0xbe, 0xc9, 0xc5, 0x12, 0x3c, 0xf3, 0xdd, 0xc5, 0xbd,
  0x84, 0x54, 0x83, 0x3d, 0x2b, 0x0e, 0x30, 0x3e, 0xda, 0x59, 0x7c, 0xbd,
  0x64, 0x41, 0x19, 0x3c, 0xd1, 0x96, 0x0b, 0x3e, 0xc4, 0xca, 0x5e, 0x3e,
  0xf0, 0xea, 0x9d, 0x3d, 0xb8, 0xb4, 0x92, 0xbd, 0xf0, 0xe0, 0x8e, 0xbd,
  0x17, 0x5c, 0xc3, 0x3d, 0x75, 0x01, 0x69, 0x3d, 0x12, 0x4a, 0xb8, 0x3d,
  0x3c, 0x32, 0x11, 0x3e, 0xbe, 0x0a, 0x41, 0xbe, 0x96, 0xbb, 0x8c, 0xbe,
  0x39, 0x17, 0x4b, 0x3d, 0x83, 0x87, 0xaa, 0xbe, 0x02, 0x7d, 0x27, 0xbd,
  0x98, 0x03, 0x94, 0xbe, 0x46, 0xf6, 0xb0, 0x3c, 0x3a, 0x57, 0xa2, 0xbc,
  0x46, 0xc1, 0xc1, 0xbc, 0x4c, 0xf1, 0x31, 0xbf, 0x04, 0xc4, 0x50, 0xbc,
  0xd1, 0x19, 0x6d, 0xbc, 0x7a, 0x30, 0x56, 0xbd, 0x56, 0x99, 0x21, 0x3d,
  0xa5, 0xa0, 0x20, 0x3c, 0x5c, 0x8a, 0x4b, 0xbd, 0xce, 0x9f, 0x52, 0xbe,
  0x14, 0x8f, 0x40, 0xbe, 0x52, 0xfe, 0x13, 0xbf, 0x7d, 0x8c, 0x92, 0xbe,
  0x74, 0x46, 0x0d, 0xbe, 0x49, 0x2c, 0xdc, 0xbe, 0x48, 0xb9, 0x8e, 0x3b,
  0x95, 0xd5, 0xa9, 0xbd, 0x8e, 0x63, 0x29, 0xbf, 0xb4, 0x87, 0x47, 0xbf,
  0xf8, 0xbc, 0xb2, 0xbc, 0x28, 0xc6, 0x2f, 0x3d, 0x43, 0x3d, 0x23, 0xbe,
  0xf3, 0xaa, 0xbf, 0x3d, 0xbf, 0x3f, 0x1b, 0x3d, 0x3e, 0x19, 0x71, 0xbd,
  0xdd, 0x53, 0xd3, 0xbd, 0x00, 0xe9, 0x4c, 0xbc, 0xcb, 0x2a, 0xe3, 0xbd,
  0xcc, 0x7e, 0x41, 0xbe, 0x4c, 0xcc, 0x43, 0xbe, 0xc3, 0xea, 0xcd, 0xbe,
  0x94, 0x70, 0xb7, 0x3c, 0x9a, 0xd6, 0x96, 0x3d, 0xa4, 0x35, 0xc4, 0xbd,
  0x00, 0x5a, 0xb0, 0xbe, 0x80, 0x29, 0xaa, 0x3c, 0x33, 0xb3, 0x00, 0xbd,
  0xba, 0x64, 0xd6, 0x3c, 0x6e, 0xe3, 0x77, 0x3d, 0x43, 0x8d, 0xb0, 0x3c,
  0x8a, 0xb1, 0x28, 0x3e, 0xbd, 0xc4, 0x1d, 0x3e, 0xea, 0x4b, 0x32, 0xbd,
  0x67, 0x52, 0x96, 0x3d, 0xab, 0x15, 0xb9, 0xbd, 0xcb, 0xbc, 0x85, 0xbb,
  0xff, 0x2c, 0x89, 0xbe, 0x9a, 0xef, 0x92, 0x3d, 0x83, 0x08, 0x32, 0x3b,
  0x65, 0xd4, 0x41, 0xbd, 0x7c, 0xfe, 0xdc, 0xbc, 0x29, 0x13, 0xbf, 0xbd,
  0xb1, 0xe6, 0xb7, 0xbc, 0x54, 0xf3, 0x64, 0x3b, 0x04, 0x3c, 0x05, 0x3d,
  0xa9, 0xd7, 0x06, 0x3d, 0x5e, 0x1d, 0x79, 0xbc, 0xd9, 0x01, 0xd6, 0xbd,
  0xf6, 0x18, 0x53, 0xbc, 0x4b, 0xa2, 0x54, 0x3d, 0x41, 0xe4, 0xbb, 0xbd,
  0xb5, 0x42, 0x53, 0xbe, 0xb7, 0x24, 0x18, 0xbe, 0xc8, 0xd2, 0xe3, 0x3c,
  0xa3, 0x30, 0x92, 0xbd, 0x69, 0xe9, 0xd3, 0xbd, 0x33, 0x75, 0xc6, 0x3d,
  0x9c, 0x88, 0x87, 0x3b, 0xe1, 0x72, 0x41, 0x3c, 0xef, 0x10, 0x0c, 0x3e,
  0x29, 0x68, 0x8b, 0x3d, 0x51, 0x92, 0x27, 0xbe, 0xf4, 0xc2, 0x9c, 0x3d,
  0xb5, 0x1e, 0x4d, 0xbe, 0x5a, 0xe6, 0xb9, 0xbc, 0x12, 0xe5, 0xe7, 0xbd,
  0xde, 0x8c, 0x50, 0xbe, 0xa9, 0xd9, 0xfc, 0xbd, 0xbf, 0x6f, 0x42, 0xbd,
  0x22, 0x29, 0x37, 0x3d, 0x6d, 0xd5, 0x64, 0xbe, 0xc3, 0xc6, 0x2a, 0xbe,
  0x49, 0x01, 0xf7, 0xbd, 0x96, 0xe9, 0x65, 0xbe, 0x9b, 0xa9, 0x72, 0xbe,
  0xfc, 0x65, 0x57, 0xbe, 0xcc, 0x62, 0x53, 0x3d, 0x44, 0x6e, 0x1e, 0xbe,
  0xeb, 0x65, 0x8a, 0xbd, 0x03, 0x80, 0x29, 0xbd, 0xfb, 0x8e, 0x21, 0x3d,
  0xd9, 0x2b, 0xe3, 0x3d, 0xc9, 0xc8, 0x0b, 0xbd, 0x07, 0x4a, 0x3a, 0x3e,
  0xef, 0xb7, 0x0c, 0xbe, 0xf2, 0x1f, 0x23, 0x3d, 0xd1, 0x61, 0x2a, 0x3d,
  0x41, 0x76, 0xa2, 0xbd, 0xf1, 0x0e, 0x51, 0xbe, 0x6f, 0x63, 0x42, 0xbe,
  0x8e, 0x2d, 0x2f, 0xbd, 0xb4, 0xdc, 0x89, 0x3d, 0x13, 0x6a, 0x8a, 0xbd,
  0xa1, 0x6f, 0x15, 0xbc, 0x4d, 0xf1, 0x67, 0xbd, 0x77, 0x07, 0xa2, 0xbd,
  0x77, 0xcf, 0xf5, 0xba, 0x76, 0xd9, 0x11, 0xbe, 0x97, 0x70, 0x38, 0xbd,
  0x60, 0xa2, 0x36, 0xbe, 0x8d, 0xc4, 0x87, 0x3c, 0xae, 0x14, 0x0d, 0xbe,
  0x8d, 0x17, 0xd4, 0x3d, 0xdb, 0x33, 0xa4, 0xbc, 0x4c, 0x7c, 0xb7, 0x3d,
  0x37, 0x4c, 0x77, 0xbc, 0x44, 0x72, 0xf2, 0xbd, 0x56, 0xc5, 0x1b, 0xbe,
  0xb5, 0x9f, 0x88, 0x3d, 0x81, 0x6a, 0x7c, 0xbd, 0xfd, 0xe5, 0x23, 0xbd,
  0xf5, 0x37, 0xb3, 0x3d, 0x99, 0x6c, 0x23, 0xbe, 0x56, 0xe1, 0x0c, 0xbe,
  0x7d, 0x99, 0x06, 0x3e, 0xdf, 0xcb, 0x68, 0x3d, 0xc9, 0xc8, 0x9e, 0xbe,
  0x75, 0x16, 0x94, 0x3d, 0xc4, 0x9b, 0x18, 0x3e, 0x44, 0xad, 0xb0, 0xbc,
  0x97, 0x41, 0x8a, 0x3c, 0x4c, 0x74, 0xe0, 0xbd, 0xd5, 0x95, 0xcf, 0x3d,
  0x7c, 0xd3, 0x57, 0x3d, 0x4f, 0x29, 0x36, 0x3c, 0x38, 0x16, 0xaf, 0x3d,
  0x33, 0x71, 0x4a, 0xbd, 0xf3, 0xd2, 0x45, 0xbd, 0x61, 0x1f, 0x2f, 0x3d,
  0x98, 0xb0, 0x5e, 0xbe, 0x17, 0xa6, 0x12, 0xbd, 0xb7, 0x92, 0x0d, 0x3e,
  0x60, 0x70, 0x92, 0xbe, 0x34, 0xe6, 0xcb, 0xbc, 0x7d, 0x2c, 0xe6, 0x3d,
  0xd0, 0x4a, 0x5a, 0xbd, 0xdc, 0xcb, 0xd1, 0xbd, 0x13, 0xb0, 0x8e, 0xbe,
  0x9d, 0x3d, 0x8d, 0x3d, 0xfb, 0x69, 0x14, 0x3c, 0x27, 0x42, 0x81, 0xbe,
  0x1a, 0x03, 0x59, 0xbd, 0x74, 0xed, 0x6a, 0xbd, 0x19, 0x83, 0x6d, 0xbd,
  0xd5, 0x12, 0x8f, 0xbe, 0x05, 0x95, 0x66, 0xbe, 0x8b, 0xf4, 0x8b, 0x3c,
  0xb8, 0x6b, 0xf5, 0xbd, 0x72, 0x7f, 0x49, 0xbe, 0x87, 0x99, 0xd8, 0x3d,
  0x2d, 0x08, 0x8e, 0x3d, 0xe1, 0x66, 0x17, 0xbd, 0x18, 0x1a, 0x11, 0xbe,
  0x42, 0x06, 0x79, 0xbe, 0x4b, 0xe2, 0x7b, 0x3d, 0x07, 0xd5, 0xf4, 0x3d,
  0x6a, 0x48, 0xc8, 0xbd, 0x9d, 0xcf, 0x56, 0x3c, 0x56, 0x39, 0x25, 0xbe,
  0xd6, 0xae, 0xc7, 0x3d, 0x5a, 0xb7, 0x48, 0xbe, 0x3d, 0x9b, 0xd0, 0xbc,
  0xc7, 0xbe, 0x41, 0x3d, 0x7b, 0x68, 0xdd, 0xbd, 0xf3, 0x3f, 0x6d, 0x3d,
  0x14, 0xa0, 0xd9, 0xbd, 0xcd, 0xc6, 0x51, 0x3d, 0x79, 0xc2, 0xc3, 0xbd,
  0xe6, 0x90, 0x81, 0xbd, 0xc4, 0xab, 0xec, 0xbd, 0x5c, 0xb1, 0x93, 0x3d,
  0xa7, 0x4f, 0x2b, 0xbe, 0xc1, 0xb4, 0x16, 0x3d, 0x2a, 0xf9, 0x10, 0x3e,
  0xf6, 0x14, 0x08, 0xbe, 0x4e, 0xba, 0xa7, 0xbe, 0xd2, 0x34, 0x7d, 0xbe,
  0x15, 0xfa, 0x87, 0x3e, 0x5a, 0x6c, 0x80, 0xbd, 0x40, 0x57, 0x20, 0x38,
  0xca, 0x2d, 0x56, 0xbe, 0xf1, 0x57, 0xb0, 0xbe, 0xce, 0xaf, 0xce, 0xbe,
  0x68, 0x04, 0xd3, 0xbe, 0xb5, 0xb1, 0x03, 0xbe, 0x66, 0x11, 0xc8, 0xbc,
  0x3f, 0x7f, 0x1b, 0x3d, 0x4d, 0x47, 0xeb, 0xbe, 0xc4, 0xa1, 0xc1, 0xbd,
  0xef, 0xa6, 0xad, 0x3c, 0x15, 0xb9, 0x16, 0xbe, 0xda, 0x25, 0xeb, 0xbe,
  0x12, 0x22, 0x5a, 0x3e, 0x90, 0x21, 0xdb, 0xbe, 0x32, 0xed, 0x12, 0x3f,
  0x3f, 0xc0, 0x57, 0xbe, 0x13, 0x7b, 0x21, 0x3e, 0xef, 0x15, 0x24, 0xbf,
  0x67, 0x51, 0x97, 0xbd, 0x6c, 0x7a, 0x4a, 0xbe, 0x1c, 0x46, 0x9a, 0xbe,
  0x4a, 0x61, 0x62, 0x3d, 0xda, 0xb7, 0x8c, 0x3d, 0x47, 0x1b, 0x92, 0xbe,
  0x91, 0xbc, 0x02, 0xbd, 0x5f, 0x27, 0x02, 0x3e, 0xee, 0xa6, 0x96, 0xbd,
  0x4b, 0xd1, 0xbd, 0xbd, 0xb3, 0x7c, 0x4d, 0x3e, 0x14, 0x25, 0x81, 0xbe,
  0x17, 0xd3, 0x15, 0x3f, 0x06, 0x6b, 0x9c, 0xbe, 0xe2, 0x7d, 0x8a, 0x3d,
  0xa8, 0x06, 0x8a, 0xbe, 0xa3, 0xdb, 0x40, 0x3e, 0xa4, 0x7c, 0x86, 0x3b,
  0x2b, 0xda, 0xbb, 0xbe, 0x27, 0xfd, 0xde, 0x3d, 0xe7, 0x02, 0xab, 0xbd,
  0xc3, 0xf7, 0x5e, 0x3e, 0xa6, 0x74, 0x27, 0xbe, 0xc1, 0x1c, 0x1b, 0x3e,
  0xf2, 0x1b, 0xb0, 0xbd, 0x1c, 0x93, 0x22, 0xbe, 0xa3, 0xd3, 0xca, 0x3d,
  0x33, 0x79, 0x12, 0x3e, 0x39, 0x41, 0xfd, 0x3e, 0xc3, 0xf1, 0x92, 0xbe,
  0xaa, 0xd2, 0x09, 0x3e, 0xe0, 0x2f, 0xb2, 0xbe, 0x2f, 0x19, 0x99, 0x3d,
  0x5a, 0xec, 0x81, 0x3d, 0xc2, 0x92, 0x37, 0xbe, 0x7c, 0x82, 0xd5, 0x3d,
  0x56, 0xf5, 0x9b, 0x3c, 0x1a, 0x53, 0xf5, 0xbd, 0xa4, 0x97, 0x33, 0xbc,
  0x89, 0x76, 0x47, 0x3e, 0x9e, 0xad, 0x49, 0xbe, 0x16, 0xcd, 0xf8, 0xbd,
  0x89, 0xfa, 0xc0, 0x3c, 0xb8, 0xe8, 0x1f, 0xbe, 0xbe, 0x0d, 0x22, 0x3e,
  0x11, 0xc0, 0xaf, 0xbe, 0x8d, 0x17, 0x97, 0x3d, 0xbf, 0x4b, 0x4a, 0xbe,
  0x05, 0xc0, 0x8c, 0x3d, 0x98, 0x1e, 0xd5, 0xbc, 0x00, 0xb4, 0x01, 0xbf,
  0x26, 0x60, 0x7f, 0x3d, 0xfa, 0xcf, 0x93, 0xbb, 0xda, 0x80, 0x50, 0xbe,
  0xa5, 0x20, 0xf8, 0xbc, 0x80, 0xad, 0x88, 0x3e, 0x7a, 0xdb, 0x0b, 0xbf,
  0xa5, 0x1d, 0x2a, 0x3c, 0x48, 0x32, 0x35, 0xbd, 0x03, 0x5d, 0x96, 0xbd,
  0x60, 0xc7, 0x9f, 0x3e, 0x1c, 0x0b, 0x67, 0xbf, 0x4c, 0x59, 0x07, 0xbe,
  0x5b, 0x24, 0x44, 0xbe, 0x50, 0xfc, 0xbb, 0x3c, 0xd2, 0xad, 0x98, 0xbd,
  0x4f, 0x46, 0xde, 0xbe, 0x3d, 0x40, 0x3c, 0x3c, 0x06, 0xb6, 0xac, 0xbb,
  0xcb, 0x22, 0x3c, 0xbe, 0x26, 0x44, 0x28, 0xbd, 0x94, 0x88, 0x8c, 0x3e,
  0x03, 0xf3, 0xd8, 0xbd, 0x3c, 0x1f, 0x65, 0xbd, 0x6a, 0xc4, 0xaa, 0xbd,
  0xa6, 0x5f, 0xe7, 0xbe, 0xe7, 0x6c, 0x9f, 0x3d, 0xbb, 0x08, 0xf1, 0xbe,
  0xd2, 0x77, 0x2a, 0xbd, 0xca, 0xe8, 0xa2, 0x3d, 0x47, 0x88, 0x82, 0x3b,
  0x4a, 0xb0, 0xe3, 0xbc, 0xec, 0x5e, 0x99, 0xbe, 0x57, 0x93, 0xad, 0x3c,
  0x44, 0xa5, 0x95, 0x3d, 0xa0, 0x16, 0x96, 0xbe, 0x96, 0x6a, 0x0d, 0x3d,
  0x78, 0x8d, 0xa5, 0xbe, 0x17, 0xb7, 0x43, 0xbe, 0xbd, 0xa5, 0x8a, 0x3d,
  0xff, 0x58, 0x74, 0xbe, 0x1b, 0x20, 0x0c, 0x3e, 0xce, 0xcd, 0xa3, 0x3d,
  0xb2, 0xbe, 0xe3, 0x3d, 0x6a, 0x3a, 0x0d, 0xbe, 0x5b, 0xd8, 0xeb, 0xbd,
  0xf6, 0xf3, 0x3c, 0xbd, 0x77, 0x96, 0x9d, 0xbe, 0x08, 0xda, 0x4d, 0xbc,
  0x18, 0x4d, 0xa6, 0xbd, 0x74, 0x65, 0xba, 0xbd, 0xcc, 0xa9, 0xf4, 0xbd,
  0x45, 0x58, 0x52, 0xbe, 0x9f, 0x15, 0x07, 0xbe, 0x05, 0xbe, 0x08, 0xbe,
  0x55, 0xe9, 0xe1, 0xbc, 0xe4, 0xf2, 0x5d, 0xbe, 0xcf, 0x4e, 0x38, 0xbe,
  0x12, 0xfe, 0xa0, 0xbd, 0x5b, 0x44, 0xce, 0xbb, 0xc5, 0xe0, 0x96, 0xbe,
  0x83, 0x79, 0xee, 0x3d, 0x34, 0xc5, 0xce, 0x3d, 0xd5, 0xcc, 0x09, 0x3e,
  0x7d, 0xd0, 0x29, 0x3e, 0x68, 0xfd, 0xb7, 0xbe, 0x16, 0x6a, 0xc4, 0xbd,
  0xd8, 0x1c, 0xda, 0xbd, 0x1b, 0x53, 0x88, 0xbe, 0x44, 0x00, 0x28, 0xbe,
  0x7f, 0x9b, 0x90, 0xbd, 0x4a, 0x08, 0x7c, 0xbd, 0xc3, 0x10, 0xde, 0xbd,
  0x8d, 0x8b, 0x74, 0x3d, 0xcf, 0x58, 0xec, 0x3d, 0xe5, 0x03, 0x68, 0xbc,
  0x8c, 0xee, 0xab, 0xbe, 0x6b, 0xd3, 0xe0, 0x3d, 0xe4, 0x74, 0x43, 0xbe,
  0xae, 0x89, 0x7a, 0x3d, 0x42, 0x02, 0xb3, 0x3d, 0xe4, 0xc9, 0x8f, 0xbe,
  0xea, 0xe2, 0x4e, 0xbd, 0xc5, 0xdf, 0x71, 0xbe, 0x5d, 0xb7, 0xd5, 0x3d,
  0xfa, 0xbd, 0xa7, 0x3d, 0x6e, 0xb7, 0x15, 0xbc, 0xd7, 0x86, 0x15, 0x3b,
  0xbb, 0x91, 0xfb, 0x3c, 0x53, 0xed, 0xd6, 0xbd, 0xcf, 0x85, 0x56, 0xbd,
  0xc6, 0x29, 0x09, 0x3d, 0xfe, 0x4a, 0x29, 0xbd, 0x20, 0x55, 0x7d, 0x3d,
  0x86, 0x7c, 0xb5, 0x3d, 0xc8, 0xd9, 0xf9, 0xbd, 0xea, 0xde, 0xf7, 0xbd,
  0x0f, 0x26, 0x69, 0xbd, 0x0f, 0x2b, 0xee, 0x3d, 0x35, 0xcd, 0x3e, 0xbe,
  0x74, 0x53, 0xff, 0x3d, 0x66, 0x58, 0x25, 0xbe, 0xae, 0x43, 0x0f, 0xbe,
  0x8a, 0x55, 0x6d, 0xbe, 0x7b, 0xcd, 0x83, 0xbe, 0xd0, 0x78, 0xbf, 0x3d,
  0x15, 0xa9, 0x22, 0xbe, 0xbf, 0x7a, 0x30, 0xbe, 0x7c, 0xff, 0x06, 0xbe,
  0x82, 0xc4, 0x65, 0xbe, 0x87, 0x31, 0xe7, 0x3d, 0xf1, 0xc2, 0x00, 0x3d,
  0x0c, 0xdf, 0x44, 0x3d, 0x5e, 0x59, 0x44, 0xbe, 0x38, 0x91, 0xc3, 0xbd,
  0x50, 0x47, 0x8b, 0xbc, 0x6f, 0x41, 0x07, 0xbe, 0xe6, 0xd4, 0x20, 0x3d,
  0x00, 0x13, 0x6a, 0xbe, 0xc8, 0xcb, 0xed, 0x3d, 0x1d, 0xb8, 0x81, 0xbd,
  0x16, 0xb9, 0x1a, 0x3e, 0x24, 0x37, 0xc1, 0x3d, 0x68, 0x4c, 0x96, 0x3d,
  0xda, 0xac, 0x75, 0xbe, 0x25, 0xf6, 0x69, 0xbd, 0x0c, 0xbb, 0x0c, 0xbe,
  0xb0, 0x08, 0x12, 0xbc, 0x43, 0xdf, 0x8a, 0x3d, 0xfe, 0x08, 0x24, 0xbe,
  0xbf, 0x3a, 0x30, 0xbe, 0xf3, 0xb4, 0x54, 0xbe, 0xd7, 0xe5, 0x56, 0x3d,
  0x02, 0x7e, 0xf3, 0xbd, 0x30, 0x22, 0xfa, 0xbd, 0x4b, 0x30, 0xe1, 0xbb,
  0x2f, 0xee, 0x04, 0xbe, 0x80, 0x03, 0x02, 0x3e, 0x50, 0x8b, 0x5f, 0xbe,
  0x06, 0x1e, 0x2d, 0xbe, 0xde, 0x30, 0x92, 0xbe, 0x8d, 0x23, 0x12, 0x3d,
  0x08, 0xb2, 0xe1, 0xbd, 0x81, 0x2b, 0x6a, 0xbe, 0x38, 0x12, 0xa3, 0x3d,
  0x47, 0xf6, 0x6a, 0xbe, 0x64, 0x6b, 0x98, 0x3d, 0xd3, 0x13, 0xd7, 0xbc,
  0xb7, 0x8a, 0x4e, 0x3d, 0x87, 0xfc, 0x4d, 0xbe, 0x1d, 0xa4, 0xf8, 0xbd,
  0x49, 0x78, 0xa1, 0xbd, 0xe7, 0xaa, 0xa5, 0x3d, 0xe3, 0x9d, 0x40, 0xbe,
  0xbf, 0xe0, 0x5b, 0xbe, 0x6b, 0x88, 0x2c, 0x3e, 0xcf, 0xd0, 0x2d, 0xbe,
  0xcf, 0xb5, 0xb6, 0xbc, 0xcc, 0x60, 0x21, 0x3d, 0xa5, 0x36, 0x16, 0xbe,
  0xd7, 0x4c, 0xde, 0x3c, 0x4c, 0x20, 0x97, 0x3b, 0x68, 0x23, 0xae, 0x3d,
  0xa5, 0xae, 0xcf, 0x3d, 0x6a, 0xf8, 0x94, 0xbe, 0x30, 0x89, 0x5c, 0xbe,
  0x6c, 0xc1, 0x57, 0xbe, 0xe1, 0x11, 0x61, 0xbe, 0x85, 0x12, 0x63, 0xbe,
  0xb7, 0x42, 0x01, 0x3c, 0x98, 0x71, 0x0c, 0xbe, 0x5c, 0x28, 0x64, 0xbd,
  0xee, 0x9f, 0x17, 0x3d, 0x58, 0xd4, 0x29, 0x3d, 0x16, 0x03, 0x16, 0x3d,
  0xc8, 0x38, 0x95, 0xbd, 0x7c, 0x5e, 0x52, 0xba, 0xf6, 0xb2, 0x4c, 0xbe,
  0xbd, 0xc9, 0xfb, 0x3c, 0x9d, 0x89, 0x11, 0xbd, 0xa3, 0xbd, 0x8c, 0x3d,
  0xb3, 0xd5, 0xa2, 0xbc, 0xd3, 0xa3, 0xb8, 0x3d, 0x95, 0x71, 0x39, 0xbc,
  0x2c, 0xc2, 0x32, 0xbe, 0xd8, 0x77, 0x29, 0xbe, 0x2b, 0x79, 0x30, 0x3e,
  0x8a, 0x13, 0x2c, 0x3e, 0xf1, 0xe9, 0x96, 0xbe, 0x60, 0x57, 0x9a, 0x3d,
  0xb3, 0xee, 0x49, 0xbe, 0xac, 0x90, 0xcd, 0xbd, 0x20, 0x27, 0xfb, 0x3b,
  0xa1, 0x3f, 0xdb, 0xbd, 0x8f, 0x00, 0x39, 0xbe, 0xd9, 0x9d, 0xcc, 0x3d,
  0x90, 0x8f, 0x20, 0xbe, 0xec, 0xce, 0x4e, 0xbe, 0x4e, 0x45, 0x9a, 0x3d,
  0xea, 0x82, 0x32, 0x3e, 0xb7, 0xcc, 0x6d, 0xbe, 0x91, 0x9f, 0x49, 0x3d,
  0xa3, 0x2d, 0x1e, 0xbe, 0x10, 0xfc, 0x18, 0x3e, 0xf6, 0x61, 0x00, 0xbc,
  0xc4, 0x9a, 0x97, 0x3d, 0x8f, 0xeb, 0xcf, 0xbd, 0x61, 0x94, 0xae, 0x3d,
  0x15, 0x39, 0x5a, 0xbe, 0x13, 0x5d, 0x8b, 0xbe, 0xfd, 0xf3, 0x50, 0xbd,
  0x4a, 0x1b, 0x86, 0xbe, 0xbd, 0xee, 0x84, 0x3d, 0x54, 0x4e, 0x59, 0xbd,
  0x5b, 0xdf, 0xfa, 0xbd, 0x26, 0xfc, 0x2d, 0xbe, 0x15, 0x2a, 0xfe, 0x3d,
  0x37, 0xad, 0xa8, 0xbd, 0xb4, 0xff, 0x42, 0xbe, 0x5b, 0x0b, 0x3f, 0xbe,
  0xee, 0xaa, 0x81, 0x3d, 0xcd, 0xbb, 0x44, 0xbe, 0xfa, 0x09, 0x45, 0x3d,
  0x05, 0x2b, 0xc7, 0xbd, 0xb3, 0xca, 0xe3, 0xbd, 0xf0, 0x7c, 0x7e, 0xbe,
  0x9a, 0x18, 0x85, 0xbc, 0xd3, 0x2e, 0x1c, 0xbd, 0x9c, 0xb7, 0x2c, 0xbe,
  0xdd, 0x62, 0x71, 0x3d, 0xab, 0x40, 0x48, 0xbe, 0x04, 0x77, 0xcf, 0xbd,
  0xda, 0x96, 0x6c, 0xbe, 0xc2, 0x9b, 0x66, 0x3d, 0x0b, 0x0a, 0x79, 0xbd,
  0xe8, 0xe4, 0x86, 0x3d, 0x3f, 0xc0, 0xcd, 0xbd, 0xbe, 0x91, 0xb6, 0xbc,
  0x1e, 0x34, 0x9b, 0x3d, 0x37, 0xc1, 0x04, 0x3e, 0x7a, 0xda, 0x72, 0xbd,
  0xc1, 0xaf, 0x4d, 0xbe, 0xa7, 0x72, 0x14, 0x3d, 0xae, 0xe7, 0x53, 0xbe,
  0x78, 0xbb, 0x46, 0xbe, 0x67, 0x25, 0x17, 0x3e, 0x31, 0xc1, 0xba, 0x3d,
  0x8b, 0x6b, 0xf5, 0xbd, 0x20, 0xb4, 0x23, 0xbe, 0x9b, 0x3e, 0x10, 0x3d,
  0x2c, 0x3c, 0xd6, 0x3d, 0x74, 0x88, 0x04, 0x3e, 0x7e, 0xd0, 0x53, 0xbe,
  0xc6, 0x3d, 0xb0, 0x3d, 0x6e, 0xee, 0x24, 0xbe, 0x68, 0x3d, 0xad, 0x3d,
  0x10, 0xd3, 0x1d, 0xbe, 0xde, 0x4a, 0x22, 0xbe, 0xb6, 0x88, 0xb1, 0x3d,
  0xca, 0xb5, 0x59, 0xbe, 0x1f, 0x33, 0xff, 0x3d, 0xcc, 0x17, 0x55, 0x3e,
  0x57, 0x73, 0xaf, 0xbe, 0x12, 0x85, 0x32, 0xbe, 0xe2, 0x4f, 0x65, 0xbe,
  0xf4, 0xc0, 0x47, 0x3e, 0x65, 0xb8, 0x89, 0x3d, 0xfd, 0xba, 0x2c, 0x3c,
  0xd2, 0x76, 0x2e, 0xbe, 0x41, 0xe0, 0x7e, 0xbe, 0xfb, 0x25, 0x5a, 0xbe,
  0x9a, 0x25, 0x22, 0xbf, 0x58, 0x00, 0x1e, 0xbe, 0xd9, 0x33, 0xae, 0xbb,
  0x85, 0x4a, 0xe4, 0x3d, 0x5a, 0x96, 0x9a, 0xbe, 0xdb, 0x4d, 0xbc, 0x3d,
  0xae, 0x49, 0x21, 0x3e, 0x3c, 0x5b, 0x84, 0xbe, 0x5a, 0x21, 0xb6, 0xbe,
  0xaa, 0x2c, 0x1d, 0x3e, 0xea, 0xac, 0x13, 0xbf, 0x56, 0xe6, 0xba, 0x3e,
  0x21, 0xdf, 0x01, 0xbe, 0x9c, 0xfe, 0xad, 0x3c, 0x0d, 0x71, 0xac, 0xbe,
  0x6e, 0xdb, 0xc8, 0x3c, 0xd0, 0x19, 0xe3, 0xbd, 0x04, 0xe9, 0x68, 0xbd,
  0x47, 0x3a, 0xcd, 0x3c, 0xf2, 0x4d, 0x0f, 0x3d, 0x29, 0xc8, 0xf8, 0x3d,
  0x54, 0xa9, 0xe2, 0x3d, 0x8f, 0xc5, 0x02, 0xbd, 0x6f, 0x4e, 0xc4, 0xbb,
  0x63, 0xed, 0xa6, 0x3d, 0xd3, 0x2a, 0x92, 0x3e, 0x16, 0xcd, 0x89, 0xbd,
  0x00, 0x70, 0x68, 0x3e, 0x77, 0x45, 0xc6, 0xbe, 0x78, 0x39, 0xca, 0x3d,
  0x49, 0x72, 0x39, 0xbe, 0xd9, 0x70, 0x39, 0xbd, 0xc3, 0x4c, 0x02, 0xbe,
  0x73, 0x69, 0x0a, 0x3c, 0xf4, 0x8c, 0x2c, 0x3d, 0x44, 0x74, 0x61, 0xbc,
  0x40, 0xf2, 0x88, 0x3e, 0x6c, 0xf1, 0x9d, 0x3c, 0x88, 0xc2, 0x23, 0x3c,
  0xba, 0x95, 0x83, 0xbe, 0x25, 0xb9, 0xa4, 0xba, 0x3b, 0x13, 0xfb, 0x3c,
  0x4a, 0x11, 0x79, 0x3e, 0x12, 0x06, 0xe3, 0x3e, 0x9c, 0x1f, 0x80, 0xbd,
  0xdf, 0x03, 0x83, 0x3e, 0xf6, 0x37, 0x53, 0xbd, 0xa2, 0xc9, 0x01, 0x3e,
  0x99, 0x0f, 0x1e, 0x3e, 0x87, 0x2b, 0xad, 0xbd, 0x26, 0x78, 0x58, 0x3d,
  0x65, 0xf4, 0x99, 0x3d, 0x42, 0xb2, 0x24, 0x3e, 0x5b, 0xf1, 0x13, 0xbe,
  0x59, 0xa8, 0x02, 0xbe, 0x4a, 0x34, 0x6f, 0xbe, 0xe5, 0x55, 0x4b, 0xbe,
  0x8b, 0x2f, 0x50, 0x3e, 0xd1, 0xd4, 0xcf, 0xbd, 0x63, 0x43, 0x3d, 0x3e,
  0xf9, 0xba, 0x90, 0xbe, 0x8d, 0xb4, 0x84, 0x3d, 0xca, 0xde, 0x1a, 0xbd,
  0x6b, 0xf1, 0x5c, 0x3e, 0x7a, 0x25, 0x05, 0xbe, 0xe9, 0xcd, 0x08, 0xbe,
  0xe1, 0x64, 0x50, 0x3d, 0xa6, 0xf8, 0xb8, 0x3d, 0xe8, 0xf1, 0x29, 0xbc,
  0x75, 0xb6, 0x3d, 0x3e, 0x47, 0x20, 0xfa, 0xbd, 0x1e, 0x37, 0xc9, 0xbe,
  0xf2, 0xa1, 0x32, 0xbe, 0x75, 0xe8, 0xb0, 0x3d, 0x83, 0x49, 0xb8, 0xbe,
  0x63, 0x0f, 0x42, 0x3e, 0xaa, 0x07, 0x0c, 0xbf, 0xdb, 0xf9, 0xc2, 0xbd,
  0x2c, 0x5c, 0x69, 0xbe, 0x8e, 0x5d, 0xd2, 0xbd, 0x9f, 0xf3, 0xc8, 0xbd,
  0x29, 0x1a, 0xc6, 0xbe, 0x4e, 0x0f, 0x2d, 0x3d, 0xbb, 0x1a, 0x2e, 0x3c,
  0xd3, 0x47, 0xbb, 0x3c, 0xdf, 0x42, 0x31, 0x3d, 0x9a, 0x73, 0x90, 0xbd,
  0xff, 0x1b, 0x9e, 0xbe, 0x23, 0x5c, 0x08, 0xbe, 0x57, 0xe4, 0x76, 0xbc,
  0x96, 0x9c, 0xca, 0xbe, 0x41, 0x6a, 0x57, 0x3e, 0xad, 0x53, 0xc2, 0xbe,
  0x43, 0x57, 0xb5, 0xbc, 0xfb, 0xbe, 0x9c, 0x3d, 0x66, 0xad, 0x62, 0x3d,
  0xe9, 0x4f, 0x09, 0x3d, 0x37, 0xfc, 0x90, 0xbe, 0x2d, 0x77, 0xf0, 0x3c,
  0xa4, 0xfd, 0x2d, 0x3e, 0x9e, 0xcc, 0xe7, 0xbd, 0x60, 0xce, 0x14, 0xbe,
  0xa5, 0x53, 0xa0, 0x3c, 0xd9, 0x99, 0x6b, 0xbd, 0x2c, 0x23, 0xc7, 0xbc,
  0x75, 0x71, 0x6e, 0xbe, 0x78, 0x08, 0xfa, 0xbd, 0x33, 0xc6, 0x57, 0xbe,
  0x8a, 0x57, 0xc4, 0x3d, 0x37, 0xec, 0x96, 0x3c, 0x51, 0xa5, 0x98, 0x3d,
  0x1a, 0x2f, 0xeb, 0xbd, 0x90, 0x92, 0x6a, 0x3c, 0x0a, 0x5a, 0xbf, 0xbd,
  0xc5, 0xd9, 0x5c, 0xbe, 0xab, 0x1c, 0x45, 0xbe, 0xa4, 0x69, 0xd6, 0x3d,
  0xea, 0x94, 0x5d, 0xbe, 0x78, 0x6b, 0x38, 0xbe, 0x93, 0xba, 0xf2, 0xbd,
  0x28, 0xdd, 0xb5, 0x3d, 0xae, 0x1a, 0xf6, 0xbd, 0x7f, 0x32, 0x1f, 0x3e,
  0x48, 0xba, 0xd3, 0x3d, 0xac, 0xe8, 0x09, 0x3e, 0xfd, 0x88, 0xbe, 0xbd,
  0x81, 0xcb, 0x1d, 0xbd, 0xfa, 0x9a, 0xfe, 0x3d, 0xfd, 0x12, 0x64, 0x3a,
  0x86, 0x50, 0x06, 0x3e, 0x57, 0x9d, 0x94, 0xbe, 0x85, 0xc9, 0x25, 0x3e,
  0xac, 0xf3, 0x4b, 0xbe, 0xd7, 0x7b, 0xae, 0xbd, 0x93, 0xd6, 0xa9, 0xbc,
  0xbf, 0x04, 0x30, 0xbc, 0x48, 0xb7, 0x39, 0x3e, 0x04, 0x84, 0x70, 0x3c,
  0xdf, 0xd8, 0x0a, 0x3e, 0x70, 0x6a, 0xb9, 0xbd, 0x98, 0xb0, 0x2f, 0x3e,
  0x60, 0x8f, 0xbb, 0x3d, 0x0c, 0x0f, 0x86, 0x3b, 0x45, 0x39, 0x20, 0xbe,
  0xc3, 0x98, 0xc7, 0x3d, 0xe8, 0xdf, 0xc8, 0xbd, 0x96, 0x43, 0x22, 0xbd,
  0x00, 0xfd, 0x2a, 0x3e, 0x9d, 0x37, 0x95, 0x3d, 0xb0, 0x49, 0xe2, 0xbd,
  0x95, 0x9b, 0x77, 0xbe, 0xb4, 0xef, 0xe0, 0x3c, 0xf4, 0x2c, 0xb5, 0xbd,
  0x7d, 0xf7, 0xfa, 0xbd, 0x12, 0xf2, 0x02, 0x3e, 0x8d, 0x81, 0x2f, 0xbe,
  0x3c, 0x78, 0xb2, 0x3d, 0xa4, 0x1d, 0x2c, 0xbe, 0x64, 0xff, 0x0c, 0xbe,
  0x07, 0xac, 0xd4, 0xbc, 0xbb, 0xbd, 0x79, 0xbe, 0x0f, 0xd8, 0xdd, 0xbd,
  0x24, 0x32, 0x4e, 0xbe, 0x1f, 0x0c, 0x4a, 0xbe, 0x90, 0x30, 0x05, 0x3e,
  0x53, 0xde, 0x0a, 0x3d, 0x43, 0xfb, 0x1a, 0x3b, 0x9a, 0x8c, 0xba, 0xbd,
  0x28, 0xcc, 0xa4, 0xbd, 0xd0, 0x18, 0x34, 0x3d, 0x66, 0xc5, 0x9c, 0xbd,
  0x99, 0x2f, 0x10, 0x3e, 0xfa, 0x87, 0xc1, 0x3d, 0x95, 0x53, 0x7e, 0xbe,
  0x84, 0xbc, 0xec, 0x3d, 0x44, 0x26, 0x24, 0x3e, 0xf8, 0xf9, 0x06, 0x3c,
  0x96, 0x0e, 0x33, 0xbd, 0x1c, 0xf7, 0x2f, 0xbd, 0x01, 0x53, 0x97, 0xbd,
  0xca, 0xae, 0x14, 0x3e, 0xa3, 0x19, 0x0f, 0xbe, 0x82, 0x2d, 0x19, 0x3d,
  0xa1, 0x32, 0x70, 0xbe, 0x72, 0x68, 0x7a, 0x3d, 0xe5, 0x1f, 0x02, 0x3e,
  0x34, 0x06, 0xff, 0x3d, 0x7b, 0x50, 0x3b, 0x3e, 0x7b, 0x4c, 0xbd, 0x3c,
  0x80, 0xc2, 0x9d, 0xbe, 0xac, 0xb5, 0x51, 0xbe, 0x32, 0x82, 0x04, 0x3e,
  0x78, 0x33, 0x64, 0xbd, 0xbe, 0x68, 0xdf, 0xbd, 0x71, 0x02, 0x4e, 0xbe,
  0x64, 0x4c, 0x19, 0xbd, 0xbe, 0xc1, 0x08, 0x3d, 0xfe, 0x4c, 0xf4, 0x3d,
  0xee, 0x52, 0x52, 0x3d, 0xc9, 0xa3, 0x99, 0xbd, 0xf3, 0x66, 0x70, 0xbd,
  0x52, 0x17, 0x8e, 0x3d, 0x20, 0x1d, 0xcb, 0xbd, 0xbb, 0x68, 0x7f, 0xbe,
  0xdb, 0x88, 0xcd, 0x3d, 0x28, 0x99, 0x23, 0xbc, 0x67, 0xc9, 0x7c, 0xbd,
  0x2d, 0x6e, 0x80, 0xbd, 0x12, 0x34, 0xd2, 0xbd, 0x28, 0x44, 0x73, 0xbe,
  0xf5, 0x41, 0x1f, 0xbe, 0xf4, 0xd6, 0xf7, 0xbb, 0xcc, 0xc7, 0x32, 0xbe,
  0x4a, 0x9e, 0x50, 0x3e, 0xd5, 0x8c, 0x83, 0xbd, 0x67, 0xa2, 0x8e, 0xbe,
  0x17, 0x56, 0x96, 0xbe, 0xbb, 0x6f, 0xdf, 0xbd, 0xf9, 0x1a, 0x72, 0x3e,
  0xba, 0x14, 0x76, 0xbe, 0x84, 0x50, 0x40, 0xbd, 0x7c, 0x59, 0x95, 0xbd,
  0x46, 0x20, 0x48, 0xbe, 0xdb, 0x2b, 0xa2, 0xbd, 0x8e, 0x2c, 0xe5, 0xbd,
  0xd9, 0x76, 0x43, 0xbe, 0x89, 0x59, 0x41, 0xbe, 0x72, 0x65, 0x50, 0xbe,
  0xd1, 0xf7, 0xe8, 0xbd, 0x7e, 0x79, 0xc9, 0xbd, 0xaa, 0x22, 0x45, 0xbd,
  0x2f, 0xe8, 0x06, 0x3e, 0x8a, 0x79, 0xf3, 0xbd, 0xeb, 0x7b, 0xc3, 0x3c,
  0x50, 0x5e, 0x12, 0xbe, 0xfd, 0x63, 0x6a, 0xbe, 0xee, 0xb4, 0xca, 0x3c,
  0xb3, 0x65, 0x0a, 0x3e, 0xef, 0x86, 0xdf, 0xbc, 0x4a, 0xaf, 0xdc, 0x3d,
  0x6b, 0x52, 0x33, 0x3e, 0xb2, 0xf5, 0xe7, 0x3d, 0x07, 0xf7, 0xbd, 0xbe,
  0x37, 0x43, 0x50, 0xbe, 0x02, 0x03, 0x17, 0xbe, 0xc6, 0xbb, 0x99, 0xbe,
  0x8a, 0x68, 0xd5, 0xbe, 0x8e, 0x6d, 0xab, 0x3c, 0x65, 0xeb, 0xcb, 0xbd,
  0xbc, 0x93, 0x4e, 0xbe, 0xbf, 0xd3, 0x78, 0x3d, 0xe7, 0x5c, 0x0f, 0xbe,
  0x07, 0x8f, 0xa2, 0xbe, 0xb0, 0x60, 0xb9, 0x3c, 0x8c, 0x8e, 0xaf, 0x3c,
  0x0f, 0xda, 0x57, 0xbe, 0xe1, 0xa3, 0x80, 0xbd, 0x67, 0x3d, 0x45, 0xbd,
  0xd3, 0x04, 0xee, 0xbe, 0x77, 0xfd, 0x9a, 0xbe, 0xcb, 0x9e, 0x9d, 0xbd,
  0x2e, 0x42, 0x63, 0x3e, 0x91, 0xfd, 0x52, 0xbe, 0xe4, 0x4c, 0xd7, 0xbd,
  0x80, 0x26, 0x01, 0x3d, 0x98, 0xe8, 0xf9, 0x3d, 0xc2, 0xab, 0x71, 0xbc,
  0x91, 0x91, 0x12, 0xbe, 0xe8, 0xf7, 0x29, 0x3e, 0x5f, 0xcc, 0x2a, 0xbe,
  0xd6, 0x7a, 0x9c, 0x3d, 0xf1, 0x03, 0x05, 0x3e, 0x5f, 0xff, 0x69, 0xbe,
  0xf1, 0x0f, 0xb2, 0xbe, 0x1f, 0x95, 0x9b, 0xbe, 0x07, 0x7c, 0xb2, 0xbe,
  0x88, 0x0c, 0x9f, 0xbd, 0x39, 0xc6, 0x83, 0x3e, 0xaa, 0x26, 0xda, 0xbd,
  0xd7, 0x92, 0xbc, 0x3d, 0x58, 0x9e, 0xac, 0x3b, 0xec, 0xe3, 0xb9, 0x3d,
  0xfe, 0x09, 0x29, 0xbd, 0xc0, 0x8a, 0xa4, 0x3d, 0xba, 0x98, 0x59, 0x3e,
  0x9b, 0xbd, 0x94, 0x3d, 0xdb, 0x1c, 0x19, 0x3e, 0x92, 0xe1, 0xa0, 0x3d,
  0xf3, 0x70, 0x22, 0xbe, 0xbf, 0x09, 0x8f, 0x3d, 0x9c, 0xbe, 0x7d, 0x3b,
  0xb8, 0x70, 0x4d, 0xbe, 0x5f, 0x55, 0x98, 0x3e, 0x33, 0x93, 0x12, 0x3d,
  0x98, 0x86, 0xb2, 0x3d, 0x99, 0x6c, 0x98, 0xbd, 0x36, 0xf1, 0x86, 0xbe,
  0x28, 0x62, 0x43, 0x3e, 0x64, 0x2f, 0x75, 0x3e, 0x00, 0x9b, 0x53, 0x3e,
  0xe8, 0xce, 0x1a, 0x3c, 0x04, 0x78, 0x8a, 0x3d, 0x50, 0x19, 0x5b, 0xbd,
  0xa2, 0xcd, 0xea, 0xbc, 0x25, 0xd9, 0x65, 0x3d, 0xc6, 0xff, 0x35, 0x3d,
  0xaf, 0x14, 0x6b, 0x3d, 0x08, 0x9f, 0x4b, 0xbe, 0x69, 0x79, 0xdc, 0x3e,
  0xda, 0xe3, 0xb6, 0x3b, 0xd3, 0x10, 0xb4, 0xbe, 0x15, 0xd8, 0x22, 0xbe,
  0xe6, 0x1c, 0xa3, 0x3c, 0xe3, 0xe6, 0x98, 0xbd, 0x0d, 0x78, 0x64, 0x3d,
  0x79, 0xf4, 0xc3, 0xbe, 0xa3, 0xc6, 0x95, 0x3d, 0x51, 0xcf, 0x4c, 0xbe,
  0x6d, 0xf0, 0x00, 0x3e, 0x79, 0xfc, 0x2b, 0x3e, 0xea, 0xc5, 0x8e, 0x3b,
  0x26, 0xb0, 0x5c, 0xbe, 0xb9, 0xea, 0xe0, 0x3a, 0xb4, 0x5d, 0xad, 0xbc,
  0xcd, 0xec, 0x60, 0xbe, 0xdb, 0x03, 0x45, 0xbe, 0xa1, 0x8c, 0xb9, 0x3d,
  0xe6, 0x23, 0xde, 0x3d, 0xa0, 0x9d, 0x80, 0x3d, 0xa5, 0xb7, 0x95, 0xbb,
  0x88, 0xbd, 0x32, 0x3c, 0x46, 0xaf, 0x49, 0xbe, 0xa8, 0x43, 0x38, 0x3d,
  0x8c, 0x03, 0x15, 0x3c, 0x5c, 0xf8, 0x2b, 0xbe, 0x12, 0x53, 0x13, 0x3e,
  0x69, 0xeb, 0x8d, 0x3d, 0xc7, 0x85, 0x81, 0xbe, 0x90, 0xc9, 0xa3, 0xbe,
  0x48, 0x91, 0x85, 0xbd, 0xc2, 0xf0, 0x23, 0xbc, 0x3a, 0x25, 0xfa, 0xbc,
  0x3b, 0x8b, 0x3e, 0x3e, 0x53, 0x7a, 0x7a, 0x3d, 0xb4, 0x91, 0xe1, 0x3d,
  0x40, 0x8f, 0x96, 0xbd, 0xc2, 0xf5, 0xd1, 0xbd, 0xd0, 0xec, 0xef, 0x39,
  0x74, 0x0c, 0xb8, 0x3d, 0xd5, 0xa8, 0x8f, 0xbe, 0xfb, 0x4d, 0xc9, 0x3a,
  0xdb, 0x11, 0xc6, 0x3c, 0x8c, 0xb1, 0x79, 0xbe, 0x3a, 0x83, 0x5c, 0xbe,
  0x24, 0x88, 0x4b, 0xbe, 0x78, 0x11, 0xa2, 0xbd, 0x68, 0x22, 0xb1, 0xbd,
  0x50, 0xb4, 0x10, 0xbe, 0xef, 0xea, 0x44, 0xbd, 0x3c, 0x12, 0x17, 0xbe,
  0xaa, 0xc4, 0x94, 0x3d, 0x5c, 0x31, 0x98, 0xbe, 0x2c, 0x71, 0x39, 0xbd,
  0xec, 0x77, 0xf5, 0xbd, 0xd8, 0x31, 0xf7, 0xbd, 0x68, 0x7a, 0x31, 0xbe,
  0x18, 0x89, 0x8f, 0x3d, 0x67, 0x22, 0x13, 0xbd, 0xfb, 0xbb, 0x02, 0xbe,
  0x51, 0x95, 0x9e, 0x3d, 0x25, 0xfd, 0x1b, 0xbe, 0x9c, 0xe6, 0x05, 0xbe,
  0x6f, 0x9b, 0x83, 0xbe, 0x45, 0x50, 0x89, 0xbc, 0xcb, 0x46, 0x74, 0xbd,
  0x02, 0x5d, 0x56, 0xbd, 0xa2, 0xa7, 0x1d, 0x3e, 0x70, 0x29, 0xf9, 0x3c,
  0x3f, 0x37, 0x6b, 0x3c, 0x4f, 0xbe, 0x8f, 0x3d, 0x57, 0x51, 0x05, 0xbe,
  0x18, 0x3a, 0x5f, 0xbe, 0x94, 0x3e, 0xc4, 0xbd, 0xf3, 0xd0, 0x0a, 0x3e,
  0x9b, 0x7f, 0xe2, 0xbd, 0x54, 0x17, 0x92, 0x3d, 0x4b, 0xcf, 0x81, 0xbe,
  0x2d, 0x4a, 0x3f, 0xbe, 0x00, 0xaa, 0x41, 0xbe, 0xc9, 0x6c, 0xee, 0xbc,
  0x15, 0x2d, 0x4f, 0xbe, 0xf7, 0x0d, 0x3a, 0x3c, 0x13, 0xee, 0xc3, 0xbd,
  0x59, 0x27, 0x57, 0xbc, 0xa9, 0xa0, 0x14, 0x3e, 0xae, 0xce, 0xd6, 0xbd,
  0xb5, 0xb3, 0x4c, 0xbc, 0xec, 0xce, 0x84, 0xbe, 0x22, 0xc5, 0x93, 0xbd,
  0xc8, 0x4c, 0x56, 0xbe, 0xfa, 0x81, 0xca, 0x3d, 0xdc, 0xa2, 0x8c, 0xbd,
  0xd4, 0x02, 0x40, 0xbd, 0xec, 0xa5, 0x5b, 0xbd, 0x12, 0x8a, 0x26, 0x3e,
  0x28, 0x91, 0x37, 0xbe, 0xcf, 0xa8, 0x6e, 0x3c, 0xa9, 0xf9, 0xb7, 0xbc,
  0xe9, 0xc9, 0x02, 0xbe, 0x54, 0x4b, 0x75, 0xbe, 0xc7, 0xf2, 0x14, 0x3e,
  0xb7, 0x68, 0xfd, 0xbc, 0xfd, 0x10, 0x4e, 0x3d, 0x71, 0xfb, 0x13, 0xbe,
  0x99, 0x82, 0x76, 0x3d, 0xeb, 0x7d, 0x92, 0xbd, 0x34, 0xee, 0xbd, 0x3d,
  0x6a, 0x92, 0xd4, 0xbd, 0x3c, 0x93, 0x62, 0xbe, 0xf0, 0x5d, 0xee, 0xbd,
  0x26, 0xab, 0xa2, 0x3d, 0xdc, 0x4b, 0x0c, 0xbe, 0xa6, 0xfd, 0x06, 0xbc,
  0xd9, 0x8f, 0xcc, 0xbd, 0x71, 0x83, 0x95, 0xbe, 0xc3, 0xc3, 0x00, 0x3d,
  0xb0, 0xb1, 0xb3, 0xbd, 0xcb, 0x86, 0x0d, 0x3d, 0x2b, 0xfe, 0x8e, 0x3c,
  0xe3, 0x4f, 0x00, 0xbe, 0x3c, 0x5f, 0x2a, 0xbe, 0x13, 0x1e, 0xad, 0xbc,
  0xf9, 0x97, 0xa5, 0xbc, 0x82, 0x21, 0x53, 0xbe, 0xe3, 0x5e, 0xe3, 0xbc,
  0x91, 0x93, 0x87, 0xbd, 0x41, 0xfb, 0xc6, 0xbd, 0xdd, 0xea, 0xe2, 0xbd,
  0xf3, 0xd2, 0x29, 0x3e, 0x84, 0x8f, 0x18, 0xbd, 0x9f, 0x8e, 0x60, 0xbe,
  0xe6, 0xce, 0x77, 0xbe, 0xee, 0xae, 0xad, 0x3d, 0xfe, 0xce, 0x1a, 0xbe,
  0x92, 0x17, 0x6c, 0xbd, 0x9c, 0x37, 0x2b, 0xbe, 0xf4, 0x14, 0x05, 0x3e,
  0x2d, 0xc4, 0xf6, 0xbd, 0xec, 0xac, 0x31, 0xbd, 0xb2, 0xd6, 0x02, 0xbe,
  0x18, 0x37, 0x4e, 0xbd, 0x7b, 0x55, 0xda, 0xbd, 0x7c, 0xd7, 0x8d, 0x3d,
  0x7f, 0xe1, 0x2f, 0xbe, 0xc6, 0x39, 0xc9, 0x3c, 0x7b, 0x9b, 0x0c, 0x3e,
  0x66, 0x48, 0x8c, 0xbd, 0xe3, 0x2c, 0x4c, 0xbe, 0x81, 0x0c, 0xa9, 0xbb,
  0x69, 0x4e, 0x13, 0xbe, 0xe4, 0x2e, 0x28, 0xbe, 0xa4, 0x1f, 0xa6, 0x3d,
  0x7c, 0x1d, 0x76, 0xbc, 0xc7, 0x24, 0x0a, 0x3e, 0x6e, 0x8d, 0x45, 0x3d,
  0x11, 0x72, 0x0c, 0x3e, 0x84, 0xdf, 0x0c, 0xbc, 0xf9, 0x68, 0x11, 0xbe,
  0x08, 0x70, 0x48, 0xbd, 0x6c, 0x00, 0x4c, 0xbe, 0xf2, 0xdd, 0x0d, 0x3e,
  0xd7, 0xaf, 0x7b, 0x3d, 0xfe, 0x01, 0x47, 0xbe, 0x30, 0x3e, 0xdd, 0xbd,
  0x2a, 0x70, 0xf5, 0x3d, 0x31, 0xb5, 0x54, 0xbe, 0x73, 0xf9, 0x7a, 0xbd,
  0x28, 0x2e, 0xe2, 0x3c, 0xfb, 0x8c, 0x93, 0x3d, 0xe7, 0x03, 0x22, 0x3e,
  0x96, 0x9b, 0xd8, 0x3d, 0x06, 0xbf, 0x18, 0x3d, 0x5f, 0xf3, 0x3a, 0xbe,
  0x15, 0x8e, 0x5a, 0xbe, 0xbd, 0x37, 0x4d, 0xbe, 0xb4, 0x6b, 0x0e, 0xbe,
  0x56, 0x37, 0x0a, 0xba, 0xc6, 0x4f, 0x00, 0xbd, 0x3b, 0xfc, 0x87, 0xbb,
  0x59, 0x05, 0x6f, 0xbe, 0xc6, 0xe5, 0x35, 0x3e, 0x04, 0x73, 0x26, 0x3e,
  0x08, 0x17, 0x3d, 0x3e, 0xab, 0x16, 0x5d, 0xbe, 0xdb, 0x38, 0xcc, 0xbd,
  0xb3, 0x92, 0x6e, 0x3d, 0x15, 0xe1, 0x1a, 0xbe, 0x0f, 0x99, 0xc9, 0xbd,
  0x9f, 0x20, 0x13, 0xbe, 0x0c, 0xe0, 0xe7, 0xbd, 0xa1, 0xc3, 0x0c, 0x3c,
  0x31, 0xe0, 0x15, 0xbe, 0xe9, 0x40, 0x55, 0x3e, 0x6c, 0xea, 0xfe, 0x3d,
  0x7e, 0xe3, 0xac, 0x3d, 0xea, 0x2b, 0xd1, 0xbd, 0x84, 0x14, 0x74, 0xbe,
  0x2c, 0xc3, 0x4b, 0xbe, 0x20, 0x8b, 0x00, 0x3e, 0x16, 0xac, 0x6e, 0x3d,
  0xae, 0x9c, 0xc3, 0xbd, 0x25, 0xde, 0x91, 0xbd, 0xf2, 0x7b, 0x9e, 0x3d,
  0x7f, 0xb5, 0xd2, 0x3d, 0xd6, 0xfc, 0x8e, 0xbe, 0x45, 0xa4, 0xb6, 0xbd,
  0xa8, 0x88, 0x9d, 0xbe, 0x1b, 0x4d, 0x90, 0xbe, 0xbf, 0x09, 0x6b, 0xbe,
  0x2a, 0x13, 0xdb, 0x3d, 0xf1, 0xa9, 0x63, 0x3d, 0xda, 0x08, 0xb3, 0xbd,
  0xdc, 0xdb, 0x89, 0x3e, 0x3f, 0x0e, 0xbb, 0x3d, 0x63, 0x96, 0xfd, 0xbd,
  0x84, 0xc4, 0x83, 0xbd, 0x34, 0xab, 0x87, 0x3d, 0xc3, 0x07, 0x5e, 0x3e,
  0xd0, 0x37, 0x86, 0xbd, 0x20, 0x15, 0x51, 0xbe, 0x60, 0xa5, 0x8e, 0xbe,
  0x02, 0xe9, 0x16, 0xbd, 0x76, 0x50, 0x88, 0xbe, 0xf5, 0x0f, 0xb1, 0xbd,
  0x23, 0xcf, 0x8a, 0x3d, 0x17, 0x50, 0x1b, 0xbd, 0x93, 0xb2, 0xba, 0xbc,
  0x92, 0x6e, 0x63, 0x3d, 0x48, 0xb1, 0x14, 0x3e, 0x4f, 0x36, 0xda, 0x3d,
  0xf2, 0x84, 0xa0, 0xbd, 0xb0, 0x0e, 0x5f, 0xbe, 0x9b, 0xbd, 0x49, 0xbe,
  0x45, 0xd5, 0x9d, 0xbd, 0xbb, 0xe2, 0x3d, 0xbe, 0x6d, 0x1a, 0x73, 0x3d,
  0x87, 0xb4, 0xfb, 0xbd, 0xbb, 0x4a, 0xea, 0xbd, 0x18, 0x05, 0xa1, 0x3c,
  0x30, 0xd0, 0xc4, 0x3d, 0xf0, 0x7b, 0x09, 0xbe, 0x32, 0xd9, 0xab, 0xbe,
  0xc7, 0x98, 0xc9, 0x3c, 0xc6, 0x16, 0x13, 0xbe, 0x48, 0x7b, 0x12, 0x3e,
  0x22, 0x4c, 0x5a, 0xbe, 0x45, 0x45, 0xb9, 0xbc, 0xd3, 0xc1, 0x71, 0xbe,
  0x8c, 0x51, 0x02, 0xbe, 0x34, 0xc3, 0xd9, 0xbe, 0xbe, 0xed, 0xb5, 0xbe,
  0xd9, 0x1e, 0x99, 0xbe, 0x4d, 0xf8, 0x84, 0xbe, 0x1c, 0xdd, 0xaf, 0xbe,
  0x0d, 0x14, 0xc1, 0xbe, 0xe6, 0x28, 0x2d, 0xbe, 0x59, 0x40, 0x50, 0xbe,
  0xaa, 0xb6, 0xc6, 0xbd, 0x17, 0x72, 0x12, 0xbe, 0x06, 0x68, 0x27, 0xba,
  0xb3, 0x0d, 0x9b, 0x3d, 0x8d, 0xa8, 0x84, 0xbc, 0x70, 0xc7, 0x91, 0x3c,
  0x4c, 0xa1, 0x5c, 0xbd, 0x22, 0xac, 0x14, 0xbe, 0x2b, 0x72, 0x1c, 0xbe,
  0x14, 0xd7, 0x72, 0xbe, 0xa4, 0x5f, 0x06, 0xbd, 0x00, 0xf2, 0xc8, 0xbe,
  0xa5, 0x09, 0xdb, 0xbd, 0x97, 0xed, 0x7b, 0xbe, 0x92, 0xf4, 0xc9, 0xbd,
  0x05, 0x63, 0x07, 0xbe, 0x51, 0x1c, 0xd7, 0xbd, 0x9d, 0x39, 0x20, 0xbe,
  0xe4, 0xa7, 0xa4, 0xbb, 0x0c, 0x34, 0x48, 0xbd, 0x52, 0x94, 0x41, 0xbe,
  0x7e, 0xe5, 0x7e, 0xbd, 0x7d, 0x76, 0x3c, 0x3d, 0x86, 0x62, 0x82, 0xbe,
  0xf0, 0x45, 0x0b, 0x3d, 0x0e, 0x67, 0x0c, 0xbd, 0x8d, 0x86, 0x74, 0xbe,
  0xd3, 0xd6, 0xb5, 0xbe, 0x4c, 0x99, 0x84, 0xbe, 0x44, 0xeb, 0x86, 0xbe,
  0x94, 0x26, 0x1c, 0x3e, 0x47, 0x5e, 0xbd, 0xbd, 0xd3, 0xb8, 0xc7, 0xbd,
  0x04, 0x5b, 0xd9, 0x3d, 0x01, 0x56, 0x0a, 0xbd, 0xd6, 0xae, 0x15, 0x3e,
  0x63, 0x4a, 0x04, 0xbf, 0x00, 0x33, 0x06, 0x3b, 0xfc, 0xba, 0x9c, 0xbe,
  0xa0, 0xfe, 0x63, 0xbd, 0xb1, 0x33, 0x54, 0xbd, 0x9f, 0x88, 0x9d, 0xbe,
  0x10, 0x7f, 0xbf, 0xbe, 0xb0, 0x8f, 0xa6, 0xbe, 0x1d, 0x9c, 0x2e, 0xbe,
  0x13, 0x28, 0xd5, 0xbe, 0x08, 0x92, 0x2f, 0x3d, 0x4a, 0x5c, 0x3c, 0xbe,
  0x30, 0xbd, 0x09, 0x3e, 0xd1, 0x79, 0xc5, 0xbd, 0x3b, 0x18, 0x39, 0x3b,
  0xda, 0xa1, 0x12, 0x3d, 0x13, 0xe3, 0x0b, 0x3d, 0xea, 0xa3, 0x90, 0x3d,
  0x74, 0xf8, 0x1e, 0x3e, 0x6c, 0xbc, 0x23, 0xbd, 0x71, 0x6f, 0xa8, 0x3b,
  0x3b, 0x5d, 0xac, 0xbc, 0x6a, 0xec, 0xf1, 0x3d, 0x77, 0x4d, 0x66, 0xbd,
  0x67, 0x81, 0x84, 0xbe, 0xee, 0xcb, 0xd1, 0x3e, 0xf2, 0x5a, 0x90, 0x3e,
  0x08, 0x86, 0x92, 0x3d, 0xf4, 0xea, 0x5a, 0x3c, 0x2c, 0xdc, 0x26, 0xbe,
  0xd5, 0xb2, 0x24, 0x3e, 0xcf, 0x34, 0x87, 0xbc, 0x7d, 0xf1, 0x56, 0xbd,
  0x0a, 0xa9, 0xc7, 0xbc, 0xf3, 0x0d, 0x48, 0x3d, 0x06, 0xed, 0x09, 0x3d,
  0x48, 0x65, 0x38, 0xbe, 0xf8, 0x1b, 0x0e, 0x3e, 0x74, 0xe6, 0xd5, 0x3c,
  0x34, 0x1a, 0x28, 0x3e, 0x1c, 0x90, 0x85, 0xbd, 0x7b, 0x80, 0x9a, 0x3e,
  0xc9, 0xc5, 0x2b, 0x3d, 0x72, 0xcd, 0x19, 0xbd, 0xb9, 0x21, 0xb1, 0xbc,
  0x7e, 0x72, 0xc5, 0xbd, 0x77, 0xab, 0xcb, 0xbc, 0x3d, 0x27, 0xb0, 0xbc,
  0x2f, 0xf4, 0xd9, 0xbb, 0xdd, 0x1b, 0x9c, 0x3e, 0x74, 0x14, 0x86, 0x3d,
  0x96, 0x54, 0xaf, 0x3d, 0xd3, 0xec, 0x12, 0xbc, 0xf3, 0xca, 0x28, 0xbc,
  0x19, 0xce, 0x0c, 0x3e, 0x61, 0xb8, 0x32, 0x3e, 0xbb, 0xb3, 0x54, 0x3d,
  0x5e, 0x9b, 0x5a, 0x3e, 0xf8, 0x9e, 0x11, 0xbf, 0xf6, 0xf2, 0x5e, 0xbe,
  0x07, 0xb7, 0x83, 0x3d, 0xb4, 0xc5, 0xad, 0x3e, 0x0e, 0x44, 0xe7, 0xbe,
  0x4a, 0x1e, 0x8c, 0x3e, 0xec, 0x62, 0xd5, 0xbe, 0x1a, 0x5a, 0x83, 0x3d,
  0xdb, 0x41, 0x41, 0xbe, 0x26, 0x8b, 0x39, 0x3e, 0x06, 0x37, 0xd3, 0x3d,
  0xff, 0x8a, 0xd6, 0xbc, 0x77, 0x8e, 0x82, 0xbd, 0x38, 0xca, 0xed, 0x3c,
  0x6e, 0xc3, 0xe9, 0x3c, 0xac, 0x25, 0xc4, 0xbe, 0x5d, 0xb7, 0x5a, 0xbe,
  0x49, 0x8f, 0x8b, 0xbe, 0x7e, 0x28, 0x31, 0x3d, 0x0b, 0x89, 0x4f, 0x3e,
  0x3b, 0xf8, 0x9b, 0xbe, 0x20, 0x46, 0x4b, 0xbd, 0x78, 0xfa, 0x88, 0xbe,
  0x47, 0x66, 0xf3, 0x3e, 0xc5, 0x07, 0x29, 0xbb, 0xe1, 0xcd, 0x13, 0xbd,
  0x6e, 0x44, 0x8a, 0x3c, 0xc7, 0x93, 0x4b, 0xbe, 0xe5, 0xf8, 0xe6, 0x3e,
  0xd6, 0x69, 0xae, 0xbc, 0x16, 0x5f, 0x1e, 0xbe, 0xec, 0xac, 0xb3, 0x3d,
  0x2a, 0xee, 0x85, 0xbd, 0xdc, 0x35, 0xb3, 0xbd, 0x06, 0x4d, 0x29, 0xbe,
  0xc0, 0x66, 0x71, 0x3e, 0x5b, 0x69, 0x34, 0xbb, 0xc7, 0xc3, 0x42, 0x3d,
  0x6c, 0x8b, 0xab, 0xbe, 0x79, 0x79, 0xd4, 0x3e, 0x00, 0xad, 0x2f, 0x3e,
  0xb8, 0x4e, 0x72, 0x3e, 0x32, 0x45, 0x02, 0xbe, 0x32, 0xee, 0x03, 0x3e,
  0x9b, 0x8d, 0x2c, 0x3f, 0xc7, 0x4e, 0xbc, 0xbd, 0x99, 0x86, 0x57, 0xbe,
  0x2e, 0xd9, 0x71, 0x3e, 0xd0, 0xa1, 0x0f, 0xbe, 0x72, 0x0e, 0xa1, 0xbd,
  0x65, 0x63, 0x14, 0x3d, 0x38, 0x8b, 0x32, 0x3e, 0xf4, 0x17, 0xe5, 0xbd,
  0xb0, 0x51, 0x91, 0x3d, 0x45, 0xfa, 0xee, 0xbe, 0xf4, 0x48, 0xbd, 0xbd,
  0xdf, 0x63, 0x68, 0x3e, 0xb4, 0x0b, 0xbb, 0x3e, 0xc9, 0x44, 0x4c, 0x3e,
  0x77, 0x54, 0xd7, 0x3e, 0xa5, 0x4c, 0x15, 0x3f, 0x19, 0x3c, 0x12, 0xbd,
  0x30, 0x63, 0xf0, 0xbd, 0xbb, 0x9f, 0x82, 0x3e, 0x80, 0xb2, 0x15, 0xbe,
  0x39, 0xc1, 0xfd, 0xbd, 0x45, 0xa1, 0x00, 0xbe, 0xa8, 0x7e, 0x8e, 0x3e,
  0x6d, 0x77, 0x06, 0xbf, 0x74, 0x62, 0xae, 0x3e, 0x74, 0x27, 0x1e, 0xbf,
  0xc6, 0xe4, 0x1f, 0xbe, 0x38, 0xfa, 0xa2, 0x3d, 0xfa, 0xe4, 0x98, 0x3e,
  0xfc, 0xd5, 0x4a, 0x3d, 0xee, 0xa9, 0x97, 0x3e, 0x60, 0x08, 0x60, 0x3e,
  0xff, 0x94, 0x6f, 0xbd, 0x67, 0xb4, 0x72, 0xbd, 0xd1, 0x4c, 0xb7, 0xbe,
  0x9b, 0xed, 0xbf, 0xbc, 0xf0, 0xb1, 0x85, 0x3d, 0xa8, 0xa1, 0x4b, 0x3e,
  0x8a, 0x2f, 0x47, 0x3e, 0x6c, 0x0e, 0xe0, 0xbe, 0xdc, 0x4f, 0x93, 0x3e,
  0x9e, 0x75, 0xb6, 0xbe, 0xb2, 0x97, 0xe5, 0x3d, 0x2c, 0x0e, 0x45, 0xbd,
  0x2d, 0x27, 0x21, 0x3e, 0xc1, 0x98, 0x8d, 0x3e, 0x56, 0xff, 0x47, 0xbc,
  0xa0, 0x5b, 0xd7, 0x3d, 0x06, 0x54, 0x0c, 0xbe, 0xf4, 0xfe, 0x86, 0xbc,
  0x9b, 0x4c, 0xe8, 0xbe, 0x44, 0xef, 0x2e, 0x3d, 0x71, 0xdf, 0x13, 0x3c,
  0xca, 0x9e, 0x95, 0x3d, 0x22, 0x55, 0x7e, 0x3d, 0x14, 0x5a, 0xc6, 0xbc,
  0xb0, 0x56, 0xba, 0x3e, 0xd9, 0xd8, 0x28, 0xbe, 0xf7, 0x8c, 0x0c, 0xbe,
  0x39, 0xfb, 0x19, 0x3d, 0xac, 0xd2, 0x9c, 0xbd, 0xc4, 0xd5, 0xe3, 0xbc,
  0xcb, 0x73, 0x0e, 0xbd, 0xbd, 0x4b, 0x67, 0xbd, 0x09, 0x6d, 0xc2, 0xbc,
  0x9c, 0x73, 0x6d, 0xba, 0x87, 0x9c, 0xc0, 0x3b, 0x4d, 0x4b, 0xc7, 0xbe,
  0x23, 0x7c, 0x20, 0xbe, 0x94, 0x25, 0x49, 0x3e, 0x18, 0x29, 0xcb, 0x3e,
  0xc2, 0xee, 0xd4, 0xbe, 0x62, 0xb0, 0x54, 0x3e, 0x5b, 0x0c, 0xa4, 0xbe,
  0x67, 0x18, 0xf6, 0xbb, 0x08, 0x2b, 0x38, 0xbe, 0xdf, 0xd0, 0x9d, 0x3e,
  0xbb, 0xcf, 0xb9, 0x3c, 0xab, 0xfa, 0x26, 0xbd, 0xd3, 0x13, 0x04, 0xbe,
  0x3f, 0x33, 0x5a, 0xbd, 0x32, 0x32, 0x5a, 0xbd, 0x06, 0x5c, 0xbe, 0xbe,
  0xdf, 0x6e, 0xd3, 0xbd, 0xc9, 0x32, 0x2b, 0xbe, 0xd1, 0xdd, 0x4c, 0x3b,
  0xa8, 0xc7, 0x3d, 0x3e, 0x26, 0x12, 0xc4, 0xbd, 0x03, 0x64, 0x2b, 0x3e,
  0x3c, 0xc0, 0x00, 0xbe, 0xb6, 0x16, 0x4c, 0x3e, 0xde, 0xee, 0x48, 0xbd,
  0x63, 0x80, 0x02, 0x3e, 0xc0, 0xbd, 0xc7, 0x3d, 0xf9, 0x0f, 0x0c, 0xbe,
  0xc0, 0x00, 0x09, 0x3e, 0xc9, 0x9b, 0x9e, 0xbd, 0xfd, 0xc2, 0x2c, 0xbe,
  0xad, 0x16, 0xd7, 0x3d, 0x82, 0x9e, 0xbd, 0x3c, 0xf2, 0xd0, 0x4e, 0xbe,
  0x8b, 0x31, 0x06, 0x3d, 0xfd, 0xf1, 0xd3, 0x3e, 0xe0, 0xa9, 0xa8, 0xbd,
  0xb8, 0x5a, 0xad, 0x3c, 0x60, 0x3c, 0x41, 0xbe, 0x4e, 0xcf, 0x14, 0x3e,
  0xf2, 0xda, 0xad, 0x3e, 0xfd, 0xd2, 0x3e, 0x3e, 0x69, 0x5e, 0x26, 0x3e,
  0x81, 0x1e, 0x20, 0x3e, 0xa1, 0x52, 0x9f, 0x3e, 0x0e, 0x46, 0x6c, 0xbd,
  0x96, 0xa7, 0x8d, 0xbe, 0x1f, 0x73, 0xf2, 0x3c, 0x32, 0xfb, 0xb7, 0xbe,
  0xe3, 0xc5, 0x97, 0xbe, 0x82, 0xbb, 0xc7, 0x3c, 0xf8, 0xbf, 0x15, 0x3e,
  0x19, 0xa3, 0xc7, 0xbd, 0x21, 0x51, 0x76, 0x3e, 0x7a, 0xe8, 0x14, 0xbe,
  0x92, 0xeb, 0x19, 0x3e, 0x24, 0x72, 0x7a, 0x3e, 0x88, 0x0c, 0x06, 0x3e,
  0x27, 0xcd, 0x96, 0x3d, 0x09, 0x19, 0x83, 0x3e, 0x5a, 0xca, 0x9d, 0x3e,
  0x44, 0xbf, 0x39, 0x3b, 0xc1, 0xa4, 0x2b, 0xbe, 0x8c, 0x85, 0x97, 0x3e,
  0xb0, 0x6b, 0x4f, 0xbe, 0x36, 0xf4, 0x8d, 0xbd, 0x67, 0x23, 0x50, 0xbd,
  0x1c, 0xc1, 0xa1, 0x3e, 0x26, 0x79, 0x97, 0xbe, 0x13, 0x25, 0xa2, 0x3e,
  0x74, 0x62, 0x4a, 0xbe, 0x17, 0xba, 0x52, 0x3d, 0x64, 0xd4, 0x50, 0xbe,
  0xea, 0x7d, 0x85, 0x3e, 0x69, 0x9b, 0xc2, 0x3e, 0x30, 0x40, 0x15, 0x3e,
  0xeb, 0x18, 0x7a, 0x3d, 0xc7, 0xe5, 0x74, 0xbc, 0x9b, 0x56, 0x78, 0x3d,
  0xaf, 0x93, 0x61, 0xbe, 0xe8, 0xfd, 0xf1, 0x3b, 0x18, 0x3d, 0x5a, 0xbd,
  0x61, 0x4a, 0xd6, 0x3d, 0x67, 0x46, 0xb7, 0x3e, 0x67, 0x6f, 0xa8, 0xbe,
  0x99, 0x9a, 0x02, 0x3e, 0x8c, 0xa3, 0xc8, 0xbe, 0x33, 0xcf, 0xcc, 0x3d,
  0xbd, 0xf0, 0xa4, 0xbd, 0x13, 0xae, 0xc2, 0x3e, 0x07, 0x18, 0x92, 0x3e,
  0x24, 0x12, 0xae, 0xbd, 0x33, 0x3f, 0x22, 0x3c, 0x0c, 0x7e, 0xbd, 0xbc,
  0xd6, 0x6a, 0x34, 0x3c, 0x68, 0xa6, 0x61, 0xbe, 0x87, 0xbe, 0x83, 0x3d,
  0x83, 0x0e, 0xdf, 0x3d, 0x0a, 0x23, 0x13, 0x3e, 0x3e, 0xa8, 0x4e, 0x3d,
  0x5a, 0x60, 0x7f, 0xbe, 0x19, 0x71, 0x66, 0x3d, 0xda, 0x2f, 0x44, 0xbe,
  0xb6, 0x21, 0x93, 0x3c, 0x5c, 0x2d, 0x0f, 0xbd, 0xb5, 0x11, 0x9f, 0x3c,
  0xfc, 0x21, 0x04, 0x3d, 0x0e, 0x3f, 0x3f, 0xbd, 0xeb, 0x6f, 0xf7, 0x3d,
  0xc5, 0x10, 0xc9, 0x3b, 0xb5, 0x18, 0x31, 0x3e, 0xdf, 0x3d, 0xc9, 0xbc,
  0x6c, 0xbc, 0x14, 0xbd, 0xdf, 0x34, 0x0d, 0xbe, 0xbc, 0x64, 0xbb, 0xbe,
  0x39, 0x45, 0x1e, 0xbe, 0x35, 0x18, 0x4a, 0xbd, 0x47, 0xf7, 0xe5, 0x3d,
  0x48, 0x9c, 0xd1, 0xbd, 0x7b, 0x6a, 0x5f, 0xbe, 0x73, 0x21, 0xb0, 0xbd,
  0x9c, 0x07, 0xb0, 0x3d, 0xee, 0x1b, 0x43, 0xbe, 0x46, 0xbf, 0xca, 0xbe,
  0x4f, 0x1b, 0x1c, 0x3c, 0xbc, 0xa5, 0x88, 0xbe, 0x85, 0xa0, 0x1e, 0xbd,
  0x72, 0x07, 0xbf, 0xbd, 0xa8, 0x61, 0x7b, 0xbe, 0x45, 0x49, 0x85, 0xbe,
  0xa4, 0xbb, 0xa0, 0xbe, 0x77, 0x47, 0xd3, 0xbd, 0xc0, 0x8e, 0xd3, 0xbd,
  0xdd, 0x97, 0x08, 0xbe, 0x78, 0x24, 0x53, 0xbe, 0xcf, 0xd4, 0x02, 0xbe,
  0x07, 0xe6, 0x15, 0xbd, 0x44, 0x15, 0x2f, 0xbe, 0x60, 0x35, 0xa7, 0xbe,
  0x7c, 0xf8, 0xb1, 0xbd, 0xe3, 0x72, 0xbc, 0xbd, 0xa9, 0x02, 0x89, 0xbe,
  0x44, 0x34, 0xcb, 0xbd, 0x37, 0x83, 0x50, 0xbe, 0x73, 0xd8, 0x7f, 0xbe,
  0x95, 0x59, 0x82, 0xbe, 0x60, 0x34, 0xb0, 0xbe, 0x38, 0x26, 0x46, 0xbe,
  0x9d, 0x70, 0x9f, 0xbd, 0xc3, 0x2f, 0x8c, 0x3d, 0xaa, 0x0b, 0x91, 0xbd,
  0x2c, 0x4c, 0x3c, 0xbe, 0xe1, 0x93, 0x6e, 0xbd, 0xfd, 0x12, 0x9d, 0xbe,
  0x66, 0x82, 0x1d, 0x3c, 0x9c, 0x76, 0xad, 0x3d, 0xa5, 0xdf, 0x0e, 0xbe,
  0xbd, 0xbe, 0xb7, 0xbe, 0x6e, 0xd1, 0x1a, 0xbe, 0x98, 0x85, 0x99, 0xbd,
  0x25, 0x3f, 0x39, 0xbe, 0xf4, 0x5a, 0x89, 0xbe, 0x55, 0xd0, 0x9b, 0xbe,
  0xc4, 0x82, 0x20, 0xbe, 0xb8, 0x16, 0x96, 0xbd, 0xef, 0x15, 0x14, 0x3e,
  0x00, 0x0f, 0xb8, 0xbe, 0x6c, 0x9a, 0x3a, 0xbf, 0xbf, 0xd6, 0xe5, 0xbd,
  0x7d, 0x97, 0xae, 0xbd, 0x39, 0x05, 0x07, 0xbf, 0x57, 0x8f, 0xd1, 0xbe,
  0xbe, 0x6a, 0x30, 0xbf, 0xf1, 0x51, 0xb7, 0xbe, 0x16, 0x17, 0x1e, 0xbe,
  0x97, 0x37, 0x53, 0xbe, 0x51, 0x68, 0x8c, 0x3d, 0x30, 0xbf, 0xa2, 0xbe,
  0xfa, 0x18, 0x6d, 0x3d, 0x15, 0x8e, 0x3f, 0xbe, 0xfc, 0xe8, 0x18, 0xbe,
  0x35, 0x6f, 0xa3, 0xbe, 0x0f, 0xad, 0x01, 0x3e, 0x57, 0x32, 0x8e, 0x3e,
  0xbb, 0xdf, 0x5d, 0xbe, 0x12, 0x8c, 0xb3, 0xbe, 0xc1, 0xc1, 0x93, 0xbd,
  0x99, 0xdb, 0xb2, 0xbe, 0x4b, 0xa4, 0x43, 0x3d, 0x69, 0x18, 0x48, 0xbe,
  0x7d, 0xd9, 0x8c, 0xbd, 0xab, 0x8e, 0xf9, 0x3c, 0xb5, 0xe5, 0x68, 0x3e,
  0x54, 0x8c, 0xd7, 0xbe, 0x6f, 0x60, 0xd5, 0xbd, 0x27, 0x32, 0xe9, 0xbe,
  0x9d, 0x0f, 0x10, 0x3d, 0xa1, 0xc4, 0x91, 0xbe, 0x1c, 0x1b, 0x7a, 0x3e,
  0xe3, 0x35, 0xca, 0xbd, 0xd8, 0x93, 0x8a, 0x3d, 0xa2, 0xe7, 0xc0, 0xbe,
  0xff, 0x4d, 0x88, 0xbe, 0x6d, 0x50, 0x68, 0x3e, 0xee, 0xe3, 0xcc, 0x3d,
  0xb0, 0xc4, 0x59, 0x3d, 0x43, 0x9b, 0x10, 0xbe, 0x27, 0x44, 0xf6, 0x3e,
  0xef, 0x13, 0xee, 0x3e, 0x8a, 0xa8, 0xa1, 0xbd, 0x1a, 0xdf, 0xe6, 0x3c,
  0xe7, 0x5b, 0x66, 0xbc, 0x21, 0x6a, 0x1c, 0x3e, 0x40, 0x9f, 0x99, 0xbd,
  0x68, 0x6f, 0x34, 0x3d, 0xf6, 0x86, 0xd5, 0x3e, 0x69, 0xcc, 0x4e, 0x3d,
  0x17, 0x0d, 0x77, 0x3c, 0x29, 0xcb, 0x8e, 0x3b, 0xfa, 0x14, 0x68, 0x3d,
  0x52, 0x68, 0xb2, 0xbd, 0xe9, 0x89, 0x37, 0x3d, 0xa1, 0xf6, 0xb4, 0xbe,
  0x04, 0xbf, 0x32, 0x3e, 0xc1, 0xf9, 0x1b, 0xbf, 0xf1, 0x55, 0x0c, 0x3c,
  0x6d, 0x31, 0xda, 0x3c, 0x0d, 0x34, 0x8f, 0x3e, 0x90, 0x30, 0x0d, 0xbf,
  0x62, 0xd5, 0x98, 0x3c, 0x61, 0x4b, 0xf6, 0xbe, 0x27, 0x4b, 0x33, 0x3d,
  0xf7, 0xe0, 0x7f, 0xbe, 0x60, 0x04, 0x58, 0x3e, 0x2b, 0x6a, 0x90, 0x3e,
  0x1e, 0x3e, 0x95, 0xbc, 0xcf, 0xec, 0x01, 0xbd, 0x84, 0x03, 0x86, 0xbd,
  0x23, 0x04, 0x17, 0x3e, 0x0e, 0x6a, 0xe0, 0xbe, 0x56, 0x29, 0xca, 0xbd,
  0xb0, 0x0e, 0xd1, 0xbd, 0xd5, 0xd2, 0x16, 0xbe, 0xdf, 0xa2, 0x84, 0x3e,
  0xda, 0x2a, 0x32, 0xbe, 0x46, 0x7f, 0x82, 0x3e, 0x64, 0x8b, 0xf3, 0xbe,
  0x75, 0x99, 0xf0, 0x3e, 0xac, 0xa1, 0x45, 0xbd, 0x74, 0xf5, 0xef, 0x3d,
  0x36, 0xc1, 0xb5, 0xbd, 0x64, 0x96, 0x15, 0xbe, 0xff, 0xb1, 0xcc, 0x3e,
  0xff, 0xd6, 0x1f, 0xbd, 0xb4, 0xa4, 0x35, 0xba, 0xbe, 0x8a, 0x46, 0x3e,
  0x7b, 0xdd, 0x17, 0xbc, 0x47, 0x7b, 0x0a, 0xbe, 0x28, 0x41, 0xb6, 0xbc,
  0xd1, 0x9f, 0x61, 0x3e, 0x95, 0xe9, 0x8b, 0xbd, 0xd9, 0xb0, 0x65, 0x3e,
  0x87, 0x15, 0xa1, 0xbd, 0x72, 0x91, 0xdd, 0x3e, 0xe7, 0x36, 0x63, 0x3e,
  0xe2, 0x77, 0x73, 0x3e, 0xd3, 0x6c, 0xbf, 0x3c, 0xc1, 0xf7, 0x67, 0x3e,
  0x2b, 0xd8, 0xee, 0x3e, 0x75, 0xe2, 0x9b, 0xbd, 0x69, 0xd3, 0xcd, 0xbd,
  0x7b, 0x1a, 0x1d, 0x3e, 0x17, 0xda, 0x96, 0xbe, 0xf0, 0x09, 0x3e, 0xbe,
  0xcc, 0x7d, 0x48, 0x3e, 0xd9, 0xae, 0x60, 0x3c, 0x2d, 0x0e, 0x80, 0xbe,
  0x74, 0x90, 0x2d, 0x3c, 0x31, 0x0d, 0x3a, 0xbe, 0xed, 0x63, 0x46, 0x3e,
  0xa2, 0x4a, 0x80, 0x3e, 0xf6, 0x1f, 0x96, 0x3e, 0x4c, 0x25, 0x23, 0x3c,
  0x04, 0xe6, 0x05, 0x3f, 0x1c, 0xb4, 0xb7, 0x3e, 0x29, 0x7b, 0xc0, 0xbc,
  0x19, 0xe2, 0x3b, 0x3d, 0xb7, 0xff, 0x1e, 0xbd, 0xd1, 0xd1, 0x14, 0xbe,
  0x47, 0x1b, 0x35, 0x3d, 0xec, 0xb9, 0x08, 0x3e, 0x05, 0xb4, 0x6d, 0x3e,
  0x88, 0x60, 0xc3, 0xbe, 0xb1, 0xb4, 0xeb, 0x3e, 0xa0, 0x49, 0xfa, 0xbe,
  0xb7, 0x06, 0xf9, 0xbd, 0xac, 0xd0, 0x08, 0xbe, 0xcd, 0xbe, 0xa6, 0x3e,
  0x98, 0x6d, 0xca, 0xbc, 0xd4, 0xb3, 0x4f, 0x3e, 0xf6, 0xb0, 0x04, 0x3e,
  0x2c, 0x92, 0x6b, 0xbd, 0x1d, 0x26, 0x8b, 0xbc, 0x11, 0xd4, 0xb2, 0xbe,
  0x4a, 0x3b, 0xce, 0xbe, 0x4f, 0x03, 0xb7, 0x3d, 0x83, 0x30, 0x60, 0x3e,
  0xdb, 0x0d, 0xf0, 0x3e, 0xe3, 0xcc, 0x09, 0xbf, 0xc7, 0x54, 0x9c, 0x3e,
  0xd3, 0x24, 0xe2, 0xbe, 0x31, 0x19, 0xa5, 0xbb, 0x11, 0x74, 0x64, 0xbc,
  0x39, 0x0f, 0x73, 0x3e, 0xc3, 0x58, 0x5a, 0x3e, 0x6a, 0xe4, 0x7c, 0xbd,
  0x75, 0x0d, 0x98, 0xba, 0x64, 0xf1, 0x35, 0xbc, 0xc7, 0x9a, 0x70, 0xbd,
  0xfc, 0x04, 0x80, 0xbe, 0x1d, 0x2b, 0x95, 0xbe, 0xd2, 0xa0, 0xbe, 0xbc,
  0x8d, 0x45, 0x01, 0x3e, 0xe6, 0x74, 0x36, 0x3e, 0x90, 0xf7, 0x44, 0xbe,
  0x48, 0xfe, 0x75, 0x3e, 0x8d, 0x89, 0x00, 0xbe, 0xd6, 0xb4, 0x4b, 0x3d,
  0x0e, 0x5d, 0xb9, 0x3d, 0xb3, 0x4e, 0x62, 0x3b, 0x5a, 0x7b, 0x1c, 0x3e,
  0xc8, 0xf7, 0xe8, 0xbc, 0x03, 0x30, 0x21, 0x3e, 0x8c, 0xbe, 0x50, 0xbd,
  0x74, 0x93, 0x73, 0xbd, 0x39, 0xbe, 0xb9, 0xbd, 0x4a, 0xfe, 0xff, 0xff,
  0x10, 0x00, 0x00, 0x00, 0x05, 0x00, 0x00, 0x00, 0x14, 0x00, 0x00, 0x00,
  0x2c, 0x00, 0x00, 0x00, 0x02, 0x00, 0x00, 0x00, 0x10, 0x00, 0x00, 0x00,
  0x70, 0x00, 0x00, 0x00, 0x17, 0x00, 0x00, 0x00, 0x73, 0x65, 0x71, 0x75,
  0x65, 0x6e, 0x74, 0x69, 0x61, 0x6c, 0x2f, 0x64, 0x65, 0x6e, 0x73, 0x65,
  0x2f, 0x4d, 0x61, 0x74, 0x4d, 0x75, 0x6c, 0x00, 0x38, 0xfe, 0xff, 0xff,
  0x2e, 0xff, 0xff, 0xff, 0x04, 0x00, 0x00, 0x00, 0x08, 0x00, 0x00, 0x00,
  0xff, 0xff, 0xff, 0xff, 0x70, 0x00, 0x00, 0x00, 0x00, 0x00, 0x0e, 0x00,
  0x18, 0x00, 0x08, 0x00, 0x07, 0x00, 0x0c, 0x00, 0x10, 0x00, 0x14, 0x00,
  0x0e, 0x00, 0x00, 0x00, 0x00, 0x00, 0x00, 0x02, 0x10, 0x00, 0x00, 0x00,
  0x04, 0x00, 0x00, 0x00, 0x10, 0x00, 0x00, 0x00, 0x2c, 0x00, 0x00, 0x00,
  0x01, 0x00, 0x00, 0x00, 0x02, 0x00, 0x00, 0x00, 0x18, 0x00, 0x00, 0x00,
  0x73, 0x65, 0x71, 0x75, 0x65, 0x6e, 0x74, 0x69, 0x61, 0x6c, 0x2f, 0x66,
  0x6c, 0x61, 0x74, 0x74, 0x65, 0x6e, 0x2f, 0x43, 0x6f, 0x6e, 0x73, 0x74,
  0x00, 0x00, 0x00, 0x00, 0xa0, 0xfe, 0xff, 0xff, 0x96, 0xff, 0xff, 0xff,
  0x04, 0x00, 0x00, 0x00, 0x0c, 0x00, 0x00, 0x00, 0x82, 0x8f, 0xd5, 0xbd,
  0xe0, 0x7b, 0x5c, 0x3f, 0x38, 0xb9, 0x6f, 0xbf, 0x0a, 0xff, 0xff, 0xff,
  0x10, 0x00, 0x00, 0x00, 0x03, 0x00, 0x00, 0x00, 0x10, 0x00, 0x00, 0x00,
  0x3c, 0x00, 0x00, 0x00, 0x01, 0x00, 0x00, 0x00, 0x03, 0x00, 0x00, 0x00,
  0x29, 0x00, 0x00, 0x00, 0x73, 0x65, 0x71, 0x75, 0x65, 0x6e, 0x74, 0x69,
  0x61, 0x6c, 0x2f, 0x64, 0x65, 0x6e, 0x73, 0x65, 0x5f, 0x31, 0x2f, 0x42,
  0x69, 0x61, 0x73, 0x41, 0x64, 0x64, 0x2f, 0x52, 0x65, 0x61, 0x64, 0x56,
  0x61, 0x72, 0x69, 0x61, 0x62, 0x6c, 0x65, 0x4f, 0x70, 0x00, 0x00, 0x00,
  0x60, 0xff, 0xff, 0xff, 0x00, 0x00, 0x06, 0x00, 0x08, 0x00, 0x04, 0x00,
  0x06, 0x00, 0x00, 0x00, 0x04, 0x00, 0x00, 0x00, 0x40, 0x00, 0x00, 0x00,
  0xe2, 0x87, 0x2b, 0xbf, 0x4a, 0xf2, 0xec, 0xbf, 0x76, 0x0c, 0x53, 0xbe,
  0x11, 0x06, 0x30, 0x40, 0x66, 0x88, 0x73, 0xbe, 0x95, 0x7e, 0x1f, 0xbe,
  0x2c, 0x26, 0x15, 0x3d, 0xf8, 0x5e, 0x1a, 0xbe, 0x51, 0xd9, 0xbe, 0xbe,
  0x5b, 0x1d, 0x37, 0xbe, 0xa1, 0x98, 0x40, 0xbe, 0x34, 0xa7, 0x30, 0xbf,
  0xf6, 0x3d, 0xb2, 0xbf, 0xb4, 0x38, 0x21, 0xbf, 0xae, 0x31, 0x0f, 0xbf,
  0x41, 0x10, 0xa4, 0xbf, 0xae, 0xff, 0xff, 0xff, 0x10, 0x00, 0x00, 0x00,
  0x02, 0x00, 0x00, 0x00, 0x10, 0x00, 0x00, 0x00, 0x3c, 0x00, 0x00, 0x00,
  0x01, 0x00, 0x00, 0x00, 0x10, 0x00, 0x00, 0x00, 0x27, 0x00, 0x00, 0x00,
  0x73, 0x65, 0x71, 0x75, 0x65, 0x6e, 0x74, 0x69, 0x61, 0x6c, 0x2f, 0x64,
  0x65, 0x6e, 0x73, 0x65, 0x2f, 0x42, 0x69, 0x61, 0x73, 0x41, 0x64, 0x64,
  0x2f, 0x52, 0x65, 0x61, 0x64, 0x56, 0x61, 0x72, 0x69, 0x61, 0x62, 0x6c,
  0x65, 0x4f, 0x70, 0x00, 0x04, 0x00, 0x06, 0x00, 0x04, 0x00, 0x00, 0x00,
  0x00, 0x00, 0x0e, 0x00, 0x14, 0x00, 0x04, 0x00, 0x00, 0x00, 0x08, 0x00,
  0x0c, 0x00, 0x10, 0x00, 0x0e, 0x00, 0x00, 0x00, 0x10, 0x00, 0x00, 0x00,
  0x01, 0x00, 0x00, 0x00, 0x1c, 0x00, 0x00, 0x00, 0x2c, 0x00, 0x00, 0x00,
  0x04, 0x00, 0x00, 0x00, 0x01, 0x00, 0x00, 0x00, 0x40, 0x00, 0x00, 0x00,
  0x03, 0x00, 0x00, 0x00, 0x01, 0x00, 0x00, 0x00, 0x0c, 0x00, 0x00, 0x00,
  0x63, 0x6f, 0x6e, 0x76, 0x32, 0x64, 0x5f, 0x69, 0x6e, 0x70, 0x75, 0x74,
  0x00, 0x00, 0x00, 0x00, 0xfc, 0xff, 0xff, 0xff, 0x04, 0x00, 0x04, 0x00,
  0x04, 0x00, 0x00, 0x00
};

unsigned int model_tflite_len = 12316;// Fill the int in `src/model.cc` here