#include "magic_wand_model_data.h"

// We need to keep the data array aligned on some architectures.
#ifdef __has_attribute
#define HAVE_ATTRIBUTE(x) __has_attribute(x)
#else
#define HAVE_ATTRIBUTE(x) 0
#endif

#if HAVE_ATTRIBUTE(aligned) || (defined(__GNUC__) && !defined(__clang__))
#define DATA_ALIGN_ATTRIBUTE __attribute__((aligned(4)))
#else
#define DATA_ALIGN_ATTRIBUTE
#endif

const unsigned char g_magic_wand_model_data[] DATA_ALIGN_ATTRIBUTE = {
  0x08, 0x00, 0x00, 0x00, 0x54, 0x46, 0x4c, 0x33, 0x62, 0xff, 0xff, 0xff,
  0x03, 0x00, 0x00, 0x00, 0x10, 0x00, 0x00, 0x00, 0x24, 0x00, 0x00, 0x00,
  0x78, 0x00, 0x00, 0x00, 0x24, 0x00, 0x00, 0x00, 0x05, 0x00, 0x00, 0x00,
  0x78, 0x05, 0x00, 0x00, 0xb0, 0x04, 0x00, 0x00, 0xe0, 0x02, 0x00, 0x00,
  0x60, 0x02, 0x00, 0x00, 0x54, 0x01, 0x00, 0x00, 0x01, 0x00, 0x00, 0x00,
  0x78, 0x00, 0x00, 0x00, 0x13, 0x00, 0x00, 0x00, 0x18, 0x30, 0x00, 0x00,
  0x14, 0x30, 0x00, 0x00, 0x20, 0x2f, 0x00, 0x00, 0xa8, 0x2e, 0x00, 0x00,
  0x3c, 0x2e, 0x00, 0x00, 0xec, 0x11, 0x00, 0x00, 0x98, 0x10, 0x00, 0x00,
  0xbc, 0x0e, 0x00, 0x00, 0x60, 0x06, 0x00, 0x00, 0xfc, 0x05, 0x00, 0x00,
  0x78, 0x05, 0x00, 0x00, 0xec, 0x2f, 0x00, 0x00, 0xe8, 0x2f, 0x00, 0x00,
  0xe4, 0x2f, 0x00, 0x00, 0xe0, 0x2f, 0x00, 0x00, 0xdc, 0x2f, 0x00, 0x00,
  0xd8, 0x2f, 0x00, 0x00, 0xd4, 0x2f, 0x00, 0x00, 0xd0, 0x2f, 0x00, 0x00,
  0x0f, 0x00, 0x00, 0x00, 0x4d, 0x4c, 0x49, 0x52, 0x20, 0x43, 0x6f, 0x6e,
  0x76, 0x65, 0x72, 0x74, 0x65, 0x64, 0x2e, 0x00, 0x00, 0x00, 0x0e, 0x00,
  0x18, 0x00, 0x04, 0x00, 0x08, 0x00, 0x0c, 0x00, 0x10, 0x00, 0x14, 0x00,
  0x0e, 0x00, 0x00, 0x00, 0x14, 0x00, 0x00, 0x00, 0x5c, 0x00, 0x00, 0x00,
  0x60, 0x00, 0x00, 0x00, 0x64, 0x00, 0x00, 0x00, 0x84, 0x00, 0x00, 0x00,
  0x12, 0x00, 0x00, 0x00, 0x48, 0x2f, 0x00, 0x00, 0xe4, 0x2e, 0x00, 0x00,
  0x3c, 0x2e, 0x00, 0x00, 0xd8, 0x2d, 0x00, 0x00, 0x70, 0x2d, 0x00, 0x00,
  0x1c, 0x11, 0x00, 0x00, 0xc0, 0x0f, 0x00, 0x00, 0xe4, 0x0d, 0x00, 0x00,
  0xa0, 0x05, 0x00, 0x00, 0x3c, 0x05, 0x00, 0x00, 0xb0, 0x04, 0x00, 0x00,
  0xe8, 0x03, 0x00, 0x00, 0x38, 0x03, 0x00, 0x00, 0xa4, 0x02, 0x00, 0x00,
  0x10, 0x02, 0x00, 0x00, 0x90, 0x01, 0x00, 0x00, 0xfc, 0x00, 0x00, 0x00,
  0x80, 0x00, 0x00, 0x00, 0x01, 0x00, 0x00, 0x00, 0x00, 0x00, 0x00, 0x00,
  0x01, 0x00, 0x00, 0x00, 0x11, 0x00, 0x00, 0x00, 0x08, 0x00, 0x00, 0x00,
  0x1c, 0x04, 0x00, 0x00, 0x58, 0x03, 0x00, 0x00, 0xc8, 0x02, 0x00, 0x00,
  0x24, 0x02, 0x00, 0x00, 0xac, 0x01, 0x00, 0x00, 0x10, 0x01, 0x00, 0x00,
  0x94, 0x00, 0x00, 0x00, 0x10, 0x00, 0x00, 0x00, 0x04, 0x00, 0x00, 0x00,
  0x6d, 0x61, 0x69, 0x6e, 0x00, 0x00, 0x00, 0x00, 0x8e, 0xff, 0xff, 0xff,
  0x00, 0x00, 0x00, 0x09, 0x04, 0x00, 0x00, 0x00, 0x1c, 0x00, 0x00, 0x00,
  0x10, 0x00, 0x00, 0x00, 0x04, 0x00, 0x00, 0x00, 0x0a, 0xd2, 0xff, 0xff,
  0x00, 0x00, 0x80, 0x3f, 0x01, 0x00, 0x00, 0x00, 0x11, 0x00, 0x00, 0x00,
  0x01, 0x00, 0x00, 0x00, 0x10, 0x00, 0x00, 0x00, 0xf6, 0xfb, 0xff, 0xff,
  0x00, 0x00, 0x00, 0x19, 0x01, 0x00, 0x00, 0x00, 0x8a, 0xd1, 0xff, 0xff,
  0x10, 0x00, 0x00, 0x00, 0x12, 0x00, 0x00, 0x00, 0x14, 0x00, 0x00, 0x00,
  0x20, 0x00, 0x00, 0x00, 0x02, 0x00, 0x00, 0x00, 0x01, 0x00, 0x00, 0x00,
  0x04, 0x00, 0x00, 0x00, 0x08, 0x00, 0x00, 0x00, 0x49, 0x64, 0x65, 0x6e,
  0x74, 0x69, 0x74, 0x79, 0x00, 0x00, 0x00, 0x00, 0xc4, 0xd1, 0xff, 0xff,
  0x00, 0x00, 0x0e, 0x00, 0x18, 0x00, 0x08, 0x00, 0x0c, 0x00, 0x10, 0x00,
  0x07, 0x00, 0x14, 0x00, 0x0e, 0x00, 0x00, 0x00, 0x00, 0x00, 0x00, 0x08,
  0x03, 0x00, 0x00, 0x00, 0x18, 0x00, 0x00, 0x00, 0x0c, 0x00, 0x00, 0x00,
  0x04, 0x00, 0x00, 0x00, 0x98, 0xd1, 0xff, 0xff, 0x01, 0x00, 0x00, 0x00,
  0x10, 0x00, 0x00, 0x00, 0x03, 0x00, 0x00, 0x00, 0x0f, 0x00, 0x00, 0x00,
  0x05, 0x00, 0x00, 0x00, 0x02, 0x00, 0x00, 0x00, 0x02, 0xd2, 0xff, 0xff,
  0x10, 0x00, 0x00, 0x00, 0x11, 0x00, 0x00, 0x00, 0x14, 0x00, 0x00, 0x00,
  0x30, 0x00, 0x00, 0x00, 0x02, 0x00, 0x00, 0x00, 0x01, 0x00, 0x00, 0x00,
  0x04, 0x00, 0x00, 0x00, 0x1a, 0x00, 0x00, 0x00, 0x73, 0x65, 0x71, 0x75,
  0x65, 0x6e, 0x74, 0x69, 0x61, 0x6c, 0x2f, 0x64, 0x65, 0x6e, 0x73, 0x65,
  0x5f, 0x31, 0x2f, 0x42, 0x69, 0x61, 0x73, 0x41, 0x64, 0x64, 0x00, 0x00,
  0xf4, 0xd1, 0xff, 0xff, 0xd6, 0xfd, 0xff, 0xff, 0x00, 0x00, 0x00, 0x08,
  0x03, 0x00, 0x00, 0x00, 0x24, 0x00, 0x00, 0x00, 0x18, 0x00, 0x00, 0x00,
  0x0c, 0x00, 0x00, 0x00, 0x00, 0x00, 0x06, 0x00, 0x08, 0x00, 0x07, 0x00,
  0x06, 0x00, 0x00, 0x00, 0x00, 0x00, 0x00, 0x01, 0x01, 0x00, 0x00, 0x00,
  0x0f, 0x00, 0x00, 0x00, 0x03, 0x00, 0x00, 0x00, 0x0e, 0x00, 0x00, 0x00,
  0x04, 0x00, 0x00, 0x00, 0x01, 0x00, 0x00, 0x00, 0xfe, 0xfc, 0xff, 0xff,
  0x00, 0x00, 0x00, 0x09, 0x01, 0x00, 0x00, 0x00, 0x92, 0xd2, 0xff, 0xff,
  0x10, 0x00, 0x00, 0x00, 0x10, 0x00, 0x00, 0x00, 0x14, 0x00, 0x00, 0x00,
  0x2c, 0x00, 0x00, 0x00, 0x02, 0x00, 0x00, 0x00, 0x01, 0x00, 0x00, 0x00,
  0x10, 0x00, 0x00, 0x00, 0x15, 0x00, 0x00, 0x00, 0x73, 0x65, 0x71, 0x75,
  0x65, 0x6e, 0x74, 0x69, 0x61, 0x6c, 0x2f, 0x64, 0x65, 0x6e, 0x73, 0x65,
  0x2f, 0x52, 0x65, 0x6c, 0x75, 0x00, 0x00, 0x00, 0xd8, 0xd2, 0xff, 0xff,
  0x00, 0x00, 0x0a, 0x00, 0x10, 0x00, 0x04, 0x00, 0x08, 0x00, 0x0c, 0x00,
  0x0a, 0x00, 0x00, 0x00, 0x02, 0x00, 0x00, 0x00, 0x10, 0x00, 0x00, 0x00,
  0x04, 0x00, 0x00, 0x00, 0x01, 0x00, 0x00, 0x00, 0x0e, 0x00, 0x00, 0x00,
  0x02, 0x00, 0x00, 0x00, 0x0d, 0x00, 0x00, 0x00, 0x03, 0x00, 0x00, 0x00,
  0x7a, 0xfd, 0xff, 0xff, 0x00, 0x00, 0x00, 0x16, 0x01, 0x00, 0x00, 0x00,
  0x0e, 0xd3, 0xff, 0xff, 0x10, 0x00, 0x00, 0x00, 0x0f, 0x00, 0x00, 0x00,
  0x14, 0x00, 0x00, 0x00, 0x30, 0x00, 0x00, 0x00, 0x02, 0x00, 0x00, 0x00,
  0x01, 0x00, 0x00, 0x00, 0x70, 0x00, 0x00, 0x00, 0x1a, 0x00, 0x00, 0x00,
  0x73, 0x65, 0x71, 0x75, 0x65, 0x6e, 0x74, 0x69, 0x61, 0x6c, 0x2f, 0x66,
  0x6c, 0x61, 0x74, 0x74, 0x65, 0x6e, 0x2f, 0x52, 0x65, 0x73, 0x68, 0x61,
  0x70, 0x65, 0x00, 0x00, 0x00, 0xd3, 0xff, 0xff, 0xe2, 0xfe, 0xff, 0xff,
  0x00, 0x00, 0x00, 0x05, 0x01, 0x00, 0x00, 0x00, 0x38, 0x00, 0x00, 0x00,
  0x2c, 0x00, 0x00, 0x00, 0x14, 0x00, 0x00, 0x00, 0x00, 0x00, 0x0e, 0x00,
  0x14, 0x00, 0x00, 0x00, 0x10, 0x00, 0x0c, 0x00, 0x08, 0x00, 0x04, 0x00,
  0x0e, 0x00, 0x00, 0x00, 0x03, 0x00, 0x00, 0x00, 0x01, 0x00, 0x00, 0x00,
  0x03, 0x00, 0x00, 0x00, 0x01, 0x00, 0x00, 0x00, 0x01, 0x00, 0x00, 0x00,
  0x0d, 0x00, 0x00, 0x00, 0x01, 0x00, 0x00, 0x00, 0x0c, 0x00, 0x00, 0x00,
  0x9e, 0xd3, 0xff, 0xff, 0x10, 0x00, 0x00, 0x00, 0x0e, 0x00, 0x00, 0x00,
  0x1c, 0x00, 0x00, 0x00, 0x40, 0x00, 0x00, 0x00, 0x04, 0x00, 0x00, 0x00,
  0x01, 0x00, 0x00, 0x00, 0x07, 0x00, 0x00, 0x00, 0x01, 0x00, 0x00, 0x00,
  0x10, 0x00, 0x00, 0x00, 0x22, 0x00, 0x00, 0x00, 0x73, 0x65, 0x71, 0x75,
  0x65, 0x6e, 0x74, 0x69, 0x61, 0x6c, 0x2f, 0x6d, 0x61, 0x78, 0x5f, 0x70,
  0x6f, 0x6f, 0x6c, 0x69, 0x6e, 0x67, 0x32, 0x64, 0x5f, 0x31, 0x2f, 0x4d,
  0x61, 0x78, 0x50, 0x6f, 0x6f, 0x6c, 0x00, 0x00, 0xa0, 0xd3, 0xff, 0xff,
  0xc2, 0xfe, 0xff, 0xff, 0x00, 0x00, 0x00, 0x01, 0x24, 0x00, 0x00, 0x00,
  0x18, 0x00, 0x00, 0x00, 0x04, 0x00, 0x00, 0x00, 0xb4, 0xfe, 0xff, 0xff,
  0x01, 0x00, 0x00, 0x00, 0x01, 0x00, 0x00, 0x00, 0x00, 0x00, 0x00, 0x01,
  0x01, 0x00, 0x00, 0x00, 0x0c, 0x00, 0x00, 0x00, 0x03, 0x00, 0x00, 0x00,
  0x0b, 0x00, 0x00, 0x00, 0x07, 0x00, 0x00, 0x00, 0x09, 0x00, 0x00, 0x00,
  0x2e, 0xd4, 0xff, 0xff, 0x10, 0x00, 0x00, 0x00, 0x0d, 0x00, 0x00, 0x00,
  0x1c, 0x00, 0x00, 0x00, 0x2c, 0x00, 0x00, 0x00, 0x04, 0x00, 0x00, 0x00,
  0x01, 0x00, 0x00, 0x00, 0x15, 0x00, 0x00, 0x00, 0x01, 0x00, 0x00, 0x00,
  0x10, 0x00, 0x00, 0x00, 0x0c, 0x00, 0x00, 0x00, 0x74, 0x66, 0x6c, 0x2e,
  0x63, 0x6f, 0x6e, 0x76, 0x5f, 0x32, 0x64, 0x31, 0x00, 0x00, 0x00, 0x00,
  0x74, 0xd4, 0xff, 0xff, 0x00, 0x00, 0x0e, 0x00, 0x1a, 0x00, 0x08, 0x00,
  0x0c, 0x00, 0x10, 0x00, 0x07, 0x00, 0x14, 0x00, 0x0e, 0x00, 0x00, 0x00,
  0x00, 0x00, 0x00, 0x05, 0x01, 0x00, 0x00, 0x00, 0x3c, 0x00, 0x00, 0x00,
  0x30, 0x00, 0x00, 0x00, 0x14, 0x00, 0x00, 0x00, 0x00, 0x00, 0x0e, 0x00,
  0x18, 0x00, 0x17, 0x00, 0x10, 0x00, 0x0c, 0x00, 0x08, 0x00, 0x04, 0x00,
  0x0e, 0x00, 0x00, 0x00, 0x03, 0x00, 0x00, 0x00, 0x03, 0x00, 0x00, 0x00,
  0x03, 0x00, 0x00, 0x00, 0x03, 0x00, 0x00, 0x00, 0x00, 0x00, 0x00, 0x01,
  0x01, 0x00, 0x00, 0x00, 0x0b, 0x00, 0x00, 0x00, 0x01, 0x00, 0x00, 0x00,
  0x0a, 0x00, 0x00, 0x00, 0x46, 0xff, 0xff, 0xff, 0x00, 0x00, 0x00, 0x11,
  0x01, 0x00, 0x00, 0x00, 0xda, 0xd4, 0xff, 0xff, 0x10, 0x00, 0x00, 0x00,
  0x0c, 0x00, 0x00, 0x00, 0x1c, 0x00, 0x00, 0x00, 0x40, 0x00, 0x00, 0x00,
  0x04, 0x00, 0x00, 0x00, 0x01, 0x00, 0x00, 0x00, 0x15, 0x00, 0x00, 0x00,
  0x01, 0x00, 0x00, 0x00, 0x08, 0x00, 0x00, 0x00, 0x20, 0x00, 0x00, 0x00,
  0x73, 0x65, 0x71, 0x75, 0x65, 0x6e, 0x74, 0x69, 0x61, 0x6c, 0x2f, 0x6d,
  0x61, 0x78, 0x5f, 0x70, 0x6f, 0x6f, 0x6c, 0x69, 0x6e, 0x67, 0x32, 0x64,
  0x2f, 0x4d, 0x61, 0x78, 0x50, 0x6f, 0x6f, 0x6c, 0x00, 0x00, 0x00, 0x00,
  0x34, 0xd5, 0xff, 0xff, 0x00, 0x00, 0x0e, 0x00, 0x14, 0x00, 0x00, 0x00,
  0x08, 0x00, 0x0c, 0x00, 0x07, 0x00, 0x10, 0x00, 0x0e, 0x00, 0x00, 0x00,
  0x00, 0x00, 0x00, 0x01, 0x30, 0x00, 0x00, 0x00, 0x24, 0x00, 0x00, 0x00,
  0x10, 0x00, 0x00, 0x00, 0x0c, 0x00, 0x10, 0x00, 0x00, 0x00, 0x04, 0x00,
  0x08, 0x00, 0x0f, 0x00, 0x0c, 0x00, 0x00, 0x00, 0x01, 0x00, 0x00, 0x00,
  0x01, 0x00, 0x00, 0x00, 0x00, 0x00, 0x00, 0x01, 0x01, 0x00, 0x00, 0x00,
  0x0a, 0x00, 0x00, 0x00, 0x03, 0x00, 0x00, 0x00, 0x00, 0x00, 0x00, 0x00,
  0x06, 0x00, 0x00, 0x00, 0x08, 0x00, 0x00, 0x00, 0x00, 0x00, 0x0a, 0x00,
  0x0c, 0x00, 0x07, 0x00, 0x00, 0x00, 0x08, 0x00, 0x0a, 0x00, 0x00, 0x00,
  0x00, 0x00, 0x00, 0x03, 0x01, 0x00, 0x00, 0x00, 0x9e, 0xd5, 0xff, 0xff,
  0x10, 0x00, 0x00, 0x00, 0x0b, 0x00, 0x00, 0x00, 0x1c, 0x00, 0x00, 0x00,
  0x28, 0x00, 0x00, 0x00, 0x04, 0x00, 0x00, 0x00, 0x01, 0x00, 0x00, 0x00,
  0x40, 0x00, 0x00, 0x00, 0x03, 0x00, 0x00, 0x00, 0x08, 0x00, 0x00, 0x00,
  0x0b, 0x00, 0x00, 0x00, 0x74, 0x66, 0x6c, 0x2e, 0x63, 0x6f, 0x6e, 0x76,
  0x5f, 0x32, 0x64, 0x00, 0x88, 0xd5, 0xff, 0xff, 0x7e, 0xd6, 0xff, 0xff,
  0x04, 0x00, 0x00, 0x00, 0x40, 0x00, 0x00, 0x00, 0x6d, 0x8f, 0x61, 0x3f,
  0x36, 0x65, 0xa1, 0xbf, 0x89, 0xb6, 0x0f, 0xbe, 0x42, 0x1b, 0x2b, 0x3f,
  0xa5, 0x6b, 0xac, 0xbf, 0x9c, 0xe1, 0xf7, 0xbe, 0xf5, 0xc1, 0x10, 0xc0,
  0x61, 0x4d, 0x07, 0xbf, 0xf2, 0xaa, 0xaa, 0xbf, 0xbd, 0x4c, 0x4d, 0xbf,
  0xf6, 0x16, 0x36, 0xc0, 0x8a, 0x7f, 0xe1, 0x3f, 0xd6, 0xe4, 0x89, 0xbf,
  0x22, 0x29, 0x96, 0xbf, 0x48, 0xbe, 0xaf, 0xbe, 0xec, 0xd3, 0x0c, 0xbf,
  0x26, 0xd6, 0xff, 0xff, 0x10, 0x00, 0x00, 0x00, 0x0a, 0x00, 0x00, 0x00,
  0x10, 0x00, 0x00, 0x00, 0x20, 0x00, 0x00, 0x00, 0x01, 0x00, 0x00, 0x00,
  0x10, 0x00, 0x00, 0x00, 0x0d, 0x00, 0x00, 0x00, 0x73, 0x74, 0x64, 0x2e,
  0x63, 0x6f, 0x6e, 0x73, 0x74, 0x61, 0x6e, 0x74, 0x31, 0x00, 0x00, 0x00,
  0x08, 0xd6, 0xff, 0xff, 0xfe, 0xd6, 0xff, 0xff, 0x04, 0x00, 0x00, 0x00,
  0x20, 0x00, 0x00, 0x00, 0xa3, 0x92, 0x01, 0xbf, 0xf9, 0x9c, 0xb6, 0xbd,
  0xcb, 0x2a, 0xab, 0xbf, 0x4d, 0xc0, 0xed, 0xbe, 0x05, 0x21, 0x3a, 0xc0,
  0x0a, 0xc2, 0x81, 0xc0, 0xb1, 0x93, 0x03, 0xc0, 0x4b, 0x60, 0x2d, 0xbf,
  0x86, 0xd6, 0xff, 0xff, 0x10, 0x00, 0x00, 0x00, 0x09, 0x00, 0x00, 0x00,
  0x10, 0x00, 0x00, 0x00, 0x20, 0x00, 0x00, 0x00, 0x01, 0x00, 0x00, 0x00,
  0x08, 0x00, 0x00, 0x00, 0x0c, 0x00, 0x00, 0x00, 0x73, 0x74, 0x64, 0x2e,
  0x63, 0x6f, 0x6e, 0x73, 0x74, 0x61, 0x6e, 0x74, 0x00, 0x00, 0x00, 0x00,
  0x68, 0xd6, 0xff, 0xff, 0x5e, 0xd7, 0xff, 0xff, 0x04, 0x00, 0x00, 0x00,
  0x00, 0x08, 0x00, 0x00, 0x69, 0x66, 0x99, 0x3e, 0x6d, 0xc6, 0x00, 0xbd,
  0x98, 0xa3, 0x2e, 0x3d, 0x3b, 0x12, 0x64, 0xbd, 0xca, 0xd4, 0x09, 0xbe,
  0x3e, 0xcb, 0x86, 0xbd, 0x06, 0x87, 0x6a, 0xbd, 0x46, 0x74, 0xa9, 0xbb,
  0x1d, 0xb5, 0xc1, 0x3c, 0x8c, 0x49, 0x7d, 0xbd, 0x9d, 0x2e, 0x21, 0x3e,
  0x98, 0x3f, 0x86, 0xbd, 0xe8, 0x2d, 0x75, 0xbe, 0x35, 0xb8, 0x9c, 0x3b,
  0x53, 0x33, 0x58, 0xbd, 0xbd, 0x59, 0x4f, 0xbd, 0x0c, 0xcc, 0x84, 0xba,
  0x40, 0xa1, 0x9d, 0xbc, 0x61, 0x08, 0xeb, 0xbe, 0xad, 0xa8, 0x8b, 0xbd,
  0x58, 0xa4, 0xf0, 0xbe, 0xf1, 0xb1, 0x24, 0xbd, 0x90, 0x2b, 0x5e, 0xbd,
  0x4e, 0xe4, 0x0d, 0xbe, 0x33, 0x13, 0x4e, 0x3c, 0xdb, 0x70, 0xad, 0x3d,
  0x57, 0x45, 0x1f, 0x3e, 0xe6, 0x01, 0x75, 0xbc, 0x36, 0x31, 0xc9, 0x3e,
  0x7f, 0x10, 0x36, 0xbc, 0x0d, 0x6a, 0xb5, 0xbc, 0xdd, 0xd4, 0x7e, 0x3d,
  0xa4, 0xce, 0x74, 0xbd, 0xb1, 0xb6, 0x00, 0x3d, 0xf2, 0x18, 0x6d, 0xbd,
  0xca, 0xf3, 0xdc, 0xbe, 0x36, 0x54, 0x34, 0x3e, 0x82, 0xa5, 0xef, 0x3e,
  0xf5, 0x0d, 0xa4, 0xbd, 0xcd, 0x72, 0xda, 0x3d, 0x10, 0x35, 0x5b, 0xbe,
  0x97, 0xa9, 0xcc, 0xbd, 0x53, 0x1b, 0x95, 0xbe, 0x0e, 0x70, 0x60, 0xbe,
  0x03, 0xf9, 0xf7, 0xbd, 0xf1, 0x24, 0x7a, 0xbe, 0xec, 0xfa, 0xea, 0xbd,
  0xcb, 0x98, 0x7a, 0xbd, 0x77, 0x67, 0x19, 0xbd, 0x20, 0x5c, 0xf1, 0xbd,
  0x98, 0xa6, 0x3c, 0x3e, 0x25, 0x4f, 0x6a, 0xbc, 0x14, 0x14, 0xa4, 0xbb,
  0x7f, 0x0a, 0xac, 0xbe, 0x8d, 0x84, 0x58, 0xbd, 0x27, 0x56, 0x86, 0xbe,
  0x04, 0x0c, 0x43, 0x3d, 0x9a, 0x48, 0x2b, 0xbe, 0x5e, 0x23, 0x74, 0x3e,
  0x11, 0x54, 0xc2, 0x3c, 0x53, 0xea, 0x91, 0x3c, 0x04, 0xa6, 0x99, 0xbe,
  0xdf, 0x8a, 0x9f, 0x3b, 0x76, 0x88, 0x9f, 0xbd, 0xb2, 0x85, 0x35, 0x3e,
  0x70, 0x08, 0x25, 0xbe, 0x50, 0x55, 0x02, 0x3e, 0x06, 0xa2, 0x2f, 0x3d,
  0x19, 0x38, 0x73, 0x3d, 0x4d, 0xe8, 0x12, 0xbe, 0x7f, 0xf6, 0x71, 0xbe,
  0x7a, 0x87, 0xbc, 0x3e, 0x51, 0x49, 0x36, 0x3c, 0xc6, 0x5c, 0xf2, 0xbb,
  0x81, 0x6f, 0xb1, 0x3d, 0x8f, 0x33, 0x12, 0xbd, 0xf9, 0x17, 0x92, 0xbe,
  0x5f, 0x95, 0x06, 0xbe, 0x76, 0xa8, 0xd5, 0xbd, 0x55, 0xb9, 0xad, 0x3c,
  0xda, 0xf5, 0xf5, 0xbb, 0xfd, 0x7d, 0x65, 0xbe, 0xf5, 0xde, 0x81, 0x3d,
  0x39, 0xb0, 0x3d, 0xbd, 0xa8, 0x13, 0x5d, 0xbd, 0x25, 0x8e, 0xfd, 0xbc,
  0xfd, 0xf6, 0x79, 0xbe, 0x9a, 0xaf, 0x93, 0xbe, 0xe0, 0x47, 0x07, 0xbd,
  0xc8, 0xf5, 0x74, 0xbd, 0xcb, 0x3c, 0x5f, 0x3e, 0x2f, 0xce, 0xa7, 0xbd,
  0x56, 0xec, 0x4f, 0xbd, 0x22, 0x67, 0x75, 0xbd, 0x23, 0x0a, 0xa4, 0xbe,
  0x2c, 0xd8, 0x04, 0x3d, 0x94, 0x47, 0x6c, 0xbd, 0x44, 0x88, 0xbd, 0xbd,
  0xde, 0x80, 0x14, 0x3d, 0x33, 0xb6, 0x35, 0xbd, 0xa0, 0xc7, 0x3e, 0xbe,
  0x71, 0xaa, 0xa5, 0xbd, 0x11, 0x3a, 0xb1, 0xbd, 0xa5, 0xf1, 0xa5, 0x3e,
  0x2c, 0xfd, 0xa6, 0x3b, 0x50, 0xdf, 0x91, 0x3b, 0xf3, 0x59, 0xba, 0x3d,
  0x56, 0x07, 0xc6, 0xbc, 0xcf, 0x30, 0xf8, 0xbd, 0x77, 0x17, 0xf2, 0xbb,
  0x25, 0x54, 0x2f, 0xbd, 0xd6, 0x5f, 0x40, 0xbe, 0x14, 0x10, 0x58, 0x3d,
  0xd4, 0x84, 0x1e, 0x3d, 0x7f, 0x22, 0x65, 0xbe, 0xf2, 0x67, 0x86, 0xbd,
  0x96, 0x35, 0xe5, 0xbd, 0x5e, 0xb5, 0xbb, 0xbb, 0xfa, 0x4e, 0x02, 0x3e,
  0xdc, 0xab, 0x49, 0xbc, 0x16, 0x7c, 0x6b, 0x3e, 0x08, 0x08, 0xe2, 0xbd,
  0x24, 0x8d, 0x19, 0xbe, 0x3e, 0x98, 0xd4, 0x3c, 0xba, 0xef, 0x1c, 0xbe,
  0xc1, 0xda, 0x31, 0xbd, 0xc0, 0x6b, 0x97, 0xbc, 0xa0, 0x90, 0xdc, 0xbc,
  0xac, 0x70, 0x12, 0xbd, 0x69, 0x8e, 0xc5, 0xbe, 0x1f, 0x83, 0xfb, 0xbe,
  0x21, 0x69, 0x4d, 0xbd, 0x3b, 0x19, 0x9f, 0x3e, 0x23, 0x84, 0xca, 0xbe,
  0x36, 0xfb, 0x47, 0x3d, 0xf6, 0x13, 0xce, 0xbe, 0x1b, 0x1d, 0x7e, 0xbe,
  0x17, 0xed, 0xfc, 0xbe, 0x2e, 0x27, 0x31, 0xbe, 0xd3, 0xb3, 0xcc, 0x3d,
  0x31, 0x66, 0x8e, 0x3e, 0xcf, 0xff, 0xa6, 0xbe, 0x7b, 0x55, 0x26, 0xbf,
  0x3e, 0xd2, 0x12, 0xbe, 0xca, 0xf8, 0xb0, 0xbe, 0xac, 0x74, 0x1a, 0x3e,
  0xbf, 0x5d, 0x6a, 0x3e, 0xb4, 0x7e, 0xde, 0xbc, 0xcb, 0x2a, 0x5a, 0xbe,
  0xf1, 0xfa, 0xfc, 0xbd, 0xe1, 0x6f, 0xb6, 0xbd, 0x21, 0xed, 0xa7, 0x3e,
  0xe9, 0x6d, 0x2b, 0xbe, 0x8f, 0xc9, 0x39, 0x3d, 0x13, 0x0f, 0xc4, 0x3d,
  0xae, 0x26, 0xf1, 0xbd, 0x99, 0xe9, 0xaa, 0xbd, 0x78, 0x9c, 0x26, 0x3c,
  0xb2, 0x5f, 0x8d, 0x3e, 0xe1, 0x05, 0x5c, 0xbc, 0x1d, 0x88, 0x0c, 0xbe,
  0x55, 0x6b, 0x30, 0x3e, 0x22, 0xab, 0x65, 0x3d, 0x1f, 0xde, 0x8a, 0xbb,
  0x4b, 0xa5, 0x9b, 0x3e, 0x7a, 0x9e, 0x8b, 0xbd, 0x8f, 0x25, 0x95, 0xbe,
  0xbd, 0x25, 0xf0, 0xbd, 0x5c, 0x50, 0x3f, 0xbe, 0x2f, 0x98, 0xc2, 0xbd,
  0xdf, 0x74, 0x26, 0x3e, 0xa3, 0x46, 0x33, 0x3e, 0x1d, 0x31, 0xca, 0x3d,
  0x9c, 0xaf, 0xad, 0xbd, 0xbb, 0x45, 0xc7, 0xbe, 0xc6, 0xdd, 0xd8, 0xbd,
  0x64, 0xab, 0x21, 0xbe, 0x69, 0xe9, 0x4b, 0x3d, 0xf3, 0xbd, 0xfe, 0x3d,
  0x2a, 0x1d, 0x9f, 0xbc, 0xb8, 0x45, 0x05, 0x3e, 0xc8, 0x22, 0x97, 0x3c,
  0x04, 0x03, 0x3c, 0xbe, 0x96, 0x82, 0x1d, 0x3e, 0x38, 0x67, 0xa1, 0xbd,
  0x5c, 0xf8, 0x58, 0x3e, 0x87, 0x5d, 0x97, 0x3d, 0xe8, 0xc9, 0x81, 0xbd,
  0x44, 0x3f, 0xe6, 0x3d, 0x75, 0xb1, 0xe0, 0x3c, 0x5f, 0xfe, 0xbb, 0xbd,
  0xbb, 0x7d, 0x6a, 0x3c, 0x4d, 0xc1, 0x89, 0xbd, 0x6b, 0xc2, 0xd9, 0x3c,
  0x5f, 0x61, 0x3e, 0x3d, 0x52, 0xf7, 0xb2, 0xbe, 0x8f, 0x7c, 0xe1, 0x3e,
  0xcc, 0x4c, 0x71, 0xbd, 0xe1, 0xe3, 0xb0, 0x3d, 0xa4, 0xc0, 0xe1, 0x3d,
  0x0d, 0x95, 0x08, 0xbe, 0x34, 0x33, 0x1f, 0xbc, 0x04, 0xb6, 0x7b, 0xbe,
  0xc1, 0xf2, 0x10, 0xbf, 0xed, 0x7e, 0x91, 0xbb, 0x6b, 0x53, 0xeb, 0x3e,
  0xc7, 0xd1, 0xd8, 0xbd, 0xde, 0xcd, 0xcc, 0x3d, 0xfe, 0x41, 0xde, 0xbd,
  0xe7, 0xf7, 0x88, 0xbd, 0xe0, 0x75, 0xa1, 0x3d, 0x8a, 0x27, 0x2c, 0xbe,
  0x7f, 0xfa, 0xf1, 0x3d, 0xbc, 0x68, 0xde, 0xbd, 0x83, 0x47, 0x8f, 0xbd,
  0x28, 0xf9, 0x0d, 0x3c, 0xb8, 0xf2, 0x89, 0xbd, 0x68, 0xf1, 0xf7, 0xbd,
  0x59, 0x2c, 0x84, 0x3e, 0x29, 0x45, 0xc1, 0x3d, 0x61, 0x05, 0xea, 0xbc,
  0xb5, 0x42, 0x62, 0xbe, 0x2f, 0x68, 0x90, 0xbd, 0x21, 0x2b, 0x93, 0xbe,
  0xff, 0x55, 0x91, 0xbb, 0x45, 0x0d, 0xa6, 0xbe, 0xb9, 0xd2, 0xba, 0x3e,
  0x10, 0x73, 0x41, 0xbd, 0x04, 0x15, 0x78, 0x3e, 0x24, 0x28, 0x80, 0xbe,
  0xbb, 0x56, 0x1f, 0xbf, 0xe5, 0x18, 0x48, 0x3b, 0xc7, 0x6d, 0x72, 0x3e,
  0x6b, 0x9d, 0x0f, 0xbf, 0x61, 0xea, 0xb0, 0xbd, 0x5a, 0x83, 0xc8, 0xbc,
  0x22, 0x84, 0x87, 0x3e, 0x66, 0xff, 0x81, 0xbe, 0x43, 0xc7, 0xd1, 0xbe,
  0x12, 0x89, 0x53, 0x3e, 0xeb, 0x69, 0x7e, 0xbc, 0x89, 0x47, 0xb7, 0xbe,
  0xf3, 0x7e, 0x54, 0x3d, 0xd5, 0x94, 0x82, 0xbd, 0x7a, 0x20, 0x67, 0xbc,
  0xd8, 0x1c, 0x2c, 0xbe, 0x66, 0x61, 0xbe, 0xbe, 0x9a, 0x13, 0x8c, 0xbd,
  0x22, 0x1d, 0x19, 0x3d, 0x42, 0xd4, 0x21, 0xbe, 0x32, 0xcf, 0x0b, 0xbd,
  0xc0, 0x9a, 0x36, 0xbd, 0x61, 0x31, 0xae, 0x3e, 0x9c, 0xec, 0x02, 0xbe,
  0xee, 0x58, 0xbf, 0xbe, 0x8a, 0xad, 0xad, 0x3d, 0xf4, 0xb7, 0x85, 0xbe,
  0x3f, 0xe6, 0x73, 0x3c, 0x4b, 0x66, 0xcb, 0x3d, 0x8d, 0x75, 0x65, 0xbd,
  0x34, 0xe3, 0xd9, 0x3d, 0x28, 0x02, 0x8f, 0xbc, 0xf8, 0xdf, 0xa5, 0xbb,
  0x4d, 0x25, 0xa9, 0x3c, 0x7e, 0x0a, 0xc0, 0xbe, 0xb3, 0x08, 0x0c, 0xbe,
  0x52, 0xbc, 0x17, 0x3d, 0xa6, 0x53, 0x5c, 0x3d, 0xb0, 0xd8, 0x98, 0x3e,
  0x53, 0xdd, 0x1b, 0xbe, 0x93, 0x3a, 0x78, 0xbe, 0xdd, 0xda, 0x45, 0x3d,
  0x13, 0x8c, 0xd4, 0xbe, 0xa2, 0xd4, 0xdd, 0x3e, 0xc8, 0xc8, 0x6a, 0x3e,
  0x99, 0x38, 0xab, 0xbd, 0x73, 0x84, 0xf4, 0x3d, 0x8b, 0x5d, 0x29, 0xbe,
  0x93, 0x1f, 0x10, 0xbe, 0x6e, 0x9a, 0x2c, 0x3c, 0xf8, 0x6b, 0x39, 0xbe,
  0xd9, 0x7e, 0x04, 0xbe, 0x5b, 0x98, 0x7c, 0x3e, 0xb5, 0xff, 0xcd, 0xbd,
  0x14, 0xfc, 0xdc, 0x3d, 0xd4, 0x69, 0xa8, 0xbc, 0x64, 0x7e, 0x0c, 0xbd,
  0xd8, 0xc2, 0x8b, 0x3e, 0x49, 0x6e, 0xe8, 0xbc, 0x17, 0x9e, 0xd8, 0xbe,
  0x84, 0x3f, 0x2a, 0x3f, 0xd1, 0x92, 0x21, 0xbc, 0xf7, 0xda, 0xc9, 0x3e,
  0xe4, 0xb6, 0x84, 0x3b, 0x1b, 0x8d, 0xfc, 0xbe, 0xa5, 0x3d, 0x0e, 0xbd,
  0x28, 0xe3, 0x53, 0xbc, 0xfe, 0x48, 0xe3, 0xbe, 0x96, 0x23, 0xa6, 0x3d,
  0x83, 0x74, 0x15, 0xbd, 0x81, 0x2c, 0x2f, 0xbe, 0xc6, 0x7e, 0xa1, 0x3d,
  0xab, 0x5f, 0x38, 0xbf, 0x2e, 0x21, 0xa9, 0xbb, 0x87, 0xd1, 0xbb, 0x3c,
  0x46, 0xba, 0x24, 0xbf, 0x5c, 0xc6, 0x89, 0xbe, 0xfa, 0x37, 0x74, 0xbc,
  0x34, 0xb4, 0xca, 0x3e, 0x29, 0xcf, 0x2a, 0xbe, 0xdf, 0x1e, 0x20, 0xbf,
  0x50, 0xda, 0x15, 0x3e, 0x94, 0x1d, 0x06, 0xbc, 0x41, 0xd9, 0x1f, 0xbf,
  0xb7, 0xf9, 0x33, 0xbc, 0x3a, 0xa9, 0x2c, 0xbd, 0xbc, 0x7b, 0x01, 0xbe,
  0x87, 0x95, 0x09, 0x3e, 0x96, 0x22, 0xfa, 0xbe, 0x41, 0xbb, 0xcc, 0xbd,
  0x01, 0x0f, 0x29, 0xbe, 0x30, 0xbd, 0x32, 0xbe, 0x93, 0xf8, 0x22, 0xbf,
  0x2d, 0xe8, 0x83, 0xbd, 0x77, 0x01, 0x79, 0x3e, 0x76, 0xc1, 0xb3, 0xbe,
  0xca, 0x71, 0x53, 0x3d, 0xb4, 0x0e, 0xf5, 0xbe, 0x0d, 0xf7, 0xc4, 0xbe,
  0x97, 0x67, 0xd8, 0xbd, 0x98, 0x4f, 0xbd, 0xbd, 0xcd, 0xc6, 0x48, 0x3e,
  0xb9, 0xff, 0x87, 0x3e, 0x1f, 0xca, 0x5c, 0xbe, 0x48, 0x78, 0xaa, 0xbe,
  0xa1, 0x52, 0x70, 0xbc, 0x3b, 0x64, 0x97, 0xbe, 0x37, 0x1a, 0xb1, 0x3d,
  0xfb, 0x2f, 0x8b, 0x3e, 0xcc, 0xef, 0x6e, 0xbe, 0x2e, 0x68, 0x1d, 0xbe,
  0x1b, 0x5b, 0xb3, 0x3d, 0x01, 0xf1, 0x80, 0x3d, 0xb3, 0x8d, 0x3a, 0x3e,
  0x92, 0xbb, 0x0c, 0xbe, 0x43, 0x2f, 0xcc, 0x3d, 0xbc, 0x7e, 0xad, 0xbc,
  0x89, 0xae, 0xa6, 0xbe, 0x7f, 0xa9, 0xc8, 0x3d, 0x54, 0x32, 0x2b, 0x3d,
  0xae, 0x17, 0x80, 0x3d, 0xc4, 0x6e, 0x00, 0xbe, 0xd1, 0xd8, 0x8e, 0x3d,
  0xa6, 0xa1, 0xd0, 0xbd, 0x14, 0x9f, 0x86, 0xbe, 0xce, 0xec, 0x22, 0xbd,
  0xdd, 0x50, 0x99, 0xbe, 0xf3, 0x49, 0x29, 0xbe, 0x31, 0xa7, 0xa2, 0xbd,
  0xb5, 0x63, 0xd6, 0xbc, 0xcc, 0x9d, 0x0a, 0x3c, 0x09, 0xe8, 0x04, 0xbe,
  0x10, 0xe3, 0x0e, 0xbf, 0x31, 0xf4, 0xc5, 0xbd, 0x06, 0x91, 0x1f, 0x3d,
  0xc8, 0xa8, 0x00, 0xbf, 0x95, 0x47, 0x3c, 0xbe, 0x6a, 0x86, 0xd8, 0xbe,
  0xfc, 0xc8, 0x93, 0x3c, 0xbd, 0x13, 0xa6, 0xbd, 0x72, 0x91, 0x4c, 0x3e,
  0x69, 0x0a, 0xb9, 0xbd, 0xaf, 0xcf, 0xc1, 0x3d, 0xcd, 0xc3, 0x51, 0xbc,
  0xc0, 0xff, 0xd5, 0xbc, 0x34, 0xce, 0x8d, 0xbe, 0xde, 0x84, 0x24, 0xbe,
  0x30, 0x5d, 0xb1, 0xbe, 0x32, 0x34, 0x11, 0xbd, 0x2a, 0x73, 0x94, 0xbe,
  0xc1, 0x3a, 0x77, 0xbe, 0xf6, 0xe9, 0xea, 0xbd, 0xa4, 0x33, 0x3c, 0xbe,
  0xf8, 0x6e, 0xee, 0xbe, 0x26, 0x68, 0x46, 0x3e, 0x0c, 0x0c, 0x46, 0x3c,
  0xba, 0x24, 0xf1, 0xbc, 0x21, 0x03, 0x59, 0xbd, 0xfe, 0xb4, 0x6d, 0x3e,
  0x8d, 0x08, 0xe9, 0x3e, 0x4f, 0xbf, 0x80, 0x3b, 0x83, 0x4c, 0x14, 0x3d,
  0x0e, 0x3f, 0x9e, 0xbd, 0xe2, 0x06, 0x6c, 0x3d, 0x37, 0x66, 0xe9, 0x3d,
  0xb5, 0x28, 0x23, 0xbe, 0x82, 0xa6, 0x0b, 0x3d, 0xb1, 0x74, 0x8c, 0xbd,
  0x01, 0x95, 0xfa, 0xbc, 0x04, 0xae, 0x3c, 0x3e, 0x21, 0x0e, 0x21, 0xbe,
  0x1f, 0x84, 0x9d, 0xbd, 0xe3, 0x91, 0xa5, 0x3e, 0xab, 0x27, 0x18, 0xbe,
  0x51, 0x2b, 0x7b, 0x3c, 0x23, 0x20, 0x2c, 0xbe, 0x43, 0x10, 0x3b, 0xbd,
  0x70, 0x36, 0xe0, 0xbd, 0xe9, 0xf7, 0x1e, 0xbe, 0x62, 0xd4, 0x16, 0xbe,
  0x77, 0x2f, 0x94, 0x3d, 0x0e, 0x1f, 0xa5, 0xbd, 0x74, 0xa8, 0x30, 0xbe,
  0xe0, 0x39, 0x68, 0xbe, 0xd6, 0xd3, 0x04, 0xbe, 0xc8, 0x3a, 0xc0, 0xbe,
  0x80, 0x8f, 0x75, 0xbd, 0x05, 0xd4, 0x84, 0xbd, 0xfc, 0x18, 0x80, 0xbe,
  0x45, 0xdf, 0x17, 0xbc, 0x18, 0x9a, 0x64, 0xbe, 0xda, 0x55, 0xbe, 0xbd,
  0x64, 0x88, 0x42, 0xbd, 0x77, 0xbe, 0xa7, 0xbe, 0x69, 0x77, 0x6c, 0xbd,
  0x7d, 0x3d, 0xc4, 0xbd, 0x46, 0xb4, 0x2f, 0xbe, 0xc2, 0x62, 0x57, 0xbc,
  0x83, 0x88, 0xc5, 0xbc, 0x21, 0x6b, 0xcf, 0xbd, 0xa0, 0x23, 0xff, 0xbc,
  0x88, 0x48, 0x8b, 0xbe, 0x6f, 0xcc, 0xbf, 0x3c, 0x78, 0x80, 0xa5, 0xbd,
  0x69, 0x4c, 0x45, 0x3e, 0xe4, 0xa4, 0x05, 0xbd, 0x61, 0x1b, 0x83, 0x3c,
  0x1c, 0x1a, 0xcd, 0xbd, 0x8f, 0x93, 0xd7, 0xbc, 0xc0, 0x0f, 0x1f, 0x3d,
  0xd9, 0xdb, 0x92, 0x3d, 0x4f, 0x62, 0x5a, 0x3d, 0xd4, 0x4e, 0x45, 0x3d,
  0x8f, 0x73, 0x69, 0xbd, 0xe3, 0x0a, 0xb5, 0xbc, 0x1f, 0x81, 0x76, 0x3e,
  0x75, 0x24, 0x0d, 0x3d, 0x45, 0xc3, 0x0a, 0x3f, 0x7f, 0x98, 0x10, 0xbd,
  0xe0, 0xb0, 0xc4, 0xbe, 0x18, 0x6e, 0xb7, 0x3d, 0x16, 0x46, 0x69, 0xbe,
  0x57, 0x59, 0x26, 0xbe, 0x35, 0x27, 0x41, 0x3d, 0xff, 0x6d, 0x80, 0xbe,
  0x84, 0x45, 0xb8, 0x3d, 0x5b, 0x60, 0x94, 0xbb, 0x90, 0x27, 0xba, 0xbe,
  0x87, 0xcb, 0xab, 0x3e, 0x57, 0x1b, 0x1a, 0xbe, 0x0b, 0x24, 0x10, 0xbe,
  0x64, 0x83, 0x86, 0x3e, 0xb8, 0xeb, 0x9c, 0xbe, 0x11, 0x99, 0x8a, 0x3d,
  0xb2, 0x10, 0xaa, 0xbd, 0x45, 0x60, 0xd5, 0xbe, 0xbe, 0x27, 0x73, 0x3e,
  0x7d, 0x7a, 0x6a, 0xbd, 0xb2, 0xb7, 0x8e, 0x3e, 0xe3, 0xed, 0xf2, 0x3d,
  0xfb, 0x32, 0x16, 0xbf, 0x8c, 0x3d, 0xba, 0x3e, 0xd3, 0xec, 0x24, 0x3e,
  0xef, 0xdf, 0x19, 0xbf, 0x0a, 0xf1, 0x14, 0xbd, 0xd2, 0x39, 0xe8, 0x3d,
  0xc0, 0xe0, 0x62, 0x3e, 0xc5, 0x83, 0xed, 0xbe, 0xb9, 0xb4, 0x32, 0xbf,
  0xa7, 0x33, 0x09, 0xbe, 0x01, 0x36, 0xb7, 0xba, 0xe4, 0x02, 0x80, 0xbd,
  0x69, 0x85, 0x46, 0xbe, 0x25, 0x7e, 0x86, 0xbd, 0x2a, 0x8a, 0x57, 0xbf,
  0x23, 0x0a, 0xdd, 0xbd, 0xca, 0x73, 0xc9, 0xbc, 0xb7, 0xbc, 0xb3, 0xbe,
  0x5a, 0xad, 0x23, 0xbd, 0xde, 0x7e, 0xcd, 0xbd, 0xbf, 0x10, 0x55, 0xbe,
  0x43, 0x67, 0x7b, 0xbc, 0x97, 0xf3, 0xa6, 0x3e, 0xbd, 0x43, 0xab, 0xbd,
  0xd4, 0x80, 0x58, 0xbd, 0xde, 0x52, 0x27, 0xbd, 0x00, 0x72, 0xc4, 0x3a,
  0x39, 0x9f, 0x4e, 0xbc, 0x00, 0xac, 0x1f, 0x3e, 0xe7, 0xcb, 0x3b, 0x3c,
  0x32, 0x6a, 0x3b, 0x3e, 0x72, 0x96, 0x12, 0xbe, 0x33, 0x4a, 0x2d, 0xbe,
  0xbf, 0xf9, 0x09, 0x3f, 0x28, 0x29, 0x57, 0xbe, 0xde, 0x31, 0x0b, 0xbf,
  0xd0, 0x9b, 0xc0, 0xbe, 0x3e, 0x76, 0x61, 0xbc, 0x58, 0xdb, 0xc9, 0xbe,
  0x1a, 0xa8, 0x07, 0xbf, 0x36, 0xdf, 0x28, 0xbc, 0xf9, 0x5c, 0x31, 0xbf,
  0xc6, 0xde, 0xff, 0xff, 0x10, 0x00, 0x00, 0x00, 0x08, 0x00, 0x00, 0x00,
  0x1c, 0x00, 0x00, 0x00, 0x38, 0x00, 0x00, 0x00, 0x04, 0x00, 0x00, 0x00,
  0x10, 0x00, 0x00, 0x00, 0x04, 0x00, 0x00, 0x00, 0x01, 0x00, 0x00, 0x00,
  0x08, 0x00, 0x00, 0x00, 0x1a, 0x00, 0x00, 0x00, 0x73, 0x65, 0x71, 0x75,
  0x65, 0x6e, 0x74, 0x69, 0x61, 0x6c, 0x2f, 0x63, 0x6f, 0x6e, 0x76, 0x32,
  0x64, 0x5f, 0x31, 0x2f, 0x43, 0x6f, 0x6e, 0x76, 0x32, 0x44, 0x00, 0x00,
  0xc0, 0xde, 0xff, 0xff, 0xb6, 0xdf, 0xff, 0xff, 0x04, 0x00, 0x00, 0x00,
  0x80, 0x01, 0x00, 0x00, 0x75, 0x5f, 0x4b, 0xbd, 0x0b, 0xe9, 0x19, 0xbe,
  0x22, 0x28, 0x31, 0xbd, 0x42, 0x50, 0x61, 0xbd, 0x21, 0xfe, 0x0b, 0x3e,
  0x06, 0xde, 0xad, 0xbc, 0x8f, 0x59, 0x4d, 0xbd, 0x76, 0x4f, 0xa8, 0x3d,
  0x0e, 0xb0, 0xae, 0xbd, 0x12, 0xae, 0xe1, 0xbc, 0x40, 0x56, 0xf1, 0x3c,
  0xf1, 0x03, 0xf4, 0xbd, 0x27, 0xa8, 0x76, 0x3e, 0x27, 0xd2, 0x90, 0xbc,
  0x7e, 0x5f, 0x8a, 0xbc, 0x80, 0xee, 0x41, 0x3e, 0x5f, 0x61, 0x04, 0xbb,
  0x15, 0x89, 0x4f, 0xbd, 0xb3, 0xb1, 0x0b, 0xbf, 0x11, 0x7c, 0x8e, 0xbd,
  0x70, 0xb0, 0x23, 0xbd, 0x41, 0xe9, 0x5e, 0x3e, 0x42, 0x35, 0xc3, 0xbd,
  0xef, 0x3f, 0xf7, 0xbd, 0x0d, 0x0c, 0x89, 0xbd, 0xf7, 0x7c, 0xcf, 0x3d,
  0x21, 0x7e, 0xa5, 0x3e, 0x0f, 0xd4, 0x44, 0x3e, 0xeb, 0x2b, 0x9e, 0x3b,
  0xa5, 0xe7, 0xe7, 0x3d, 0x50, 0x60, 0x5a, 0xbd, 0x62, 0xdf, 0x8a, 0xbe,
  0xe3, 0x31, 0xb5, 0xbe, 0x8a, 0x17, 0x71, 0xbd, 0x9e, 0xdd, 0x26, 0x3e,
  0x87, 0x05, 0xb6, 0xbd, 0x86, 0x66, 0xf3, 0xbd, 0x2f, 0x93, 0x39, 0xbd,
  0x39, 0x51, 0x9e, 0x3c, 0x3e, 0x5a, 0xeb, 0x3e, 0x4e, 0x29, 0x16, 0xbd,
  0x89, 0x9f, 0x18, 0x3d, 0xa0, 0xa7, 0x52, 0x3e, 0x61, 0xef, 0xd8, 0x3d,
  0xfc, 0x6a, 0x16, 0xbd, 0xbd, 0x30, 0x23, 0xbe, 0x5d, 0x34, 0xbb, 0x3d,
  0xba, 0x8f, 0xd8, 0xbd, 0xcc, 0x93, 0xbb, 0xbc, 0x24, 0x1f, 0xcc, 0xbb,
  0x57, 0x86, 0xc3, 0xbd, 0x28, 0x74, 0xb4, 0xbd, 0x37, 0x55, 0x11, 0xbe,
  0xfe, 0x04, 0x03, 0xbf, 0xac, 0x71, 0xb5, 0x3d, 0x93, 0x8e, 0x14, 0x3e,
  0x81, 0x3b, 0x28, 0x3e, 0x70, 0xf5, 0x80, 0xbc, 0xea, 0x1e, 0x95, 0x39,
  0x2f, 0x70, 0xcf, 0x3e, 0xff, 0xeb, 0xf6, 0x3c, 0xf1, 0x21, 0xe2, 0x3d,
  0x80, 0x74, 0x46, 0xbe, 0xdf, 0x5b, 0x4d, 0xbd, 0x27, 0xca, 0x15, 0x3e,
  0xaa, 0xed, 0x12, 0xbe, 0x1e, 0xae, 0x95, 0x3d, 0x23, 0xbc, 0x83, 0xbe,
  0x3c, 0x41, 0x09, 0x3d, 0x8b, 0x0f, 0xf9, 0x3c, 0xce, 0xde, 0x00, 0xbe,
  0xc0, 0x3e, 0xb1, 0x3d, 0xa4, 0x0c, 0x26, 0xbe, 0x19, 0xb4, 0xa3, 0xbd,
  0xdf, 0xa6, 0xf8, 0xbd, 0x03, 0x84, 0xf1, 0x3b, 0x54, 0x72, 0x36, 0xbc,
  0x35, 0x88, 0x84, 0xbd, 0x0b, 0x9e, 0x43, 0xbd, 0xf3, 0x77, 0x18, 0x3d,
  0x2d, 0x24, 0xf8, 0xbd, 0x9e, 0xdf, 0xf3, 0xbd, 0x2f, 0x25, 0xf0, 0xbc,
  0xed, 0xc7, 0x1c, 0xbe, 0x65, 0x61, 0x30, 0x3e, 0x43, 0x04, 0x91, 0x3e,
  0xfb, 0xbd, 0xb9, 0xbe, 0xe8, 0x57, 0x17, 0x3b, 0xa4, 0x51, 0x94, 0x3b,
  0xd1, 0x0b, 0x54, 0x3e, 0xc8, 0x34, 0x0a, 0xbe, 0x77, 0x74, 0xa9, 0xbe,
  0xe9, 0x40, 0xd9, 0x3d, 0x46, 0xe8, 0x0a, 0xbd, 0x36, 0x96, 0x25, 0xbd,
  0x52, 0xe8, 0xe1, 0x3c, 0x9e, 0xe0, 0xff, 0xff, 0x10, 0x00, 0x00, 0x00,
  0x07, 0x00, 0x00, 0x00, 0x1c, 0x00, 0x00, 0x00, 0x38, 0x00, 0x00, 0x00,
  0x04, 0x00, 0x00, 0x00, 0x08, 0x00, 0x00, 0x00, 0x04, 0x00, 0x00, 0x00,
  0x03, 0x00, 0x00, 0x00, 0x01, 0x00, 0x00, 0x00, 0x18, 0x00, 0x00, 0x00,
  0x73, 0x65, 0x71, 0x75, 0x65, 0x6e, 0x74, 0x69, 0x61, 0x6c, 0x2f, 0x63,
  0x6f, 0x6e, 0x76, 0x32, 0x64, 0x2f, 0x43, 0x6f, 0x6e, 0x76, 0x32, 0x44,
  0x00, 0x00, 0x00, 0x00, 0x98, 0xe0, 0xff, 0xff, 0x8e, 0xe1, 0xff, 0xff,
  0x04, 0x00, 0x00, 0x00, 0x00, 0x01, 0x00, 0x00, 0x9f, 0xaf, 0x26, 0x3e,
  0x7a, 0x7f, 0x0f, 0x3e, 0x07, 0x0f, 0xa3, 0x3e, 0xcd, 0x30, 0xae, 0x3e,
  0xf4, 0xc8, 0xd5, 0x3d, 0xeb, 0x26, 0xa3, 0x3e, 0x22, 0xb4, 0x3c, 0x3d,
  0xc5, 0xc2, 0x27, 0xbe, 0xe4, 0x68, 0xe3, 0x3e, 0x26, 0xfc, 0x00, 0x3f,
  0x1d, 0x45, 0xa1, 0xbe, 0x02, 0x66, 0xe9, 0xbe, 0x92, 0x28, 0x49, 0xbe,
  0xc1, 0x67, 0x58, 0x3e, 0x2a, 0x7f, 0x78, 0x3d, 0x57, 0x9c, 0x83, 0xbe,
  0x29, 0xa1, 0x17, 0x3e, 0x7a, 0x6e, 0xf4, 0x3d, 0x69, 0x98, 0x84, 0x3e,
  0x94, 0x32, 0xfa, 0xbe, 0x97, 0x9e, 0x6a, 0xba, 0xc0, 0x10, 0x95, 0x3e,
  0x09, 0x28, 0x4a, 0x3e, 0xce, 0xf0, 0x02, 0xbd, 0xf8, 0xab, 0xd5, 0xbd,
  0xa2, 0xa1, 0x69, 0xbd, 0x45, 0xfd, 0x2e, 0xbd, 0xe1, 0x6d, 0xac, 0xbe,
  0x02, 0x8f, 0xe1, 0xbd, 0xeb, 0x9e, 0x50, 0x3e, 0x0e, 0xab, 0xbf, 0xbd,
  0x8c, 0x89, 0x40, 0xbe, 0x61, 0xda, 0x8c, 0xbe, 0x9e, 0xda, 0x9c, 0x3d,
  0xdd, 0xf6, 0xa0, 0x3e, 0xd5, 0x49, 0x33, 0xbe, 0xeb, 0x87, 0x37, 0x3d,
  0xac, 0x4a, 0x13, 0x3e, 0xa8, 0xad, 0xe3, 0x3d, 0xc0, 0xed, 0x91, 0xbd,
  0x36, 0xb6, 0x5e, 0x3d, 0x22, 0x4c, 0xdc, 0xbc, 0xd0, 0x4d, 0xc9, 0xbe,
  0xcc, 0xe8, 0xad, 0xbe, 0xd6, 0x15, 0x00, 0x3c, 0xd6, 0x2d, 0x61, 0x3e,
  0x39, 0xb7, 0xbe, 0xbd, 0xd2, 0x05, 0x36, 0xbe, 0xcb, 0x4c, 0xb7, 0xbe,
  0xe9, 0xa3, 0xe6, 0x3c, 0xda, 0x8c, 0x1c, 0x3e, 0xd9, 0x9f, 0x28, 0xbf,
  0xfb, 0x31, 0x5a, 0x3c, 0xc5, 0xcc, 0x88, 0x3e, 0xbe, 0xff, 0x32, 0x3e,
  0x60, 0x28, 0xb2, 0xbd, 0xd8, 0x3e, 0x01, 0xbe, 0xe0, 0x0f, 0xfb, 0xb9,
  0xdd, 0x94, 0x00, 0xbe, 0x70, 0x41, 0xa0, 0xbe, 0x3b, 0x41, 0xf5, 0xbd,
  0x5a, 0xd3, 0x67, 0xbc, 0x1e, 0xd7, 0x7a, 0x3d, 0x33, 0xdc, 0x9a, 0xbe,
  0xf6, 0xe1, 0xff, 0xff, 0x10, 0x00, 0x00, 0x00, 0x06, 0x00, 0x00, 0x00,
  0x14, 0x00, 0x00, 0x00, 0x30, 0x00, 0x00, 0x00, 0x02, 0x00, 0x00, 0x00,
  0x04, 0x00, 0x00, 0x00, 0x10, 0x00, 0x00, 0x00, 0x19, 0x00, 0x00, 0x00,
  0x73, 0x65, 0x71, 0x75, 0x65, 0x6e, 0x74, 0x69, 0x61, 0x6c, 0x2f, 0x64,
  0x65, 0x6e, 0x73, 0x65, 0x5f, 0x31, 0x2f, 0x4d, 0x61, 0x74, 0x4d, 0x75,
  0x6c, 0x00, 0x00, 0x00, 0xe8, 0xe1, 0xff, 0xff, 0xde, 0xe2, 0xff, 0xff,
  0x04, 0x00, 0x00, 0x00, 0x00, 0x1c, 0x00, 0x00, 0x0b, 0x80, 0xc6, 0xbe,
  0x22, 0x4f, 0x5c, 0xbe, 0x09, 0xbc, 0x83, 0xbe, 0x9f, 0xbf, 0x85, 0xbe,
  0xef, 0x03, 0x95, 0x3c, 0xb9, 0xad, 0x3e, 0xbe, 0x8a, 0x05, 0x9f, 0xbe,
  0x0b, 0x2d, 0xb4, 0xbd, 0x18, 0xfe, 0xc0, 0xbc, 0x71, 0xa3, 0x7e, 0xbe,
  0x89, 0x6d, 0xa7, 0xbe, 0xa8, 0x42, 0x8c, 0x3f, 0xc7, 0xf4, 0xc8, 0xbd,
  0x62, 0x1b, 0x2b, 0xbe, 0x48, 0xb0, 0x0c, 0xbd, 0xa8, 0x14, 0x4e, 0x3e,
  0x25, 0xa8, 0x9b, 0xbe, 0xff, 0x9a, 0x70, 0x3d, 0xdc, 0x44, 0xaf, 0x3d,
  0xe7, 0x56, 0x9e, 0xbe, 0xcd, 0x25, 0xf1, 0xbc, 0xe8, 0x4d, 0x2d, 0xbd,
  0xa4, 0x2e, 0x7a, 0x3d, 0x4d, 0x60, 0xa6, 0x3d, 0x5a, 0x7c, 0x99, 0xbe,
  0x52, 0xc5, 0x89, 0xbe, 0x17, 0x51, 0x78, 0xbe, 0xab, 0x8b, 0xcc, 0x3f,
  0x94, 0x4f, 0xef, 0xbd, 0x58, 0x91, 0x47, 0xbe, 0xe1, 0x39, 0x80, 0xbe,
  0xa8, 0xbe, 0x71, 0x3e, 0x6b, 0xee, 0x88, 0xbe, 0xe8, 0x51, 0xb0, 0x3d,
  0xb9, 0xca, 0xba, 0xbd, 0xa7, 0x31, 0x64, 0xbe, 0x87, 0x30, 0x24, 0xbe,
  0xc0, 0x4c, 0x96, 0xbe, 0xd8, 0x35, 0x5f, 0xbe, 0x2f, 0x9e, 0xc0, 0xbe,
  0xff, 0x4a, 0x51, 0xbe, 0xd2, 0x77, 0x1c, 0xbd, 0x32, 0x8a, 0x8c, 0xbe,
  0xb3, 0x77, 0xb9, 0x3f, 0x91, 0x37, 0x85, 0xbe, 0x41, 0xeb, 0x09, 0xb9,
  0xb1, 0x7f, 0x36, 0x3e, 0x51, 0xd4, 0xfb, 0xbc, 0x53, 0x68, 0x67, 0xbe,
  0xb1, 0xc0, 0x0c, 0xbe, 0xe4, 0x0e, 0x43, 0xbd, 0xbb, 0x32, 0xdf, 0xbe,
  0xbd, 0x61, 0x27, 0x3d, 0xbe, 0x50, 0x85, 0xbe, 0x10, 0x90, 0xf2, 0xbd,
  0xcf, 0xdc, 0xca, 0xbb, 0x31, 0x35, 0x41, 0xbe, 0x6e, 0x4b, 0x80, 0xbe,
  0x36, 0xe4, 0xc5, 0x3d, 0xaf, 0x76, 0xb1, 0x3f, 0xa2, 0xcc, 0x91, 0x3e,
  0x26, 0x72, 0x19, 0xbe, 0x9b, 0x81, 0x09, 0xbe, 0xdb, 0xa0, 0x4d, 0x3e,
  0xbb, 0x39, 0xde, 0xbd, 0x3a, 0x8a, 0x33, 0xbe, 0x96, 0x1d, 0xa6, 0xbe,
  0xe0, 0x66, 0x9f, 0xbe, 0xab, 0x2a, 0xfe, 0xbd, 0xf8, 0x63, 0x19, 0xbd,
  0x4e, 0xa6, 0x92, 0x3d, 0xb6, 0xae, 0x2e, 0xbe, 0xfa, 0x68, 0xc3, 0x3d,
  0xe2, 0xd7, 0x0e, 0x3e, 0xbc, 0x86, 0x8f, 0xbe, 0x38, 0x41, 0xc0, 0x3f,
  0x4f, 0xff, 0x1a, 0xbc, 0x22, 0xc8, 0x89, 0xbe, 0xe1, 0x1c, 0x23, 0xbd,
  0x7a, 0x8c, 0xae, 0x3d, 0x24, 0x33, 0xa8, 0xbe, 0x62, 0x99, 0x03, 0x3e,
  0x4c, 0x26, 0xd3, 0xbd, 0x19, 0x6e, 0xac, 0xbe, 0x7a, 0xbf, 0xf2, 0xbd,
  0x74, 0xac, 0xb5, 0xbe, 0x65, 0xbc, 0x21, 0xbc, 0x5a, 0x50, 0x81, 0xbe,
  0xde, 0xaf, 0x86, 0xbe, 0x56, 0xed, 0x36, 0xbe, 0x40, 0x10, 0x59, 0xbe,
  0x20, 0x39, 0xc1, 0x3f, 0xb1, 0x55, 0xa4, 0x3e, 0x69, 0x18, 0x87, 0xbe,
  0xf1, 0x0a, 0xee, 0x3c, 0xc8, 0xd2, 0x93, 0x3c, 0x46, 0xcb, 0x97, 0xbe,
  0x51, 0x4d, 0xad, 0x3d, 0x04, 0x37, 0xdd, 0xbe, 0x2f, 0xe1, 0xb4, 0xbe,
  0xe9, 0xcd, 0x4c, 0xbe, 0xda, 0x40, 0xd2, 0xbe, 0x99, 0x43, 0x62, 0xbd,
  0x46, 0x02, 0x4b, 0xbe, 0x7c, 0xa8, 0x6d, 0x3c, 0xf7, 0xa8, 0x67, 0xbe,
  0x5a, 0x35, 0x09, 0x3b, 0x0c, 0xda, 0x8e, 0x3f, 0x92, 0x1b, 0xa9, 0xbe,
  0x40, 0x90, 0xcf, 0xbe, 0x7f, 0x53, 0x60, 0xbe, 0x1c, 0xe9, 0x9d, 0xbe,
  0x9e, 0x3d, 0xa0, 0x3d, 0xf6, 0x89, 0x2b, 0xbd, 0x78, 0xef, 0xeb, 0x3a,
  0x72, 0x06, 0xcc, 0xbc, 0x53, 0xf6, 0x2d, 0xbe, 0x4b, 0xd9, 0x1d, 0xbe,
  0x2e, 0x83, 0x26, 0x3e, 0xed, 0xe9, 0xb5, 0xbc, 0xc1, 0xb3, 0x5e, 0xbe,
  0xc1, 0xdf, 0x84, 0x3e, 0x2a, 0xb4, 0xc5, 0xbd, 0x0b, 0x75, 0xf3, 0xbe,
  0x07, 0x23, 0x8d, 0x3e, 0x95, 0x7e, 0xdb, 0xbc, 0x90, 0x0e, 0x86, 0x3e,
  0x02, 0x98, 0xa8, 0xbd, 0xee, 0x19, 0x7d, 0xb9, 0xc2, 0x92, 0x9a, 0x3d,
  0x19, 0x30, 0xde, 0x3e, 0x0d, 0xa3, 0x92, 0xbd, 0x58, 0x47, 0xdc, 0x3d,
  0x73, 0x0b, 0xe1, 0x3c, 0xdc, 0x1b, 0x9b, 0x3d, 0xf9, 0x1a, 0x7f, 0x3e,
  0x5c, 0x34, 0x28, 0xbe, 0x8f, 0xe4, 0xe5, 0x3e, 0x27, 0x75, 0x60, 0xbe,
  0x70, 0x68, 0x0c, 0xbf, 0x59, 0xe7, 0xd8, 0x3d, 0x73, 0x0f, 0x0b, 0x3e,
  0x58, 0x92, 0xd6, 0x3c, 0xe4, 0x12, 0x3a, 0x3f, 0xa9, 0x51, 0xd0, 0xbc,
  0x40, 0x08, 0x51, 0x3e, 0x61, 0x3d, 0x56, 0x3d, 0x1a, 0xf8, 0x85, 0xbd,
  0x38, 0xb6, 0x9f, 0x3e, 0x35, 0x45, 0x32, 0xbc, 0x91, 0x0f, 0x0a, 0xbd,
  0x6c, 0xa8, 0x40, 0x3c, 0x14, 0x88, 0xad, 0xbd, 0xe9, 0x7f, 0xc9, 0x3e,
  0x86, 0x8f, 0x35, 0xbd, 0xb3, 0x2e, 0x55, 0xbe, 0xb2, 0x5e, 0x96, 0x3d,
  0xc1, 0x67, 0x41, 0x3e, 0x99, 0xb4, 0xb9, 0x3c, 0x83, 0x24, 0xb6, 0x3e,
  0x98, 0x3a, 0xab, 0xbc, 0x9c, 0x4d, 0xdc, 0x3d, 0xb4, 0x72, 0x96, 0x3c,
  0xa1, 0xa6, 0x79, 0x3d, 0x51, 0x1c, 0x71, 0x3b, 0x97, 0xe8, 0x98, 0x3d,
  0x47, 0x1d, 0x3f, 0x3e, 0x77, 0x4f, 0xee, 0xbd, 0xc8, 0x2d, 0xdb, 0xbd,
  0x7b, 0x37, 0x18, 0x3e, 0x5c, 0xec, 0xdd, 0x3d, 0xd3, 0x7e, 0x6a, 0xbe,
  0x10, 0x07, 0x6a, 0xbc, 0x51, 0xea, 0x32, 0x3e, 0xe7, 0x82, 0x2e, 0xbc,
  0xde, 0xaf, 0x8c, 0x3e, 0xd8, 0x32, 0x99, 0xbc, 0xc9, 0x6c, 0x26, 0x3e,
  0x91, 0xa1, 0x5f, 0x3c, 0x11, 0x8f, 0x72, 0x3c, 0x2d, 0xdd, 0xb7, 0xbd,
  0xc4, 0xbc, 0xc2, 0x3c, 0xe2, 0x3b, 0x99, 0xbc, 0x06, 0xf7, 0x96, 0xbe,
  0x52, 0x30, 0x71, 0xbd, 0x17, 0x16, 0x46, 0x3e, 0x1d, 0x42, 0x51, 0xbe,
  0x0e, 0xc2, 0x4b, 0x3e, 0x42, 0xb5, 0xd1, 0x3d, 0x88, 0xff, 0x14, 0x3e,
  0x29, 0xc5, 0x3f, 0xbd, 0xcc, 0xda, 0x1a, 0x3d, 0x47, 0xc6, 0xb4, 0x3c,
  0xaa, 0x60, 0x44, 0x3e, 0x17, 0xc5, 0x8a, 0xbe, 0xff, 0x41, 0x23, 0x3d,
  0x14, 0x21, 0xca, 0xbe, 0x13, 0x23, 0x82, 0xbe, 0xff, 0xf5, 0xc1, 0x3d,
  0x74, 0x87, 0x9d, 0xbe, 0xe1, 0x88, 0x9d, 0xbe, 0x7d, 0x12, 0xcc, 0xbe,
  0x11, 0x77, 0x42, 0xbe, 0x4b, 0x09, 0x5a, 0xbd, 0x47, 0x46, 0x07, 0x3e,
  0x24, 0x97, 0x1c, 0x3e, 0x1f, 0x3b, 0xf4, 0xbe, 0xbc, 0x30, 0xf5, 0xbd,
  0x17, 0xfa, 0x93, 0xbc, 0xf5, 0x54, 0x61, 0x3e, 0x19, 0x29, 0xc2, 0xbd,
  0xf4, 0xf9, 0xe8, 0xbd, 0x9f, 0xa8, 0x64, 0xbe, 0x8a, 0xb9, 0x12, 0xbe,
  0x17, 0x74, 0x1a, 0xbd, 0x7a, 0xb0, 0x9a, 0xbe, 0xcd, 0x5a, 0x89, 0xbe,
  0x5f, 0x25, 0xa7, 0xbe, 0xc4, 0x77, 0x2d, 0xbe, 0xee, 0x4e, 0x8e, 0xbe,
  0xb9, 0x9c, 0x8b, 0xbc, 0x20, 0xec, 0x05, 0x3e, 0x7a, 0x02, 0x7a, 0x3d,
  0xd7, 0x85, 0x2d, 0x3e, 0xa5, 0xef, 0x36, 0x3d, 0x34, 0x2e, 0x3e, 0x3c,
  0x95, 0x47, 0x39, 0xbc, 0xb1, 0x76, 0x0f, 0xbd, 0xba, 0x86, 0x92, 0x3c,
  0xea, 0x01, 0xa1, 0x3c, 0x5f, 0x1a, 0x88, 0xbd, 0x11, 0x6f, 0x18, 0xbd,
  0xa0, 0x09, 0xb2, 0x3c, 0xe0, 0x88, 0x2c, 0x3d, 0x83, 0x1b, 0xd8, 0x3c,
  0x0e, 0xf8, 0x94, 0x3c, 0x51, 0x57, 0xaf, 0xbd, 0x28, 0x9e, 0x93, 0x3c,
  0xa3, 0x55, 0xba, 0xbe, 0xac, 0x24, 0x9d, 0x3e, 0x34, 0x50, 0x3f, 0xbc,
  0x62, 0x75, 0xc9, 0x3c, 0x6c, 0x00, 0x3e, 0xbe, 0x79, 0xd7, 0x82, 0x3c,
  0x44, 0x48, 0x1d, 0xbd, 0x53, 0x90, 0xb9, 0xbd, 0x8b, 0xcb, 0x17, 0x3d,
  0x24, 0xfa, 0xed, 0xbe, 0xf6, 0xcd, 0x46, 0xbc, 0x77, 0x12, 0x46, 0xbf,
  0x01, 0x31, 0xc0, 0x3d, 0xf1, 0xc6, 0x19, 0xbe, 0xfb, 0x3c, 0x08, 0x3d,
  0xa5, 0xa8, 0x4f, 0x3c, 0xd2, 0xbc, 0xf5, 0xbe, 0x60, 0x3a, 0xae, 0xbd,
  0xf7, 0xe8, 0x1a, 0xbd, 0xf7, 0xf0, 0x15, 0xbe, 0x65, 0x2a, 0x2e, 0xbe,
  0x06, 0xff, 0x14, 0xbd, 0xed, 0x0d, 0x28, 0xbe, 0xd7, 0x98, 0x91, 0xbe,
  0xba, 0x0e, 0x56, 0x3d, 0xf2, 0x76, 0xba, 0xbe, 0x1c, 0xcc, 0xf2, 0xbe,
  0x1d, 0xc0, 0x38, 0xbf, 0xd4, 0x1b, 0x93, 0x3c, 0xf2, 0xf0, 0x0c, 0xbe,
  0x4d, 0x48, 0x87, 0x3d, 0x71, 0x14, 0x19, 0xbe, 0xe9, 0x9d, 0x2a, 0xbe,
  0x5b, 0xa1, 0x8a, 0x3d, 0x46, 0x6d, 0xa8, 0x3c, 0xf4, 0xa2, 0x72, 0x3e,
  0x72, 0xf4, 0x8b, 0xbe, 0xa8, 0xdb, 0x5b, 0xbd, 0x87, 0x9c, 0xa7, 0xbd,
  0x88, 0x25, 0x06, 0xbe, 0xbe, 0x9d, 0x22, 0xbe, 0xc1, 0xf8, 0x2a, 0xbe,
  0xec, 0xbd, 0xac, 0xbe, 0x81, 0x8b, 0x83, 0xbb, 0x23, 0x26, 0x3d, 0xbe,
  0x63, 0x73, 0x82, 0xbe, 0xa3, 0x73, 0xb5, 0xbd, 0x72, 0x87, 0xc4, 0xbd,
  0x4c, 0xf6, 0xdc, 0x3e, 0x0d, 0x08, 0xde, 0x3e, 0xf8, 0x1c, 0x0f, 0xbd,
  0x82, 0xf0, 0x3d, 0x3d, 0xe5, 0x9e, 0xda, 0xbd, 0x94, 0x7e, 0xd7, 0xbc,
  0x34, 0xe7, 0xb8, 0x3d, 0x3a, 0x72, 0x65, 0xbd, 0x5d, 0x89, 0x16, 0xbe,
  0xda, 0x2a, 0x75, 0x3e, 0x07, 0xc2, 0x81, 0xbe, 0x72, 0x65, 0xb9, 0x3e,
  0x03, 0x12, 0x97, 0x3c, 0x34, 0x0f, 0xa4, 0x3d, 0xf8, 0x9c, 0xe9, 0xbd,
  0xf6, 0xc8, 0x9d, 0xbd, 0x43, 0xef, 0xfd, 0x3e, 0x8f, 0xc3, 0x58, 0x3f,
  0xd2, 0xd2, 0xf1, 0x3d, 0x90, 0x7c, 0x38, 0xbe, 0xb0, 0xd5, 0x55, 0x3e,
  0x14, 0x04, 0x6e, 0xbc, 0x7b, 0x07, 0x2b, 0x3e, 0xb8, 0xa1, 0xad, 0x3d,
  0x81, 0x19, 0x96, 0xbd, 0xd2, 0x6c, 0x80, 0x3e, 0x8b, 0x54, 0x53, 0xbe,
  0x27, 0x4e, 0xf6, 0x3e, 0x98, 0x55, 0xde, 0xbb, 0x7c, 0x3f, 0x97, 0xbe,
  0xda, 0xb8, 0x2d, 0xbd, 0x87, 0x73, 0xde, 0x3b, 0x05, 0xd9, 0x89, 0x3e,
  0xec, 0x23, 0x07, 0x3f, 0x8e, 0xb6, 0xd6, 0xbc, 0x2f, 0x89, 0x64, 0xbe,
  0xf2, 0xde, 0x0e, 0xbc, 0xb0, 0xc2, 0xe5, 0xbd, 0xd0, 0xb1, 0x20, 0xbd,
  0xc4, 0xbf, 0xc4, 0xba, 0x1d, 0x6e, 0x63, 0xbc, 0xa2, 0x80, 0xa7, 0x3e,
  0xe0, 0x25, 0x44, 0x3d, 0x54, 0x10, 0xc4, 0x3e, 0xe9, 0x12, 0xa9, 0x3c,
  0x88, 0x38, 0x55, 0xbf, 0x1d, 0xc3, 0x93, 0xbb, 0xb3, 0xe5, 0x87, 0x3d,
  0xb4, 0x94, 0x85, 0x3e, 0xc2, 0xa1, 0x2e, 0x3e, 0x0c, 0x5b, 0x26, 0xbe,
  0xb8, 0x39, 0x63, 0xbe, 0x74, 0xd0, 0x5f, 0xbe, 0x6f, 0x9b, 0x83, 0xbe,
  0x17, 0xa0, 0xaf, 0xbe, 0x2c, 0x74, 0xac, 0xbd, 0xa4, 0x69, 0x35, 0xbe,
  0x49, 0xfd, 0x2c, 0xbe, 0x4e, 0xf8, 0x19, 0xbe, 0x82, 0x9f, 0x42, 0xbb,
  0x96, 0x52, 0x47, 0xbc, 0xe4, 0xe7, 0x9e, 0x3f, 0xf8, 0x00, 0x25, 0xbe,
  0x8a, 0xa7, 0x8f, 0xbd, 0xcd, 0x45, 0x85, 0x3d, 0x74, 0x28, 0x29, 0x3e,
  0xd6, 0x55, 0x3f, 0xbe, 0x22, 0x47, 0x0c, 0x3e, 0xec, 0x4e, 0x48, 0xbe,
  0xd4, 0x06, 0x3e, 0xbe, 0xaa, 0x33, 0x13, 0xbe, 0xea, 0x29, 0x8e, 0xbe,
  0xdc, 0xc7, 0x9e, 0x3d, 0x70, 0xf0, 0x8c, 0x3d, 0x53, 0xb9, 0x5c, 0xbd,
  0xae, 0x91, 0x2e, 0x3d, 0x07, 0xdb, 0xc6, 0xbc, 0xa9, 0x94, 0xcb, 0x3f,
  0x5e, 0x6c, 0x1b, 0xbe, 0x03, 0x01, 0x70, 0xbe, 0x1a, 0x91, 0x54, 0xbe,
  0x5e, 0xa8, 0x2e, 0xbb, 0xd1, 0x46, 0x4e, 0xbe, 0xda, 0x0b, 0x86, 0xbe,
  0x59, 0xf5, 0x30, 0xbe, 0xae, 0x0e, 0x64, 0xbe, 0x64, 0x60, 0x04, 0xbe,
  0x1a, 0x33, 0xa4, 0xbe, 0x8b, 0x70, 0x34, 0xbe, 0x6c, 0x63, 0x5b, 0xbe,
  0x07, 0x2b, 0x9c, 0x3d, 0x2e, 0xd5, 0x6b, 0xbe, 0x2d, 0xb9, 0x2e, 0xbe,
  0x74, 0x85, 0xcc, 0x3f, 0x63, 0xf5, 0x36, 0xb9, 0x98, 0xe0, 0x2f, 0xbe,
  0xf7, 0x3d, 0xd1, 0x3d, 0x61, 0x46, 0x93, 0x3e, 0x4e, 0xc4, 0xb4, 0xbd,
  0x04, 0xfa, 0x22, 0xbe, 0xc8, 0xe3, 0xa5, 0xbc, 0xad, 0xb6, 0x69, 0xbe,
  0xe1, 0xad, 0x49, 0xbe, 0x23, 0x9a, 0x34, 0xbe, 0xcc, 0x6a, 0x60, 0xbe,
  0xda, 0x48, 0xe8, 0xbc, 0x24, 0x86, 0x1d, 0xbe, 0xe6, 0x2c, 0x7a, 0xbe,
  0x1c, 0x12, 0xbb, 0x3c, 0x62, 0x1c, 0xb9, 0x3f, 0xfe, 0x02, 0xc3, 0x3d,
  0xf3, 0x19, 0x0e, 0xbe, 0x4f, 0xbb, 0xd9, 0x3d, 0xb8, 0x01, 0xab, 0x3d,
  0x41, 0x97, 0x9f, 0xbd, 0x7d, 0x77, 0x70, 0xbe, 0xf6, 0x64, 0x6b, 0xbe,
  0xd3, 0x1a, 0x6b, 0xbe, 0xed, 0x86, 0xcd, 0x3c, 0x39, 0x02, 0x5e, 0xbe,
  0xa0, 0x74, 0x35, 0x3e, 0xbe, 0xc3, 0x25, 0xbe, 0x9a, 0x46, 0x07, 0x3d,
  0x86, 0x09, 0x08, 0x3e, 0x87, 0xce, 0xbc, 0xbd, 0x41, 0x2a, 0xab, 0x3f,
  0xb2, 0xbc, 0xb6, 0xbc, 0x9a, 0x9e, 0x1c, 0xbe, 0xdd, 0x86, 0xf6, 0xbd,
  0xdb, 0x1b, 0x43, 0x3c, 0x77, 0x4f, 0x55, 0xbe, 0x20, 0xc9, 0x40, 0xbd,
  0x63, 0x48, 0x79, 0xbe, 0xae, 0x62, 0x2b, 0xbe, 0x48, 0xc3, 0xa5, 0xbd,
  0x9a, 0x06, 0x0d, 0xbe, 0x40, 0xf9, 0x64, 0xbe, 0x09, 0x2b, 0x55, 0xbe,
  0xf2, 0x05, 0x80, 0x3d, 0xe0, 0x02, 0xf1, 0xbd, 0xf7, 0x53, 0x94, 0x3d,
  0xe1, 0x1c, 0x73, 0x3f, 0xc6, 0x82, 0x87, 0x3d, 0x94, 0x0c, 0xda, 0xbd,
  0x19, 0x16, 0xa1, 0xbe, 0x4d, 0x04, 0xfa, 0xbd, 0x92, 0x72, 0x04, 0xbe,
  0x94, 0xae, 0x4a, 0xbe, 0x49, 0x50, 0x7e, 0xbe, 0xbd, 0xaf, 0x5c, 0xbe,
  0x05, 0x6d, 0x31, 0xbe, 0x2d, 0x5c, 0x69, 0xbe, 0xb4, 0x2c, 0x05, 0xbe,
  0x62, 0x01, 0x82, 0xbe, 0x5b, 0x07, 0x8f, 0xbe, 0x9a, 0xc8, 0x5b, 0xbe,
  0x2b, 0x18, 0x47, 0xbe, 0x49, 0x55, 0x18, 0x3f, 0x93, 0xb1, 0x86, 0xbe,
  0xcf, 0xe7, 0xa2, 0xbe, 0xae, 0x99, 0x15, 0xbe, 0x67, 0x18, 0x4f, 0xbc,
  0x09, 0x97, 0x39, 0x3d, 0xfd, 0x62, 0x85, 0xbe, 0x18, 0x23, 0xe3, 0xbd,
  0x27, 0x9a, 0x41, 0xbc, 0xd0, 0xf0, 0x43, 0xbe, 0xa0, 0x0b, 0x83, 0xbd,
  0x18, 0xb6, 0xea, 0xbd, 0xca, 0x36, 0x8a, 0x3d, 0x45, 0x2c, 0x0a, 0xbe,
  0xa5, 0x0b, 0x5f, 0x3e, 0xd6, 0x76, 0xb2, 0xbd, 0x4e, 0x57, 0x27, 0x3e,
  0xb7, 0xa3, 0x32, 0xbe, 0xd8, 0x57, 0x5b, 0xbd, 0x7e, 0xca, 0xe6, 0x3e,
  0xb0, 0x4b, 0x57, 0xbd, 0xf9, 0xa9, 0xba, 0xbd, 0x22, 0x93, 0x00, 0x3e,
  0x09, 0xd8, 0x90, 0x3e, 0x6e, 0x0b, 0x69, 0x3e, 0x87, 0x06, 0x70, 0x3d,
  0xe6, 0xc7, 0x0d, 0x3e, 0xc2, 0x30, 0xc2, 0x3b, 0x02, 0x7e, 0xb1, 0x3e,
  0x38, 0x01, 0x22, 0xbe, 0x07, 0x8b, 0xd2, 0x3e, 0xb1, 0xc7, 0x52, 0x3d,
  0x57, 0xa4, 0x2d, 0x3f, 0x59, 0x33, 0xda, 0xba, 0x06, 0x50, 0xd1, 0x3d,
  0xc0, 0x1f, 0x36, 0x3e, 0xf1, 0xdd, 0xeb, 0x3e, 0x86, 0x49, 0x40, 0xbe,
  0x7d, 0x33, 0x7a, 0x3c, 0x2e, 0x83, 0x9a, 0x3e, 0x83, 0xc1, 0x51, 0xbd,
  0x4e, 0xee, 0xac, 0x3d, 0x3a, 0x59, 0x2e, 0x3d, 0xd9, 0xa3, 0x60, 0xbe,
  0x0f, 0xf7, 0x30, 0x3c, 0xb1, 0x29, 0x0c, 0xbe, 0xaa, 0xf2, 0x5a, 0x3e,
  0x14, 0xa5, 0xab, 0x3d, 0x6f, 0xcf, 0x1d, 0x3f, 0x69, 0xc9, 0xc2, 0x3d,
  0xbf, 0x96, 0x89, 0x3e, 0xee, 0xb6, 0x13, 0x3e, 0xfe, 0x4d, 0x64, 0x3e,
  0x32, 0xd3, 0xa9, 0x3c, 0xe4, 0x09, 0xa4, 0x3c, 0xa3, 0x24, 0xc4, 0xbc,
  0x4b, 0x94, 0x85, 0xbd, 0x49, 0x06, 0xe9, 0x3d, 0x89, 0x4f, 0xc9, 0xbd,
  0xf3, 0x5e, 0x8c, 0xbe, 0x49, 0x36, 0x13, 0xbd, 0x93, 0x55, 0x3f, 0xbe,
  0x13, 0xd4, 0x0a, 0x3e, 0xe2, 0x55, 0xe5, 0x3d, 0x1f, 0x8d, 0x0c, 0x3f,
  0x50, 0x66, 0x86, 0xbd, 0xd2, 0x15, 0x81, 0x3c, 0xcc, 0x75, 0x03, 0xbd,
  0x5f, 0xe7, 0xc2, 0x3e, 0x92, 0x4d, 0x31, 0x3d, 0x31, 0x33, 0xf7, 0x3d,
  0x37, 0x20, 0x14, 0xbe, 0x1b, 0x5f, 0x1d, 0xbe, 0xd8, 0xd8, 0x78, 0x3d,
  0x68, 0x4e, 0x1c, 0xbd, 0x59, 0xbf, 0x17, 0xbd, 0x93, 0x6b, 0x85, 0xbe,
  0xd1, 0x3c, 0x71, 0xbe, 0xf5, 0x78, 0x0b, 0xbe, 0xd0, 0xd5, 0xff, 0xbc,
  0xac, 0xd0, 0x02, 0x3f, 0x0d, 0x5b, 0x65, 0xbe, 0x68, 0x08, 0xa0, 0xbe,
  0x7d, 0x91, 0x3e, 0xbe, 0x29, 0x2b, 0x75, 0x3d, 0x70, 0xc0, 0x06, 0xbe,
  0x8e, 0x51, 0x86, 0xbd, 0x02, 0x07, 0xc6, 0xbd, 0xaf, 0x77, 0x06, 0xbe,
  0xc6, 0xc4, 0x98, 0xbd, 0x37, 0x31, 0x24, 0xbe, 0x44, 0xa0, 0x03, 0x3d,
  0xac, 0x4c, 0x2b, 0xbe, 0x64, 0xdd, 0xa2, 0xbc, 0xa6, 0x78, 0x66, 0xbe,
  0x28, 0x64, 0x4d, 0xbe, 0x1b, 0x08, 0x05, 0x3f, 0xf2, 0xcf, 0x97, 0xbd,
  0x48, 0x26, 0xd9, 0xbe, 0x4e, 0xb1, 0x5b, 0xbd, 0xcf, 0xc5, 0x43, 0x3d,
  0xc0, 0x4d, 0x60, 0xbe, 0x01, 0x60, 0x96, 0xbe, 0x82, 0x4c, 0x18, 0xbd,
  0xee, 0xa9, 0x6c, 0x3b, 0xd2, 0x1a, 0x24, 0x3e, 0x5a, 0x17, 0xec, 0xbd,
  0x44, 0x40, 0xf9, 0xbd, 0x34, 0xa7, 0xcb, 0xbe, 0x1e, 0x21, 0xe2, 0xbd,
  0x0a, 0x54, 0xc5, 0xbe, 0xdd, 0xb1, 0x6b, 0x3d, 0x1a, 0xa9, 0x6f, 0x3e,
  0x01, 0x8d, 0x05, 0xbf, 0x74, 0x4c, 0x80, 0xbe, 0xbb, 0x8a, 0x0a, 0xbe,
  0xa2, 0x51, 0x2e, 0xbd, 0x2e, 0x9f, 0x39, 0x3e, 0x0b, 0x9f, 0x1f, 0x3d,
  0xbb, 0x40, 0x93, 0xbb, 0x9a, 0xc5, 0x59, 0x3d, 0xd5, 0x40, 0xa0, 0xbe,
  0x17, 0xd8, 0x90, 0xbd, 0x00, 0x7d, 0x0e, 0x3d, 0x3d, 0x15, 0xf9, 0xbb,
  0x3e, 0x00, 0x0b, 0xbe, 0x3e, 0x22, 0x2f, 0x3c, 0x0a, 0xb9, 0x6f, 0xbe,
  0xbc, 0x1c, 0xa2, 0x3d, 0x65, 0xe7, 0xc5, 0x3d, 0x6d, 0x9f, 0x38, 0xbd,
  0xf3, 0xf0, 0x82, 0x3e, 0x0f, 0x45, 0x9e, 0xbd, 0x09, 0x0d, 0xb0, 0x3d,
  0x09, 0x93, 0xa4, 0xbc, 0xd8, 0xc3, 0x2d, 0x3e, 0x25, 0x69, 0x14, 0xbd,
  0x62, 0xe2, 0x40, 0x3d, 0xde, 0x36, 0x2d, 0x3c, 0xc1, 0xd1, 0x01, 0xbd,
  0xf5, 0x04, 0x5a, 0x3e, 0xff, 0x06, 0x3b, 0xbd, 0x7f, 0xcf, 0xdd, 0x3e,
  0xdf, 0x6e, 0xbe, 0xbd, 0x9d, 0xa4, 0xc0, 0x3e, 0xa9, 0x59, 0x0d, 0xbe,
  0x11, 0xa6, 0xe4, 0xbd, 0x06, 0x0e, 0xc5, 0x3d, 0xc6, 0x51, 0x15, 0x3f,
  0xf0, 0xe5, 0x9a, 0x3c, 0xde, 0xec, 0x95, 0x3e, 0x83, 0xa5, 0xa7, 0x3c,
  0x31, 0xfa, 0x2a, 0xbd, 0x21, 0xe1, 0x43, 0x3e, 0x38, 0xab, 0x5d, 0x3d,
  0xc3, 0x24, 0x0e, 0xbe, 0x5b, 0xc7, 0x2e, 0xbe, 0x45, 0x2f, 0x20, 0xbd,
  0x8e, 0x6a, 0x85, 0x3e, 0xdd, 0xbf, 0xeb, 0x3d, 0xe7, 0x16, 0x1a, 0x3e,
  0xd5, 0x13, 0xaa, 0x3d, 0x19, 0xbc, 0xfc, 0x3d, 0xb9, 0xa3, 0xab, 0x3e,
  0x4b, 0x6b, 0xf7, 0x3e, 0x5f, 0xca, 0x51, 0x3e, 0xc2, 0x1b, 0x98, 0x3d,
  0x1d, 0x51, 0x60, 0xbe, 0x3a, 0x7e, 0x87, 0xbc, 0x67, 0xf8, 0xae, 0xbb,
  0xa2, 0x34, 0xe8, 0xbc, 0xc6, 0x57, 0x98, 0xbd, 0x58, 0x7c, 0x8f, 0xbe,
  0x83, 0x59, 0x87, 0xbd, 0x82, 0x57, 0xd8, 0x3e, 0x0b, 0xfd, 0x73, 0xbd,
  0x65, 0xaf, 0x30, 0x3f, 0x3f, 0x6e, 0x89, 0xbd, 0xb5, 0xc9, 0x1c, 0x3e,
  0x4b, 0x4e, 0x80, 0x3e, 0xd3, 0x8e, 0x17, 0x3f, 0xf0, 0xcc, 0x81, 0xbd,
  0xeb, 0x8e, 0x8e, 0x3b, 0xf2, 0xa0, 0x26, 0xbe, 0xf2, 0xde, 0x71, 0xbc,
  0x97, 0x34, 0xfb, 0xbd, 0x04, 0x34, 0xe3, 0xbc, 0x90, 0xa1, 0xbc, 0xbb,
  0xf7, 0xd5, 0x1c, 0x3d, 0x6d, 0x49, 0xd0, 0xbd, 0xb1, 0xe5, 0xc0, 0x3e,
  0x61, 0x7e, 0xd2, 0xbd, 0xc8, 0xae, 0x30, 0x3e, 0x5a, 0xa8, 0x5d, 0x3c,
  0xa7, 0x21, 0xc6, 0xbb, 0xbf, 0x19, 0xac, 0x3e, 0x78, 0x30, 0xff, 0x3e,
  0xf5, 0x06, 0xb0, 0xbc, 0x41, 0xee, 0x86, 0xbc, 0x16, 0x1f, 0x54, 0x3e,
  0xb7, 0x9a, 0x02, 0xbd, 0xde, 0x71, 0xff, 0xbd, 0x42, 0x8d, 0xe8, 0xbc,
  0x4f, 0xe7, 0xc3, 0xbc, 0xb6, 0xa2, 0x44, 0x3e, 0xee, 0x92, 0x7d, 0xbd,
  0xb2, 0xa1, 0xd5, 0x3e, 0x72, 0x26, 0xa9, 0xbd, 0x56, 0xee, 0xc5, 0x3d,
  0x49, 0x40, 0xaf, 0xbc, 0xd9, 0x57, 0xf1, 0x3b, 0xaa, 0x26, 0xb1, 0x3e,
  0x81, 0x29, 0x81, 0x3e, 0xfe, 0xe9, 0x6f, 0xbd, 0x6c, 0x8d, 0x8f, 0x3c,
  0x2c, 0x13, 0xb2, 0x3d, 0xb7, 0x68, 0x1a, 0xbe, 0x02, 0xd4, 0xb8, 0xbd,
  0x6b, 0xe1, 0xa2, 0xbc, 0x79, 0x28, 0x5e, 0x3b, 0x5a, 0x43, 0xc8, 0x3d,
  0x4b, 0xfb, 0xc2, 0xbd, 0x05, 0x0a, 0x0f, 0x3e, 0x7b, 0x7f, 0x4b, 0xbe,
  0x14, 0xef, 0x0f, 0xbf, 0xf2, 0x71, 0x43, 0x3d, 0x5e, 0x53, 0xf8, 0x3c,
  0xfe, 0xb7, 0x99, 0x3d, 0xcf, 0xc5, 0x3d, 0xbd, 0x3d, 0xa6, 0x48, 0xbe,
  0x37, 0x57, 0xad, 0x3e, 0x87, 0x7b, 0xc0, 0xbe, 0x8a, 0x3e, 0xe0, 0x3c,
  0x50, 0xf7, 0xa6, 0xbe, 0x50, 0x2e, 0x8c, 0xbe, 0x39, 0x5f, 0x57, 0x3e,
  0x5e, 0x53, 0xf6, 0xbe, 0xb9, 0x16, 0x55, 0xbe, 0xf6, 0x70, 0x8f, 0xbe,
  0x0e, 0x84, 0x2e, 0xbe, 0x4e, 0xd8, 0xcb, 0xbd, 0xd5, 0x4a, 0x2b, 0x3e,
  0xb8, 0x90, 0x3c, 0xbd, 0xf3, 0xd5, 0xd2, 0xbe, 0x4b, 0xb4, 0x28, 0x3d,
  0x45, 0xfa, 0x8e, 0xbd, 0x32, 0x4c, 0x83, 0x3e, 0x94, 0xb6, 0x82, 0x3e,
  0x66, 0xb4, 0xda, 0xbc, 0x46, 0x31, 0x3a, 0xbe, 0x71, 0x5c, 0x7d, 0xbd,
  0x74, 0x22, 0x23, 0x3e, 0x5a, 0x89, 0x77, 0xbe, 0x10, 0x80, 0x41, 0xbb,
  0x33, 0x5a, 0x49, 0xbe, 0x80, 0x02, 0xe8, 0xbd, 0x44, 0xbc, 0x69, 0xbe,
  0x40, 0xa9, 0x26, 0x3e, 0x24, 0x5d, 0x99, 0x3e, 0xbd, 0xbc, 0xad, 0xbd,
  0x0c, 0x75, 0x93, 0xbe, 0x62, 0xd2, 0x96, 0xbc, 0x8a, 0xc9, 0xad, 0xbc,
  0x6b, 0x99, 0x19, 0xbe, 0xa3, 0x8c, 0x35, 0x3c, 0x89, 0xeb, 0xe5, 0x3d,
  0xf7, 0x10, 0x17, 0xbe, 0x23, 0xa1, 0x27, 0x3b, 0xd2, 0xe7, 0xd8, 0xbe,
  0x83, 0x70, 0x2f, 0xbd, 0x77, 0x38, 0x54, 0xbe, 0x3e, 0x8a, 0x4d, 0xbd,
  0x6a, 0x22, 0x35, 0xbe, 0xc5, 0xf9, 0x8b, 0x3e, 0x8b, 0x55, 0xe2, 0x3e,
  0xe9, 0x9a, 0xb5, 0xbe, 0xc5, 0x06, 0x8c, 0x3e, 0x5b, 0xbe, 0xb6, 0xbd,
  0x56, 0xf0, 0x14, 0xbe, 0xe5, 0xa7, 0x79, 0x3c, 0x5d, 0x31, 0x5c, 0x3d,
  0x86, 0x8b, 0x05, 0xbc, 0x8d, 0x89, 0xfb, 0x3c, 0xdc, 0x6b, 0x6a, 0x3e,
  0xd5, 0x13, 0x6e, 0xbc, 0x04, 0x46, 0xe7, 0xbc, 0xf5, 0xbc, 0x04, 0xbf,
  0x58, 0xef, 0xc0, 0x3d, 0xa6, 0x82, 0x7c, 0xbe, 0xa0, 0xf4, 0xf3, 0x3e,
  0xef, 0x23, 0x06, 0x3f, 0xeb, 0x99, 0xa9, 0xbe, 0xeb, 0xcc, 0xbf, 0x3d,
  0x9f, 0x39, 0x86, 0xbd, 0xc9, 0xc0, 0x3e, 0x3e, 0xbe, 0x5f, 0xb6, 0x3c,
  0x73, 0xe8, 0x4d, 0x3d, 0xef, 0xc6, 0x26, 0xbe, 0x40, 0xe9, 0xa1, 0xbe,
  0x5a, 0x03, 0x9d, 0x3e, 0xb7, 0x40, 0xb2, 0xbe, 0x0b, 0x1b, 0x66, 0xbe,
  0xd7, 0x4e, 0x61, 0xbe, 0x8e, 0xd9, 0x0a, 0xbc, 0xcc, 0x88, 0x84, 0xbe,
  0xc1, 0xb2, 0xce, 0x3e, 0xa8, 0x51, 0x48, 0x3d, 0x25, 0x9e, 0xf6, 0xbe,
  0x9c, 0x4c, 0x3a, 0xbe, 0x27, 0xf9, 0x3d, 0xbd, 0x6d, 0x95, 0x70, 0x3e,
  0x69, 0x1e, 0x63, 0xbd, 0x01, 0x77, 0x45, 0x3d, 0xd7, 0xef, 0x4b, 0xbe,
  0x42, 0x2d, 0x64, 0xbe, 0xde, 0x0c, 0x71, 0x3e, 0x26, 0x9f, 0x4c, 0xbe,
  0xac, 0x8f, 0x1a, 0xbe, 0xac, 0xb4, 0x2e, 0xbe, 0xbb, 0x57, 0xea, 0xbd,
  0x70, 0x61, 0xde, 0xbd, 0xda, 0xbe, 0xa1, 0x3e, 0x8d, 0x7a, 0xf5, 0x3c,
  0x27, 0xa4, 0x84, 0xbe, 0xed, 0xba, 0x2e, 0x3e, 0xfb, 0x96, 0x83, 0x3d,
  0xfc, 0x19, 0xe6, 0x3d, 0x63, 0xc5, 0x2b, 0x3e, 0x08, 0x01, 0x89, 0x3c,
  0xcc, 0xb1, 0x6c, 0xbd, 0x0f, 0xa2, 0x15, 0xbe, 0x5e, 0xee, 0x82, 0x3d,
  0xbb, 0x88, 0x21, 0xbd, 0x33, 0x0f, 0x78, 0xbd, 0x19, 0x3b, 0xe6, 0xbd,
  0xfd, 0x71, 0xb8, 0xbd, 0x28, 0xa8, 0x03, 0x3e, 0x57, 0x68, 0x5c, 0x3d,
  0xf4, 0x74, 0x62, 0x3c, 0xca, 0x59, 0xbb, 0x3c, 0x19, 0x76, 0x7a, 0xbe,
  0xaa, 0x12, 0x70, 0xbe, 0x3b, 0xe2, 0x2e, 0x3e, 0x9f, 0x9d, 0x63, 0xbe,
  0x2b, 0x8f, 0xb1, 0xbd, 0x7c, 0x3f, 0x0b, 0xbe, 0xd9, 0xed, 0x47, 0xbe,
  0x71, 0xb4, 0x7e, 0x3e, 0xa9, 0x9f, 0x8a, 0xbe, 0xcf, 0x1c, 0xf0, 0xbd,
  0x98, 0x0f, 0x78, 0xbe, 0x6a, 0x39, 0x90, 0xbd, 0x2e, 0xd6, 0xbf, 0x3d,
  0x09, 0x40, 0x4d, 0x3e, 0xb9, 0x80, 0x18, 0xbd, 0x93, 0x55, 0x57, 0x3d,
  0x77, 0x75, 0xfe, 0xbd, 0x99, 0x14, 0x93, 0xbe, 0x32, 0xfb, 0x89, 0x3e,
  0xae, 0x80, 0x98, 0x3d, 0x2a, 0xf9, 0x5d, 0xbd, 0xd3, 0x6f, 0xfb, 0x3d,
  0x36, 0x0d, 0x63, 0xbe, 0x98, 0x8f, 0x38, 0x3e, 0x48, 0x3d, 0x23, 0xbc,
  0xd4, 0x8f, 0x1d, 0xbe, 0x22, 0x65, 0x5b, 0xbe, 0xcd, 0xc7, 0x62, 0x3c,
  0x93, 0x17, 0x66, 0xbe, 0xb0, 0xcf, 0x05, 0x3e, 0x79, 0x02, 0x24, 0x3e,
  0x23, 0x4f, 0x3a, 0x3d, 0xa3, 0xce, 0xea, 0xbd, 0x5f, 0x05, 0x69, 0x3e,
  0x35, 0x90, 0x87, 0xbc, 0xdc, 0x0b, 0xb3, 0xbe, 0x97, 0x7d, 0x32, 0xbc,
  0xaa, 0x88, 0x57, 0x3d, 0xaa, 0x41, 0x96, 0xbe, 0x90, 0xa7, 0x0d, 0x3e,
  0xec, 0x3c, 0x34, 0xbe, 0x5a, 0x43, 0xff, 0xbd, 0x96, 0xb1, 0xb9, 0xbd,
  0xce, 0x00, 0x88, 0x3e, 0xa7, 0x4a, 0x13, 0xbe, 0xec, 0x45, 0xe5, 0x3d,
  0x50, 0xe9, 0x85, 0x3e, 0xb9, 0xc3, 0x0f, 0xbe, 0xd3, 0xa2, 0x11, 0x3e,
  0x8b, 0x65, 0xee, 0xbd, 0x9e, 0xf4, 0xbe, 0x3e, 0xba, 0xe9, 0x5b, 0xbe,
  0xfb, 0xfa, 0xa1, 0x3b, 0x38, 0x28, 0x89, 0xbc, 0x2e, 0x9e, 0x2e, 0xbe,
  0x74, 0x36, 0x36, 0x3e, 0x80, 0xf8, 0x64, 0xbe, 0xcc, 0x82, 0x08, 0xbe,
  0xb7, 0x68, 0x20, 0xbe, 0x82, 0x9b, 0x5a, 0x3e, 0x30, 0x45, 0x95, 0xbe,
  0x61, 0x54, 0x45, 0x3e, 0xe7, 0xf4, 0x86, 0x3e, 0x8e, 0x40, 0x62, 0x3e,
  0x4c, 0x3d, 0x2d, 0x3d, 0xd5, 0x50, 0xc9, 0x3b, 0x21, 0xcb, 0x9e, 0x3e,
  0x90, 0xcb, 0xa5, 0x3b, 0xf3, 0x32, 0x94, 0x3d, 0x1e, 0x64, 0x26, 0xbe,
  0xa3, 0x5d, 0x6b, 0xbe, 0xd5, 0x49, 0x80, 0x3e, 0x5b, 0x82, 0x5b, 0xbe,
  0xb9, 0x1b, 0xaf, 0xbe, 0xa4, 0x3d, 0x54, 0xbe, 0x8b, 0x8a, 0x89, 0x3b,
  0xef, 0x3e, 0x29, 0xbd, 0x81, 0xb8, 0xd1, 0x3e, 0xc0, 0xd8, 0x32, 0x3e,
  0x17, 0x07, 0x04, 0xbe, 0xcf, 0xab, 0x74, 0xbe, 0x95, 0xf1, 0x86, 0x3c,
  0x4c, 0x24, 0x0b, 0x3e, 0xa2, 0x71, 0xab, 0x3d, 0x9b, 0x53, 0xe4, 0xbd,
  0xc3, 0x11, 0x00, 0xbd, 0x31, 0xe0, 0x99, 0xbe, 0x26, 0x73, 0xc5, 0x3e,
  0xd3, 0x85, 0x80, 0x3d, 0xfc, 0xd5, 0x55, 0xbe, 0xe4, 0x9b, 0x2c, 0xbe,
  0xc8, 0x46, 0x49, 0xbe, 0xe5, 0xc7, 0xa4, 0x3d, 0x7a, 0x9c, 0x00, 0x3e,
  0xb7, 0xfc, 0x2e, 0x3e, 0x2d, 0x53, 0x7a, 0x3c, 0xc1, 0xcf, 0x41, 0x3e,
  0x99, 0x51, 0x5f, 0x3d, 0x70, 0xc8, 0x0c, 0x3e, 0x8f, 0xb6, 0xef, 0xb9,
  0x04, 0xd0, 0x67, 0xbe, 0x69, 0xa2, 0x6a, 0xbd, 0xcf, 0x74, 0x18, 0xbe,
  0xcc, 0x71, 0x80, 0x3d, 0xd4, 0x8b, 0x42, 0xbe, 0x95, 0xbb, 0xf2, 0xbd,
  0xec, 0xee, 0x7f, 0xbd, 0xaf, 0xa3, 0xc9, 0xbd, 0x9c, 0x1e, 0x9c, 0xbc,
  0x05, 0x5c, 0x16, 0xbc, 0xa3, 0xb3, 0xc5, 0x3d, 0x44, 0xe1, 0xd5, 0xbd,
  0x04, 0x4a, 0xca, 0x3d, 0xb2, 0x0d, 0x61, 0xbe, 0x2e, 0x0c, 0x7c, 0x3d,
  0xac, 0x63, 0xb5, 0xbd, 0x48, 0x05, 0xe0, 0xbe, 0x32, 0xa1, 0x38, 0x3d,
  0x0d, 0x3a, 0x0a, 0xbe, 0xf9, 0xf6, 0xdd, 0xbd, 0x80, 0xeb, 0x44, 0xbe,
  0xd8, 0x8e, 0x16, 0xbe, 0x60, 0xe5, 0x3a, 0xbe, 0x3b, 0xcd, 0xa0, 0xbd,
  0x4a, 0x17, 0xf2, 0x3e, 0x43, 0xf8, 0x4d, 0xbd, 0xf3, 0xf5, 0x1c, 0xbe,
  0xb1, 0x06, 0x11, 0x3d, 0x79, 0xc3, 0x3f, 0xbe, 0xbd, 0xa7, 0x8f, 0xbe,
  0x14, 0x3b, 0x5d, 0xbe, 0x91, 0x9c, 0xdf, 0xbd, 0xf5, 0xdf, 0xbb, 0xbe,
  0x75, 0xd5, 0x32, 0x3d, 0x3f, 0x4c, 0x16, 0xbd, 0x1c, 0x94, 0xe0, 0xbd,
  0x49, 0xd2, 0x4d, 0xbe, 0x5a, 0x7e, 0x8e, 0x3d, 0xab, 0x2e, 0x51, 0xbd,
  0x17, 0x63, 0x1d, 0xbe, 0x7a, 0x86, 0xb3, 0x3f, 0xdb, 0x7f, 0x1c, 0xbd,
  0xd7, 0xab, 0x49, 0xbd, 0x9b, 0x61, 0x51, 0xbe, 0x7a, 0x00, 0x03, 0xbe,
  0xba, 0x27, 0x53, 0xbc, 0xae, 0x3e, 0xfe, 0xbd, 0x43, 0xc5, 0xa8, 0xbe,
  0x08, 0x7c, 0xd2, 0xbe, 0xb1, 0x9c, 0x83, 0xbe, 0x46, 0x85, 0xcc, 0xbd,
  0x73, 0x92, 0x85, 0x3c, 0xc7, 0x71, 0x37, 0xbe, 0xe5, 0x32, 0xc6, 0xbd,
  0x60, 0x5d, 0x66, 0xbe, 0x8a, 0x9b, 0x21, 0x3e, 0x5a, 0x86, 0xc8, 0x3f,
  0x4b, 0x9e, 0x5c, 0x3c, 0xec, 0x1b, 0x2d, 0xbe, 0xe0, 0xd7, 0xcb, 0x3d,
  0xb8, 0x9f, 0x90, 0x3a, 0x8e, 0xbb, 0x09, 0xbe, 0xa3, 0x97, 0x11, 0x3d,
  0x5b, 0x6f, 0x90, 0xbe, 0x84, 0xbf, 0x1f, 0xbe, 0x8b, 0xa0, 0xa5, 0xb9,
  0x43, 0xaa, 0x48, 0xbe, 0xf2, 0x91, 0x96, 0x3d, 0x78, 0xd8, 0x9b, 0xbe,
  0x6d, 0x43, 0xb0, 0x3c, 0x97, 0xc3, 0x12, 0x3e, 0x8f, 0x10, 0xd8, 0xbc,
  0xc7, 0xc4, 0xcd, 0x3f, 0xad, 0xc2, 0x8e, 0xbc, 0x0d, 0xec, 0x3c, 0xbe,
  0xca, 0x5e, 0x8b, 0xbe, 0xa3, 0x09, 0x45, 0xbe, 0xfc, 0x9e, 0x02, 0xbd,
  0x77, 0xe7, 0xb2, 0x3d, 0x80, 0x3d, 0x37, 0x3d, 0x5d, 0x81, 0x76, 0xbe,
  0xec, 0x2e, 0x85, 0xbd, 0x6a, 0x3f, 0x89, 0xbe, 0x0c, 0x5e, 0x69, 0xbd,
  0x4b, 0xd8, 0x77, 0xbe, 0xff, 0x6a, 0x1a, 0xbd, 0xd6, 0xec, 0xdb, 0x3d,
  0x06, 0x55, 0x4c, 0xbd, 0x4e, 0x28, 0x48, 0x3f, 0xc7, 0x41, 0x85, 0x3d,
  0x33, 0x22, 0x19, 0xbe, 0x59, 0x5a, 0x52, 0xbd, 0xd4, 0x15, 0x1f, 0x3e,
  0x72, 0xc1, 0x2d, 0xbe, 0x89, 0x07, 0xd4, 0xbb, 0x3a, 0xb8, 0x00, 0xbe,
  0x1c, 0x9e, 0x6c, 0xbe, 0x25, 0x7e, 0x6c, 0xbe, 0xc7, 0x65, 0x34, 0xbe,
  0x96, 0x13, 0xa5, 0xbc, 0x7a, 0x32, 0x4e, 0xbe, 0xbc, 0x51, 0x46, 0xbe,
  0x92, 0xa8, 0x5a, 0x3d, 0x9f, 0xf0, 0x24, 0x3d, 0x10, 0x32, 0x38, 0x3f,
  0x66, 0x28, 0xdc, 0x3c, 0x56, 0xbd, 0x84, 0x3d, 0x8e, 0x50, 0xfe, 0xbd,
  0x6c, 0x8a, 0xb3, 0x3d, 0x6f, 0xcf, 0xca, 0xbd, 0xc2, 0x3a, 0x18, 0xbe,
  0x43, 0x40, 0x6f, 0xbd, 0x1a, 0x28, 0xfb, 0xbd, 0x51, 0x45, 0xc9, 0x3d,
  0x88, 0xca, 0x1a, 0xbd, 0x09, 0x40, 0x03, 0xbe, 0xe2, 0xa7, 0x17, 0xbe,
  0x88, 0xe4, 0x08, 0xbe, 0x2c, 0x71, 0x73, 0xbd, 0x17, 0x7c, 0xd4, 0xbb,
  0x9c, 0x47, 0xfe, 0x3e, 0x7b, 0xa2, 0x68, 0xbe, 0x9a, 0x8d, 0x80, 0xbe,
  0x64, 0xa5, 0x0d, 0x3d, 0xcb, 0xa8, 0x7e, 0xbe, 0x5c, 0xc8, 0x16, 0xbb,
  0x1b, 0x27, 0x3c, 0xbb, 0x44, 0xf4, 0x47, 0xbe, 0xb8, 0x5e, 0x3d, 0xbe,
  0x52, 0xe9, 0x5c, 0x3d, 0x40, 0x4c, 0x2b, 0xbe, 0x78, 0x5d, 0x52, 0xbd,
  0x07, 0x5b, 0x12, 0xbe, 0xaa, 0xaf, 0x8c, 0xbe, 0x65, 0x61, 0x78, 0xbe,
  0xb9, 0x99, 0xd2, 0xbb, 0xf3, 0x89, 0x2c, 0x3f, 0x26, 0xb5, 0xfc, 0xbd,
  0xb8, 0x22, 0x5b, 0xbe, 0x35, 0xaa, 0x96, 0x3d, 0x67, 0x00, 0xbe, 0x3d,
  0x41, 0xc9, 0xc4, 0xbd, 0x20, 0x70, 0x27, 0xbb, 0x76, 0x44, 0xf5, 0x3c,
  0x4a, 0xe6, 0x9f, 0xbe, 0xea, 0x6c, 0x00, 0xbe, 0x8a, 0x15, 0xde, 0xbc,
  0x96, 0x60, 0x36, 0xbd, 0xf0, 0xd4, 0x61, 0xbd, 0x04, 0x87, 0xad, 0xba,
  0x91, 0x34, 0x42, 0xbe, 0x58, 0x2a, 0x12, 0x3e, 0x5f, 0x59, 0xb6, 0x3f,
  0xe4, 0x0e, 0xd7, 0xbd, 0x58, 0xad, 0x7b, 0xbe, 0xc3, 0x2b, 0xe1, 0x3b,
  0x07, 0xb8, 0x93, 0x3d, 0xf2, 0x0a, 0x59, 0xbe, 0xc2, 0x29, 0x29, 0x3d,
  0x12, 0x05, 0x0f, 0x3d, 0xda, 0x04, 0x6b, 0xbe, 0xc2, 0xac, 0xb5, 0xbd,
  0x7a, 0xd0, 0x42, 0xbe, 0x7a, 0x82, 0xfc, 0x3d, 0x8e, 0xb5, 0x92, 0xbd,
  0xd9, 0xf3, 0x83, 0xbd, 0x1d, 0xf2, 0x54, 0xbe, 0x4f, 0xaa, 0xea, 0xbd,
  0x56, 0xb8, 0xaa, 0x3f, 0x7e, 0x73, 0xf4, 0x3d, 0xae, 0xcc, 0x8b, 0xbe,
  0x2c, 0x67, 0x01, 0xbe, 0xe4, 0xdd, 0x30, 0x3b, 0x5f, 0x4c, 0x67, 0xbe,
  0x03, 0x50, 0xee, 0x3d, 0x62, 0x89, 0xb4, 0x3c, 0x53, 0x26, 0xa4, 0xbe,
  0xa9, 0xab, 0x13, 0x3d, 0xe7, 0x39, 0x5a, 0xbe, 0x09, 0x96, 0x92, 0xbd,
  0xf4, 0xd3, 0xc4, 0xbd, 0x7b, 0x43, 0x75, 0xbe, 0xed, 0x09, 0x32, 0x3e,
  0x30, 0x5d, 0xb6, 0x3d, 0x82, 0x17, 0xaf, 0x3f, 0x01, 0x0c, 0x02, 0xbc,
  0x98, 0xbb, 0x94, 0x3d, 0xef, 0x97, 0xc2, 0x3b, 0x5a, 0xba, 0x2b, 0xbe,
  0x1d, 0xe5, 0xf5, 0xbc, 0x41, 0x4b, 0x4c, 0x3d, 0x40, 0xb2, 0x30, 0xbe,
  0x85, 0x92, 0x8e, 0xbe, 0x35, 0xa3, 0x9f, 0x3d, 0x48, 0x2a, 0x8d, 0xbd,
  0xf6, 0x30, 0x7c, 0xbc, 0x7c, 0x4b, 0xa4, 0xbd, 0xbc, 0x35, 0x48, 0xbe,
  0x11, 0x41, 0x9d, 0xbd, 0x90, 0xda, 0xdb, 0xbb, 0xe2, 0x1e, 0x36, 0x3f,
  0x0f, 0xb4, 0x8a, 0xbd, 0x25, 0x35, 0x1c, 0x3d, 0x70, 0x80, 0xb7, 0x3d,
  0x06, 0x36, 0xe3, 0x3c, 0xfe, 0xc0, 0x91, 0xbe, 0x11, 0xd2, 0x90, 0x3d,
  0xaf, 0x4a, 0x75, 0x3d, 0xae, 0xe5, 0xa9, 0xbe, 0x7c, 0x74, 0xfd, 0xbd,
  0xb0, 0x92, 0x66, 0xbe, 0x1e, 0xbd, 0x57, 0xbe, 0xee, 0xff, 0x91, 0xbe,
  0x67, 0x1e, 0x4d, 0xbe, 0xeb, 0xc7, 0x8f, 0xbd, 0x21, 0x27, 0x90, 0xbc,
  0xa8, 0x67, 0xb9, 0x3f, 0x93, 0x89, 0x0f, 0xbc, 0x63, 0x53, 0x6b, 0xbe,
  0xce, 0x43, 0x77, 0xbe, 0xfd, 0xb7, 0x46, 0xbe, 0x80, 0x08, 0x68, 0xbe,
  0xe1, 0xc2, 0xf4, 0xbc, 0xc2, 0x2f, 0x54, 0xbd, 0xc6, 0x05, 0xca, 0xbd,
  0x3f, 0x27, 0xab, 0xbc, 0xc3, 0x11, 0x29, 0xbe, 0x02, 0x05, 0x8e, 0xbe,
  0x15, 0xf9, 0x07, 0xbe, 0xc0, 0xde, 0x92, 0xbe, 0xb1, 0x76, 0x38, 0xbe,
  0x15, 0x6e, 0xad, 0x3d, 0x19, 0x12, 0x02, 0x3f, 0x13, 0x92, 0xc7, 0xbe,
  0xa5, 0x26, 0x50, 0xbe, 0xde, 0x07, 0x6a, 0xbe, 0xcc, 0xb3, 0x7b, 0x3d,
  0x46, 0xcd, 0x57, 0xbe, 0x67, 0x21, 0x01, 0xbd, 0xc8, 0x4b, 0x52, 0x3d,
  0x4c, 0x8b, 0xf3, 0xbe, 0x76, 0x2f, 0x46, 0xbc, 0x13, 0x5a, 0x49, 0xbe,
  0x64, 0x79, 0x19, 0xbe, 0x56, 0x43, 0x72, 0x3d, 0xbd, 0x28, 0x5d, 0xbc,
  0xd7, 0x12, 0xab, 0x3c, 0x80, 0xb4, 0xdb, 0xbd, 0x7d, 0xa1, 0x75, 0x3e,
  0x70, 0x15, 0xa3, 0x3c, 0x58, 0xad, 0xb2, 0xbd, 0x08, 0x88, 0x9d, 0xbd,
  0x1c, 0x7e, 0x20, 0xbe, 0x91, 0xaa, 0xab, 0x3d, 0xfc, 0xe3, 0x3b, 0xbd,
  0x6e, 0x9d, 0xf4, 0xbd, 0xf8, 0x04, 0x06, 0xbf, 0xfd, 0xe8, 0xf1, 0xbc,
  0x8e, 0xfa, 0x93, 0xbe, 0x2e, 0xc5, 0x38, 0xbe, 0x20, 0x47, 0x56, 0x3d,
  0x54, 0xe9, 0xee, 0xbd, 0x08, 0x19, 0x45, 0xbe, 0xe7, 0x4e, 0x03, 0x3d,
  0xca, 0x6e, 0x96, 0xbd, 0xa2, 0x1a, 0xe8, 0xbb, 0x86, 0x4c, 0x76, 0xbb,
  0xac, 0xcf, 0xa6, 0x3d, 0x23, 0x67, 0x20, 0xbe, 0xda, 0xd8, 0x7f, 0xbe,
  0x1b, 0x8c, 0x44, 0x3e, 0x39, 0xb6, 0x1d, 0xbd, 0x5d, 0x88, 0xab, 0xbe,
  0x14, 0xaf, 0x3b, 0xbd, 0xa8, 0x71, 0xf2, 0xbd, 0x0d, 0xec, 0xdf, 0xbd,
  0x74, 0xd9, 0x5f, 0x3d, 0x9b, 0xf1, 0x6a, 0x3d, 0x97, 0x0a, 0x4f, 0x3d,
  0xa4, 0x8a, 0xf2, 0x3c, 0x1a, 0xfd, 0x67, 0xbe, 0xc6, 0x3b, 0x93, 0xbe,
  0xd6, 0xa4, 0x53, 0x3d, 0xf0, 0x67, 0xe8, 0x3d, 0xa9, 0x93, 0x97, 0xbd,
  0xf6, 0xce, 0x7a, 0x3d, 0x2a, 0x9b, 0xa1, 0xbd, 0x56, 0xcd, 0x11, 0x3d,
  0xac, 0x13, 0x03, 0xbf, 0x62, 0x56, 0x82, 0x3d, 0x8d, 0xc3, 0xa0, 0xbe,
  0x07, 0x3d, 0xdf, 0xbd, 0xd3, 0xa9, 0x3e, 0xbc, 0x0e, 0x3f, 0x0f, 0xbe,
  0x21, 0x41, 0x96, 0xbd, 0x86, 0xe6, 0x1f, 0xbe, 0x0a, 0x73, 0x28, 0xbc,
  0x89, 0x50, 0xfa, 0x3d, 0x47, 0x38, 0x93, 0xb9, 0xc4, 0x16, 0x2c, 0x3e,
  0xf2, 0xdf, 0x22, 0xbe, 0xae, 0xd7, 0xc4, 0x3d, 0xb1, 0xd4, 0x53, 0xbe,
  0x92, 0xca, 0xe7, 0xbd, 0x1b, 0xd2, 0xb4, 0xbe, 0xa9, 0xf4, 0xe6, 0xba,
  0xa0, 0x47, 0x7e, 0xbe, 0xd5, 0x41, 0x0d, 0xbd, 0x2b, 0x56, 0xeb, 0xbd,
  0x31, 0x09, 0x83, 0x3d, 0x72, 0x0e, 0x0a, 0x3c, 0xa7, 0xc4, 0x05, 0xbe,
  0x48, 0x26, 0x13, 0x3d, 0x3b, 0x5f, 0x4a, 0xbe, 0xa8, 0xc4, 0x38, 0x3d,
  0x55, 0x75, 0x34, 0x3e, 0xb6, 0x88, 0x15, 0xbe, 0xbb, 0xcb, 0x9a, 0xbd,
  0x19, 0xbe, 0x53, 0x3e, 0xaa, 0xf0, 0x4c, 0xbe, 0xaa, 0x9b, 0xc1, 0xbe,
  0x8f, 0xf5, 0x56, 0xbe, 0x21, 0x53, 0x88, 0xbe, 0x25, 0x2c, 0x19, 0x3d,
  0xe1, 0xf3, 0x7a, 0xbb, 0xf7, 0x3d, 0xd7, 0xbd, 0x75, 0x35, 0xc1, 0x3c,
  0xc6, 0x39, 0xc9, 0x3d, 0x32, 0x64, 0x64, 0xbb, 0xd6, 0x57, 0xd4, 0xbd,
  0xae, 0x57, 0x63, 0xbe, 0xc4, 0x70, 0xa0, 0xbd, 0x14, 0x47, 0x69, 0x3b,
  0x85, 0x08, 0x98, 0xbd, 0x33, 0x83, 0xdd, 0xbd, 0x32, 0x33, 0xd7, 0xbd,
  0x30, 0x33, 0x4d, 0xbe, 0xd4, 0xb9, 0xf1, 0x3c, 0xb7, 0x75, 0x8a, 0xbe,
  0x14, 0x46, 0x8b, 0xbb, 0xcd, 0x71, 0xd1, 0x3d, 0x0a, 0x1b, 0xa2, 0x3c,
  0x1b, 0xff, 0x85, 0x3d, 0xab, 0x5e, 0x84, 0xbe, 0x84, 0x4b, 0xdc, 0x3d,
  0x62, 0x51, 0x09, 0xbe, 0x3e, 0xa1, 0x1b, 0xbe, 0x4d, 0x13, 0xe6, 0x3d,
  0xcd, 0x6c, 0xb0, 0x3d, 0x10, 0xe5, 0xbf, 0xbe, 0x93, 0x8f, 0xde, 0xbd,
  0xd1, 0xd5, 0xc3, 0xbe, 0x0b, 0x1b, 0x9a, 0xbe, 0x92, 0xcd, 0xff, 0xbd,
  0x1b, 0xf3, 0xbf, 0x3d, 0x28, 0x15, 0xd8, 0x3c, 0x8b, 0x21, 0xb6, 0xbe,
  0xe1, 0xaa, 0xfb, 0x3d, 0xea, 0x28, 0x9a, 0xbe, 0xdf, 0xbd, 0x04, 0xbe,
  0x69, 0xf2, 0x8c, 0xbb, 0x05, 0x8c, 0xb0, 0xbb, 0x67, 0x74, 0x04, 0x3e,
  0x32, 0x3f, 0x1a, 0xbe, 0xbb, 0xf0, 0xde, 0xbd, 0xe0, 0x26, 0xf1, 0xbd,
  0x4d, 0x93, 0x44, 0xbe, 0x18, 0x05, 0x31, 0xbe, 0x10, 0xc2, 0xe1, 0xbe,
  0xbe, 0x7c, 0xdd, 0xbc, 0xc2, 0xf5, 0x60, 0x3e, 0xd8, 0x93, 0x87, 0xbe,
  0xae, 0xc2, 0x58, 0xbe, 0x4a, 0x8b, 0xfc, 0x3d, 0xfb, 0xad, 0x68, 0xbe,
  0x12, 0x91, 0x93, 0xbd, 0xe7, 0x73, 0x2d, 0xbe, 0xec, 0x5b, 0x3b, 0xbd,
  0xec, 0x7a, 0x36, 0xbd, 0x68, 0x4c, 0x19, 0x3d, 0xb6, 0xb1, 0x2d, 0x3e,
  0x4b, 0x49, 0xd7, 0xbd, 0xa8, 0x79, 0xf0, 0x3d, 0x33, 0xb3, 0x35, 0xbe,
  0xdd, 0xe0, 0xd1, 0xbe, 0xb9, 0x32, 0xf2, 0xbd, 0xf2, 0xf9, 0x7b, 0x3e,
  0xad, 0x6c, 0x03, 0x3e, 0x72, 0x25, 0xbc, 0xbd, 0x11, 0x69, 0xf7, 0x3d,
  0xcb, 0x60, 0x1b, 0x3d, 0x35, 0x9f, 0xec, 0x3d, 0x60, 0x5d, 0x60, 0x3e,
  0xf8, 0xe0, 0xb7, 0x3d, 0xea, 0xde, 0xa0, 0x3d, 0xd7, 0xfa, 0x1f, 0xbe,
  0x64, 0x0a, 0x45, 0xbc, 0x16, 0xa4, 0x0e, 0xbe, 0x85, 0x47, 0xc7, 0xbd,
  0x90, 0xac, 0xd2, 0xbd, 0x62, 0xd5, 0x36, 0x3c, 0x1c, 0xd9, 0x88, 0x3d,
  0x2f, 0x62, 0xc7, 0x3d, 0xfc, 0x78, 0xdf, 0x3d, 0xe5, 0x7c, 0x4f, 0xbe,
  0x08, 0x63, 0xa5, 0x3e, 0xf8, 0x79, 0x25, 0xbe, 0x79, 0x25, 0x15, 0x3d,
  0x1d, 0xad, 0xb8, 0xbb, 0x1d, 0xb0, 0x93, 0x3e, 0xcf, 0x57, 0x78, 0x3e,
  0x65, 0x7e, 0x02, 0xbe, 0x2c, 0xa2, 0x32, 0xbe, 0x95, 0x58, 0x9f, 0xbe,
  0x22, 0xea, 0x45, 0x3e, 0x06, 0x8a, 0x32, 0x3d, 0x6b, 0x53, 0x96, 0xbe,
  0xa8, 0xce, 0xe0, 0xbd, 0x66, 0xa2, 0x3d, 0x3d, 0xa2, 0x32, 0x63, 0x3d,
  0x20, 0x3b, 0x69, 0xbe, 0x5f, 0x62, 0xf1, 0x3d, 0x86, 0x81, 0xda, 0xbc,
  0xeb, 0x38, 0x78, 0xbd, 0x3b, 0x17, 0x17, 0xbb, 0xf6, 0x17, 0x49, 0x3e,
  0x93, 0x53, 0x02, 0xbe, 0x9d, 0xb6, 0x52, 0xbe, 0x12, 0x33, 0xf9, 0x3d,
  0x5b, 0xad, 0x6e, 0xbe, 0x63, 0x06, 0x19, 0xbd, 0x79, 0xf5, 0x9b, 0xbd,
  0x71, 0x8e, 0xb8, 0xbe, 0x0c, 0x11, 0xb1, 0xbd, 0xcb, 0x4e, 0x08, 0x3d,
  0x83, 0xfb, 0xb4, 0xbd, 0x33, 0x19, 0x81, 0xbe, 0x70, 0xca, 0xcf, 0x3d,
  0x37, 0x8b, 0xa2, 0xbd, 0x74, 0xfc, 0x51, 0xbe, 0x31, 0xfd, 0xf4, 0xbd,
  0x3d, 0x5b, 0x46, 0x3e, 0x5d, 0x0b, 0xc3, 0xbc, 0xf1, 0xdf, 0x55, 0xbe,
  0x05, 0x44, 0xa2, 0xbd, 0x13, 0x73, 0xc4, 0xbe, 0x34, 0x1b, 0x8b, 0x3b,
  0x91, 0xff, 0x83, 0x3d, 0x77, 0xd8, 0xa4, 0xbc, 0x72, 0x9d, 0xf4, 0xbe,
  0x52, 0x71, 0xec, 0x3d, 0xae, 0x68, 0x63, 0xbe, 0x94, 0xc6, 0x84, 0xbd,
  0x76, 0x1c, 0x7a, 0x3d, 0xe4, 0xec, 0xd4, 0xbd, 0x01, 0xec, 0x7e, 0xbd,
  0xa0, 0x25, 0x04, 0xbe, 0xaa, 0x84, 0x1e, 0xbd, 0xcc, 0x16, 0xdc, 0x3b,
  0x1b, 0x54, 0x29, 0xbb, 0xf9, 0xe5, 0x1c, 0x3e, 0x31, 0x1f, 0x54, 0xbf,
  0x49, 0x95, 0x83, 0xbc, 0x0f, 0xca, 0x12, 0xbf, 0x67, 0x25, 0x71, 0xbe,
  0xf7, 0xa4, 0x65, 0xbe, 0x7a, 0x67, 0xf8, 0xbd, 0x22, 0x7d, 0x6b, 0xbe,
  0x5e, 0xab, 0xfc, 0xbe, 0x10, 0x22, 0xa8, 0xbd, 0x83, 0xb8, 0xac, 0xbc,
  0x41, 0x53, 0x5e, 0xbe, 0xac, 0x37, 0x42, 0x3e, 0x3b, 0x35, 0x01, 0xbf,
  0x16, 0xfe, 0xd4, 0xbe, 0xc9, 0xdc, 0x04, 0xbe, 0xaa, 0x03, 0x19, 0x3e,
  0xfa, 0x4b, 0x28, 0xbf, 0x25, 0x1d, 0x41, 0x3d, 0xab, 0x6d, 0x34, 0xbd,
  0x1e, 0xf5, 0x00, 0xbe, 0x43, 0x9c, 0x65, 0xbe, 0xad, 0x15, 0x80, 0xbd,
  0x9b, 0xf9, 0x8f, 0xbd, 0x9d, 0x32, 0xeb, 0xbd, 0x71, 0x78, 0x9c, 0xbe,
  0x0a, 0x8e, 0x48, 0xbd, 0x06, 0x2f, 0xcd, 0xbb, 0x11, 0xf3, 0x98, 0xbe,
  0x5a, 0x33, 0x6a, 0xbe, 0x95, 0x41, 0x00, 0xbe, 0x6a, 0xa1, 0xfa, 0xbd,
  0x56, 0xee, 0x9e, 0xbd, 0x81, 0x76, 0x09, 0xbf, 0xfd, 0x75, 0xcb, 0x3d,
  0xe0, 0x1e, 0xee, 0x3d, 0x1e, 0xf7, 0x0f, 0xbe, 0xcb, 0x27, 0xcc, 0xbd,
  0xf6, 0x0e, 0x3b, 0xbd, 0x5b, 0x56, 0x56, 0xbe, 0xa8, 0x7f, 0x58, 0xbe,
  0xa4, 0x6c, 0xa5, 0xbe, 0x4f, 0x45, 0x4a, 0x3e, 0x26, 0x92, 0xea, 0xbd,
  0x96, 0xc4, 0x93, 0xbd, 0x51, 0xf6, 0x96, 0xbe, 0xbf, 0x2f, 0x60, 0xbe,
  0x7a, 0x3a, 0xd7, 0x3c, 0x8b, 0x4d, 0x18, 0x3e, 0xd9, 0xcf, 0xf3, 0xbe,
  0xa5, 0x95, 0xfc, 0x3c, 0x98, 0x21, 0xb7, 0xbd, 0x50, 0xed, 0x17, 0xbe,
  0xeb, 0x3e, 0x19, 0xbe, 0xa2, 0x74, 0x08, 0xbe, 0x62, 0x60, 0xb9, 0xbd,
  0xa7, 0x4d, 0xd9, 0x3a, 0x97, 0xc5, 0xa6, 0xbe, 0x47, 0xc0, 0x28, 0x3d,
  0xd4, 0xf1, 0x8c, 0xbe, 0x58, 0xf8, 0xa4, 0xbe, 0xa9, 0xcd, 0x56, 0xbe,
  0x69, 0x20, 0x01, 0xbf, 0x5a, 0x44, 0x03, 0x3d, 0xcb, 0x2c, 0xab, 0x3d,
  0x3d, 0x2a, 0x0f, 0x3e, 0xc4, 0x49, 0xcc, 0x3c, 0x04, 0x00, 0x5a, 0xbe,
  0x93, 0x3b, 0xe5, 0xbd, 0x74, 0x8c, 0x9c, 0x3e, 0xb3, 0x45, 0x2d, 0xbd,
  0x4c, 0x7b, 0x9c, 0xbe, 0xab, 0xfa, 0xeb, 0xbd, 0x10, 0xfb, 0xfe, 0xbb,
  0xb8, 0x25, 0x51, 0xbd, 0x17, 0xcb, 0x1e, 0x3e, 0xb9, 0x77, 0xb7, 0x3d,
  0xf4, 0xad, 0x3f, 0xbe, 0x49, 0x1b, 0x82, 0x3d, 0xa2, 0xfa, 0xfc, 0x3c,
  0x7b, 0x19, 0x05, 0x3d, 0xa7, 0x35, 0xe0, 0x3c, 0x77, 0x02, 0xa8, 0xbd,
  0x46, 0x00, 0xb7, 0xbe, 0x3e, 0x43, 0x43, 0x3e, 0xe2, 0xea, 0xfd, 0x3d,
  0x22, 0x3e, 0x97, 0x3d, 0x56, 0x0b, 0xf9, 0xbe, 0x76, 0x38, 0xb1, 0xbe,
  0x68, 0x17, 0xe6, 0x3d, 0x66, 0x5a, 0x81, 0xbe, 0xaa, 0xd1, 0x85, 0x3d,
  0x93, 0x8d, 0x17, 0x3d, 0xaf, 0x00, 0x6e, 0xbe, 0x97, 0xe9, 0x70, 0x3d,
  0x1d, 0x21, 0xbf, 0xbd, 0x45, 0xb4, 0x2c, 0xbe, 0x72, 0x6d, 0x94, 0xbb,
  0x77, 0x1e, 0x0d, 0xbe, 0x06, 0x1a, 0x01, 0xbe, 0xc8, 0x0f, 0x22, 0x3e,
  0xa3, 0xef, 0x67, 0x3e, 0xfa, 0x78, 0x20, 0x3d, 0x24, 0xb7, 0x6c, 0xbd,
  0xc0, 0x2e, 0x45, 0xbc, 0xee, 0x1c, 0xde, 0x3c, 0x41, 0x55, 0x09, 0xbd,
  0x25, 0x5e, 0x98, 0x3d, 0xae, 0x0a, 0x07, 0x3f, 0x2c, 0x9e, 0x26, 0x3d,
  0xcc, 0x07, 0xf0, 0x3d, 0xd3, 0xc1, 0x09, 0xbd, 0xea, 0xa6, 0x64, 0x3e,
  0x49, 0x56, 0xf5, 0x3c, 0x0c, 0xce, 0x6a, 0xbe, 0xc1, 0x4d, 0x22, 0x3c,
  0xa1, 0x9f, 0x26, 0xbd, 0x3b, 0x74, 0x09, 0x3e, 0x14, 0xd2, 0x8d, 0x3d,
  0x45, 0xe5, 0x43, 0xbe, 0x42, 0x88, 0x73, 0xbc, 0x80, 0xfa, 0xa8, 0x3d,
  0x9a, 0xfc, 0xf0, 0x3e, 0xc8, 0xd9, 0xd0, 0x3d, 0x15, 0x66, 0x47, 0x3d,
  0x8d, 0xba, 0x2d, 0x3e, 0x87, 0x9b, 0x21, 0x3e, 0x79, 0x85, 0x4f, 0x3e,
  0xca, 0xcc, 0xd2, 0x3e, 0x4c, 0xa3, 0x01, 0xbe, 0xb4, 0x87, 0x80, 0xbc,
  0xd7, 0x30, 0x9b, 0xbd, 0xac, 0x64, 0x0c, 0xbd, 0x54, 0x47, 0xd1, 0xbd,
  0x93, 0x15, 0x0d, 0xbe, 0x4b, 0xb8, 0xf3, 0x3d, 0x08, 0xee, 0x83, 0xbe,
  0x0c, 0xad, 0xd6, 0xbe, 0x55, 0x02, 0xa5, 0xbe, 0x34, 0x51, 0xe9, 0xbc,
  0x76, 0x50, 0x0a, 0x3e, 0xb9, 0xee, 0x4a, 0x3d, 0xbd, 0xf2, 0x32, 0xbf,
  0x9c, 0x09, 0x09, 0xbf, 0xa6, 0xb8, 0x14, 0xbe, 0x05, 0x76, 0x0d, 0xbe,
  0xc0, 0xef, 0xb5, 0xbc, 0x8a, 0x7f, 0x9d, 0xbd, 0x36, 0x28, 0xe9, 0xbb,
  0xc6, 0x06, 0x53, 0x3d, 0x2a, 0x6c, 0x05, 0xbe, 0xe2, 0x49, 0x05, 0xbe,
  0x3f, 0x53, 0xab, 0xbd, 0x7f, 0x72, 0x01, 0xbf, 0x60, 0x31, 0xbd, 0xbe,
  0x9c, 0x3e, 0x85, 0xbe, 0x2e, 0x6e, 0xac, 0x3d, 0x0f, 0x69, 0x1b, 0xbd,
  0x82, 0x30, 0x9b, 0xbe, 0x97, 0xce, 0xcd, 0xbe, 0x10, 0xf3, 0xe8, 0xbe,
  0xd2, 0xb3, 0x67, 0xbc, 0x3d, 0xe5, 0xba, 0xbd, 0xb0, 0xbe, 0xb9, 0xbd,
  0x42, 0xba, 0x03, 0xbd, 0x6a, 0x3e, 0x19, 0x3d, 0x52, 0x9e, 0xc1, 0xbd,
  0xcc, 0xa7, 0xf2, 0xbd, 0x53, 0xb6, 0x65, 0x3c, 0x13, 0xdb, 0xc4, 0xbe,
  0x62, 0x78, 0xbd, 0xbe, 0x11, 0x66, 0xda, 0xbd, 0x5b, 0xf1, 0xb4, 0xbd,
  0x67, 0xb0, 0x7c, 0xbe, 0x03, 0xde, 0x27, 0xbe, 0x59, 0xf3, 0x85, 0x3e,
  0x51, 0x7e, 0x55, 0x3d, 0x78, 0xad, 0x82, 0xbd, 0xfb, 0xb0, 0x2e, 0xbe,
  0x69, 0x04, 0x08, 0xbe, 0x54, 0x0f, 0x67, 0xbc, 0xb2, 0xa3, 0x8a, 0x3d,
  0x9e, 0xc5, 0x4f, 0xbd, 0x4c, 0x4d, 0x5d, 0xbe, 0x56, 0xa1, 0x56, 0x3d,
  0x6f, 0x9c, 0x09, 0xbd, 0xf5, 0xcb, 0x51, 0x3e, 0xa8, 0xbf, 0x30, 0x3e,
  0x4a, 0x17, 0x33, 0xbe, 0x7f, 0xa2, 0xad, 0xbe, 0x2b, 0x4e, 0x8d, 0x3d,
  0x1b, 0x8a, 0x2e, 0x3e, 0xc6, 0x3f, 0x94, 0x3e, 0x2e, 0x29, 0x51, 0x3e,
  0x2a, 0x6c, 0x19, 0xbe, 0x87, 0x0e, 0x82, 0xbd, 0xd8, 0x9a, 0xdb, 0xbc,
  0xcc, 0x6a, 0x41, 0x3e, 0xa7, 0x26, 0x36, 0x3d, 0x79, 0x1a, 0x75, 0xbd,
  0x32, 0xc1, 0xea, 0x3c, 0xf9, 0xf0, 0x09, 0xbd, 0xf6, 0xdb, 0xc6, 0x3d,
  0xae, 0xbe, 0xcf, 0x3d, 0x2d, 0x06, 0xfe, 0xbe, 0x2b, 0x9f, 0x78, 0xbe,
  0x3c, 0x60, 0x08, 0x3e, 0xed, 0x65, 0xa8, 0x3d, 0x04, 0xbd, 0x1d, 0xbb,
  0x90, 0xd5, 0xc0, 0xbd, 0xd0, 0x70, 0x06, 0xbe, 0xba, 0xb2, 0x5e, 0x3c,
  0x21, 0xd1, 0x73, 0xbd, 0x1b, 0x89, 0x22, 0xbd, 0x43, 0xeb, 0xb5, 0x3c,
  0x79, 0x26, 0x15, 0x3d, 0x6d, 0xf1, 0x1f, 0x3e, 0xa3, 0xb3, 0x3f, 0xbd,
  0xa6, 0xfd, 0xfb, 0x3d, 0x2f, 0xea, 0x8a, 0xbc, 0x12, 0x7b, 0xcc, 0xbe,
  0x1e, 0xe5, 0x44, 0xbc, 0xdb, 0xb4, 0xac, 0x3e, 0x74, 0xe0, 0xdf, 0x3c,
  0xe4, 0x0d, 0x4d, 0x3e, 0x25, 0xf7, 0x35, 0x3e, 0xad, 0xbd, 0xac, 0xbd,
  0xd6, 0xc6, 0xd7, 0x3d, 0x92, 0x2a, 0xab, 0x3d, 0x61, 0x9a, 0xa5, 0xbe,
  0x70, 0xda, 0x61, 0xbd, 0x16, 0xf5, 0x86, 0xbe, 0x5b, 0x0d, 0x55, 0x3e,
  0xe1, 0x4a, 0xaf, 0xbd, 0x8b, 0x42, 0x74, 0xbe, 0x84, 0x13, 0x23, 0xbe,
  0xba, 0x0d, 0x01, 0xbe, 0x7f, 0xbf, 0x2e, 0xbe, 0xfc, 0x32, 0xe5, 0xbd,
  0xf8, 0x85, 0xa4, 0xbd, 0x0e, 0x0e, 0xd0, 0xbe, 0xa9, 0xd9, 0x2e, 0x3d,
  0xcd, 0x75, 0xe1, 0xbd, 0x30, 0x11, 0xc6, 0xbd, 0x8a, 0x2f, 0x97, 0x3c,
  0xaa, 0xf3, 0x83, 0xbe, 0xaf, 0xbf, 0x24, 0x3d, 0x8a, 0xed, 0x65, 0xbe,
  0x22, 0xae, 0x8a, 0xbd, 0x49, 0x25, 0x84, 0x3e, 0xa6, 0xd0, 0x1e, 0xbe,
  0xb2, 0x42, 0x07, 0x3d, 0xe3, 0xa7, 0xb1, 0x3e, 0x61, 0x4e, 0x94, 0xbe,
  0x1c, 0xeb, 0x95, 0xbe, 0xaa, 0x01, 0xfe, 0x3b, 0x41, 0x6e, 0xa4, 0xbe,
  0x1e, 0x18, 0x9e, 0x3d, 0x4f, 0x2c, 0x84, 0xbe, 0xbb, 0x23, 0x31, 0x3c,
  0xe0, 0xcf, 0xb0, 0x3c, 0x9b, 0xe9, 0x87, 0xbd, 0x3a, 0x67, 0x9d, 0x3d,
  0x09, 0xde, 0x99, 0xbe, 0x43, 0xde, 0x76, 0x3d, 0x30, 0xda, 0x9d, 0x3e,
  0xdb, 0xfa, 0x64, 0xbe, 0x0e, 0x1c, 0x86, 0x3d, 0x72, 0xe3, 0x9f, 0x3e,
  0xbb, 0xb4, 0xa4, 0xbd, 0xb7, 0x41, 0x86, 0xbe, 0x05, 0xe5, 0x06, 0xbe,
  0x1d, 0x8b, 0x27, 0xbc, 0xed, 0x66, 0xdc, 0x3d, 0x02, 0x4e, 0x34, 0x3e,
  0x05, 0xa8, 0x00, 0xbc, 0x9b, 0xac, 0xd6, 0x3c, 0xd7, 0x88, 0x74, 0xbb,
  0xfb, 0x53, 0xe3, 0x3d, 0x0a, 0xcc, 0x02, 0xbe, 0xd7, 0x9f, 0xae, 0xbd,
  0x19, 0x65, 0x9b, 0x3e, 0x4d, 0xbe, 0x59, 0xbe, 0x83, 0x5b, 0xfb, 0x3d,
  0xdf, 0x2d, 0x87, 0x3e, 0xb4, 0x82, 0x49, 0xbe, 0x3c, 0xed, 0x2e, 0x3d,
  0xb1, 0xa5, 0x97, 0xbd, 0xa8, 0x3f, 0x68, 0x3e, 0xff, 0xae, 0x45, 0xbd,
  0x50, 0xe9, 0x70, 0xbe, 0x76, 0xc2, 0x90, 0xbd, 0xc9, 0xfb, 0x5b, 0x3c,
  0x3f, 0xa6, 0x8a, 0xbd, 0x83, 0xe0, 0x82, 0xbc, 0x10, 0x84, 0xc8, 0xbc,
  0xcc, 0x00, 0xfc, 0xbb, 0x80, 0xf3, 0x81, 0x3d, 0xe0, 0xfc, 0x95, 0x3d,
  0x75, 0xb3, 0x81, 0xbc, 0x24, 0x53, 0x7b, 0x3e, 0xb3, 0x4c, 0x92, 0xbd,
  0xf0, 0xb0, 0x3b, 0xbe, 0x20, 0x32, 0x8e, 0x3d, 0x72, 0x22, 0x63, 0x3d,
  0xfd, 0x4b, 0xa8, 0xbd, 0x3e, 0x6c, 0x4c, 0xbd, 0x04, 0x06, 0x16, 0x3d,
  0xe3, 0xf2, 0x85, 0x3d, 0x1b, 0xac, 0xd0, 0xbc, 0x57, 0x24, 0x21, 0x3d,
  0x7a, 0x7f, 0xe6, 0xbd, 0x70, 0x0a, 0x42, 0x3e, 0x2b, 0x66, 0x4b, 0x3c,
  0x3e, 0x46, 0xf8, 0x3d, 0x45, 0xaa, 0x3b, 0xbc, 0x96, 0xc2, 0xa9, 0x3e,
  0x91, 0x72, 0x04, 0xbe, 0x38, 0x31, 0xba, 0xbd, 0x1d, 0xb3, 0x3c, 0x3e,
  0x4c, 0x05, 0x0b, 0x3d, 0x56, 0x7e, 0x3c, 0x3d, 0xe5, 0xb1, 0x69, 0xbe,
  0xa2, 0xd9, 0xc0, 0x3d, 0x58, 0x34, 0x9d, 0xbd, 0x1a, 0x4f, 0x4a, 0xbd,
  0x1f, 0xda, 0x45, 0x3d, 0x8d, 0x2f, 0x98, 0xbd, 0x0c, 0x30, 0xc9, 0x3d,
  0xc6, 0xba, 0x1e, 0xbd, 0x63, 0x21, 0xac, 0x3d, 0x19, 0xfa, 0x04, 0xbe,
  0xcd, 0xca, 0xa1, 0xbd, 0xfe, 0x07, 0xef, 0x3c, 0x48, 0x6c, 0x72, 0xbd,
  0x0a, 0x95, 0x05, 0x3e, 0x80, 0xe8, 0xde, 0xbd, 0x58, 0x3a, 0xcc, 0xbd,
  0xca, 0x95, 0x21, 0x3e, 0x8a, 0x0f, 0x88, 0xbe, 0xa0, 0xb6, 0x95, 0xbd,
  0xc5, 0xc5, 0xec, 0x3d, 0xcc, 0x77, 0x81, 0x3d, 0x0a, 0xfe, 0x16, 0x3e,
  0x05, 0x5f, 0x94, 0xbe, 0x82, 0xf3, 0xf2, 0x3c, 0x41, 0xb0, 0xc0, 0xbc,
  0xa7, 0x84, 0xd7, 0x3d, 0x78, 0xda, 0xf1, 0xbd, 0x99, 0x9f, 0xd2, 0x3d,
  0x6c, 0xf3, 0x88, 0x3d, 0x9d, 0x49, 0x8f, 0xbd, 0x4e, 0x37, 0xc2, 0x3e,
  0x4f, 0x0a, 0x4b, 0xbe, 0x23, 0x34, 0x32, 0x3e, 0x57, 0x38, 0x73, 0x3d,
  0x5b, 0xa4, 0x90, 0xbd, 0x40, 0x6b, 0x2b, 0x3e, 0xbd, 0x1e, 0xe3, 0x3c,
  0x55, 0xa4, 0x6c, 0x3d, 0xd1, 0xd3, 0xb5, 0xbe, 0x7d, 0xa9, 0x93, 0xbd,
  0x65, 0x1e, 0x09, 0x3e, 0xec, 0xdb, 0xaf, 0x3d, 0xb5, 0x9b, 0xf5, 0x3d,
  0x0c, 0x4c, 0xbf, 0x3d, 0xd9, 0x34, 0x0d, 0x3e, 0xd6, 0xea, 0xf3, 0xbd,
  0x54, 0x3f, 0x8e, 0x3e, 0x20, 0x68, 0x03, 0xbc, 0xfd, 0x42, 0x60, 0x3d,
  0x5a, 0x47, 0x03, 0xbe, 0x20, 0xe9, 0xc8, 0xbb, 0x69, 0x20, 0xe5, 0x3b,
  0x8c, 0x7e, 0x23, 0xbe, 0x5f, 0x06, 0x8b, 0x3d, 0x41, 0x3f, 0x89, 0xbe,
  0xe2, 0xe6, 0xae, 0xbe, 0x4d, 0x74, 0x1d, 0xbe, 0xf3, 0x3a, 0x13, 0xbe,
  0x60, 0x93, 0xec, 0xbd, 0x88, 0xa3, 0xab, 0xbb, 0x3f, 0x54, 0x83, 0x3e,
  0xfe, 0xbf, 0xa7, 0xbe, 0x3f, 0xf2, 0x06, 0x3d, 0x8b, 0x70, 0x18, 0xbe,
  0x7d, 0x09, 0x6c, 0xbd, 0xb2, 0x91, 0xfe, 0x3c, 0x2e, 0x6f, 0x78, 0xb9,
  0x6d, 0xc7, 0xe8, 0xbd, 0x0c, 0x5b, 0x32, 0xbe, 0x39, 0x94, 0xee, 0x3d,
  0x8d, 0x33, 0x69, 0xbd, 0x06, 0xe1, 0xa9, 0xbe, 0xbc, 0x70, 0x1a, 0xbe,
  0x90, 0xf1, 0x96, 0x3d, 0x52, 0x17, 0x8e, 0x3b, 0xbf, 0x91, 0xcb, 0x3d,
  0xa5, 0x39, 0x3b, 0x3e, 0x19, 0xe2, 0x46, 0xbe, 0xf8, 0x15, 0x44, 0xbe,
  0xc3, 0xb3, 0xf9, 0x3d, 0x50, 0xed, 0x6f, 0x3e, 0x3b, 0xd9, 0xcd, 0x3d,
  0x46, 0xe6, 0x20, 0xbc, 0xfe, 0x43, 0x16, 0xbe, 0xb0, 0x7b, 0x1c, 0xbe,
  0x2b, 0xbd, 0xf4, 0x3c, 0xa7, 0xa3, 0xb7, 0xbe, 0x70, 0x72, 0x94, 0xbe,
  0x6d, 0x59, 0x43, 0x3d, 0xa5, 0x4d, 0xdd, 0xbd, 0x35, 0xa9, 0xa4, 0xbe,
  0x87, 0x80, 0xc7, 0x3d, 0x78, 0x95, 0x83, 0x3e, 0xf6, 0xcf, 0xa8, 0xbd,
  0x98, 0xf4, 0x0e, 0x3c, 0x1c, 0x91, 0x01, 0x3e, 0xa4, 0x10, 0x62, 0x3e,
  0x5e, 0x0b, 0x62, 0xbe, 0x98, 0x0f, 0xa9, 0xb9, 0x41, 0x9f, 0x9f, 0x3d,
  0x56, 0xdd, 0xcf, 0xbd, 0x7f, 0xae, 0x19, 0x3d, 0x13, 0x17, 0x66, 0xbe,
  0x7d, 0xaa, 0xe7, 0xbd, 0xdc, 0x90, 0x65, 0xbe, 0x81, 0xb2, 0x21, 0x3e,
  0xf2, 0xa9, 0x00, 0x3d, 0x06, 0x72, 0xfa, 0x3d, 0xf7, 0xbe, 0x66, 0x3e,
  0xfe, 0x30, 0x8f, 0xbd, 0x36, 0x14, 0xc1, 0x3c, 0x37, 0x9c, 0x1e, 0x3d,
  0xfc, 0xff, 0xbe, 0x3e, 0xf2, 0x52, 0x23, 0xbe, 0xe2, 0x50, 0x6e, 0x3d,
  0xf6, 0xae, 0x0d, 0x3d, 0x59, 0xf3, 0xea, 0xbc, 0x4f, 0x42, 0x92, 0x3c,
  0xf2, 0x38, 0x89, 0xbd, 0x71, 0x92, 0x83, 0x3d, 0xca, 0x8b, 0x14, 0xbe,
  0xa5, 0xb1, 0x32, 0x3e, 0x52, 0xa8, 0xcf, 0xbd, 0xa8, 0x4e, 0x47, 0xbc,
  0x23, 0x19, 0x09, 0x3e, 0x5e, 0xdb, 0xbc, 0xbd, 0x74, 0x73, 0x22, 0xbb,
  0x46, 0xfe, 0xff, 0xff, 0x10, 0x00, 0x00, 0x00, 0x05, 0x00, 0x00, 0x00,
  0x14, 0x00, 0x00, 0x00, 0x2c, 0x00, 0x00, 0x00, 0x02, 0x00, 0x00, 0x00,
  0x10, 0x00, 0x00, 0x00, 0x70, 0x00, 0x00, 0x00, 0x17, 0x00, 0x00, 0x00,
  0x73, 0x65, 0x71, 0x75, 0x65, 0x6e, 0x74, 0x69, 0x61, 0x6c, 0x2f, 0x64,
  0x65, 0x6e, 0x73, 0x65, 0x2f, 0x4d, 0x61, 0x74, 0x4d, 0x75, 0x6c, 0x00,
  0x34, 0xfe, 0xff, 0xff, 0x2a, 0xff, 0xff, 0xff, 0x04, 0x00, 0x00, 0x00,
  0x08, 0x00, 0x00, 0x00, 0xff, 0xff, 0xff, 0xff, 0x70, 0x00, 0x00, 0x00,
  0x00, 0x00, 0x0e, 0x00, 0x18, 0x00, 0x08, 0x00, 0x07, 0x00, 0x0c, 0x00,
  0x10, 0x00, 0x14, 0x00, 0x0e, 0x00, 0x00, 0x00, 0x00, 0x00, 0x00, 0x02,
  0x10, 0x00, 0x00, 0x00, 0x04, 0x00, 0x00, 0x00, 0x10, 0x00, 0x00, 0x00,
  0x2c, 0x00, 0x00, 0x00, 0x01, 0x00, 0x00, 0x00, 0x02, 0x00, 0x00, 0x00,
  0x18, 0x00, 0x00, 0x00, 0x73, 0x65, 0x71, 0x75, 0x65, 0x6e, 0x74, 0x69,
  0x61, 0x6c, 0x2f, 0x66, 0x6c, 0x61, 0x74, 0x74, 0x65, 0x6e, 0x2f, 0x43,
  0x6f, 0x6e, 0x73, 0x74, 0x00, 0x00, 0x00, 0x00, 0x9c, 0xfe, 0xff, 0xff,
  0x92, 0xff, 0xff, 0xff, 0x04, 0x00, 0x00, 0x00, 0x10, 0x00, 0x00, 0x00,
  0x89, 0x26, 0x46, 0xc0, 0xfc, 0x3a, 0x12, 0xc0, 0xeb, 0x25, 0xf0, 0xbe,
  0x80, 0xa5, 0x3b, 0x40, 0x0a, 0xff, 0xff, 0xff, 0x10, 0x00, 0x00, 0x00,
  0x03, 0x00, 0x00, 0x00, 0x10, 0x00, 0x00, 0x00, 0x3c, 0x00, 0x00, 0x00,
  0x01, 0x00, 0x00, 0x00, 0x04, 0x00, 0x00, 0x00, 0x29, 0x00, 0x00, 0x00,
  0x73, 0x65, 0x71, 0x75, 0x65, 0x6e, 0x74, 0x69, 0x61, 0x6c, 0x2f, 0x64,
  0x65, 0x6e, 0x73, 0x65, 0x5f, 0x31, 0x2f, 0x42, 0x69, 0x61, 0x73, 0x41,
  0x64, 0x64, 0x2f, 0x52, 0x65, 0x61, 0x64, 0x56, 0x61, 0x72, 0x69, 0x61,
  0x62, 0x6c, 0x65, 0x4f, 0x70, 0x00, 0x00, 0x00, 0x60, 0xff, 0xff, 0xff,
  0x00, 0x00, 0x06, 0x00, 0x08, 0x00, 0x04, 0x00, 0x06, 0x00, 0x00, 0x00,
  0x04, 0x00, 0x00, 0x00, 0x40, 0x00, 0x00, 0x00, 0xe5, 0xa6, 0xab, 0x3e,
  0x24, 0x1e, 0x84, 0x3e, 0xeb, 0xef, 0x1c, 0xbf, 0x57, 0xfe, 0xe3, 0x3e,
  0x9b, 0x67, 0x19, 0x3d, 0xdb, 0xd1, 0x3a, 0x40, 0xd8, 0x39, 0x8e, 0x3f,
  0xa1, 0x59, 0x04, 0xbf, 0x57, 0xd9, 0x1f, 0x3d, 0x08, 0x3a, 0x08, 0x3e,
  0x75, 0x92, 0xc2, 0xbe, 0x6c, 0xca, 0x50, 0x3e, 0xec, 0x0c, 0x63, 0xbf,
  0x63, 0x73, 0x11, 0xbf, 0x55, 0x94, 0x7a, 0x40, 0x22, 0xc6, 0xc6, 0xbf,
  0xae, 0xff, 0xff, 0xff, 0x10, 0x00, 0x00, 0x00, 0x02, 0x00, 0x00, 0x00,
  0x10, 0x00, 0x00, 0x00, 0x3c, 0x00, 0x00, 0x00, 0x01, 0x00, 0x00, 0x00,
  0x10, 0x00, 0x00, 0x00, 0x27, 0x00, 0x00, 0x00, 0x73, 0x65, 0x71, 0x75,
  0x65, 0x6e, 0x74, 0x69, 0x61, 0x6c, 0x2f, 0x64, 0x65, 0x6e, 0x73, 0x65,
  0x2f, 0x42, 0x69, 0x61, 0x73, 0x41, 0x64, 0x64, 0x2f, 0x52, 0x65, 0x61,
  0x64, 0x56, 0x61, 0x72, 0x69, 0x61, 0x62, 0x6c, 0x65, 0x4f, 0x70, 0x00,
  0x04, 0x00, 0x06, 0x00, 0x04, 0x00, 0x00, 0x00, 0x00, 0x00, 0x0e, 0x00,
  0x14, 0x00, 0x04, 0x00, 0x00, 0x00, 0x08, 0x00, 0x0c, 0x00, 0x10, 0x00,
  0x0e, 0x00, 0x00, 0x00, 0x10, 0x00, 0x00, 0x00, 0x01, 0x00, 0x00, 0x00,
  0x1c, 0x00, 0x00, 0x00, 0x2c, 0x00, 0x00, 0x00, 0x04, 0x00, 0x00, 0x00,
  0x01, 0x00, 0x00, 0x00, 0x40, 0x00, 0x00, 0x00, 0x03, 0x00, 0x00, 0x00,
  0x01, 0x00, 0x00, 0x00, 0x0c, 0x00, 0x00, 0x00, 0x63, 0x6f, 0x6e, 0x76,
  0x32, 0x64, 0x5f, 0x69, 0x6e, 0x70, 0x75, 0x74, 0x00, 0x00, 0x00, 0x00,
  0xfc, 0xff, 0xff, 0xff, 0x04, 0x00, 0x04, 0x00, 0x04, 0x00, 0x00, 0x00
};

unsigned int model_tflite_len = 12384;// Fill the int in `src/model.cc` here