#include "magic_wand_model_data.h"

// We need to keep the data array aligned on some architectures.
#ifdef __has_attribute
#define HAVE_ATTRIBUTE(x) __has_attribute(x)
#else
#define HAVE_ATTRIBUTE(x) 0
#endif

#if HAVE_ATTRIBUTE(aligned) || (defined(__GNUC__) && !defined(__clang__))
#define DATA_ALIGN_ATTRIBUTE __attribute__((aligned(4)))
#else
#define DATA_ALIGN_ATTRIBUTE
#endif

const unsigned char g_magic_wand_model_data[] DATA_ALIGN_ATTRIBUTE = {
  // Paste the data of the char array in `src/model.cc` here
  0x08, 0x00, 0x00, 0x00, 0x54, 0x46, 0x4c, 0x33, 0x62, 0xff, 0xff, 0xff,
  0x03, 0x00, 0x00, 0x00, 0x10, 0x00, 0x00, 0x00, 0x24, 0x00, 0x00, 0x00,
  0x78, 0x00, 0x00, 0x00, 0x24, 0x00, 0x00, 0x00, 0x05, 0x00, 0x00, 0x00,
  0x78, 0x05, 0x00, 0x00, 0xb0, 0x04, 0x00, 0x00, 0xe0, 0x02, 0x00, 0x00,
  0x60, 0x02, 0x00, 0x00, 0x54, 0x01, 0x00, 0x00, 0x01, 0x00, 0x00, 0x00,
  0x78, 0x00, 0x00, 0x00, 0x13, 0x00, 0x00, 0x00, 0x18, 0x30, 0x00, 0x00,
  0x14, 0x30, 0x00, 0x00, 0x20, 0x2f, 0x00, 0x00, 0xa8, 0x2e, 0x00, 0x00,
  0x3c, 0x2e, 0x00, 0x00, 0xec, 0x11, 0x00, 0x00, 0x98, 0x10, 0x00, 0x00,
  0xbc, 0x0e, 0x00, 0x00, 0x60, 0x06, 0x00, 0x00, 0xfc, 0x05, 0x00, 0x00,
  0x78, 0x05, 0x00, 0x00, 0xec, 0x2f, 0x00, 0x00, 0xe8, 0x2f, 0x00, 0x00,
  0xe4, 0x2f, 0x00, 0x00, 0xe0, 0x2f, 0x00, 0x00, 0xdc, 0x2f, 0x00, 0x00,
  0xd8, 0x2f, 0x00, 0x00, 0xd4, 0x2f, 0x00, 0x00, 0xd0, 0x2f, 0x00, 0x00,
  0x0f, 0x00, 0x00, 0x00, 0x4d, 0x4c, 0x49, 0x52, 0x20, 0x43, 0x6f, 0x6e,
  0x76, 0x65, 0x72, 0x74, 0x65, 0x64, 0x2e, 0x00, 0x00, 0x00, 0x0e, 0x00,
  0x18, 0x00, 0x04, 0x00, 0x08, 0x00, 0x0c, 0x00, 0x10, 0x00, 0x14, 0x00,
  0x0e, 0x00, 0x00, 0x00, 0x14, 0x00, 0x00, 0x00, 0x5c, 0x00, 0x00, 0x00,
  0x60, 0x00, 0x00, 0x00, 0x64, 0x00, 0x00, 0x00, 0x84, 0x00, 0x00, 0x00,
  0x12, 0x00, 0x00, 0x00, 0x48, 0x2f, 0x00, 0x00, 0xe4, 0x2e, 0x00, 0x00,
  0x3c, 0x2e, 0x00, 0x00, 0xd8, 0x2d, 0x00, 0x00, 0x70, 0x2d, 0x00, 0x00,
  0x1c, 0x11, 0x00, 0x00, 0xc0, 0x0f, 0x00, 0x00, 0xe4, 0x0d, 0x00, 0x00,
  0xa0, 0x05, 0x00, 0x00, 0x3c, 0x05, 0x00, 0x00, 0xb0, 0x04, 0x00, 0x00,
  0xe8, 0x03, 0x00, 0x00, 0x38, 0x03, 0x00, 0x00, 0xa4, 0x02, 0x00, 0x00,
  0x10, 0x02, 0x00, 0x00, 0x90, 0x01, 0x00, 0x00, 0xfc, 0x00, 0x00, 0x00,
  0x80, 0x00, 0x00, 0x00, 0x01, 0x00, 0x00, 0x00, 0x00, 0x00, 0x00, 0x00,
  0x01, 0x00, 0x00, 0x00, 0x11, 0x00, 0x00, 0x00, 0x08, 0x00, 0x00, 0x00,
  0x1c, 0x04, 0x00, 0x00, 0x58, 0x03, 0x00, 0x00, 0xc8, 0x02, 0x00, 0x00,
  0x24, 0x02, 0x00, 0x00, 0xac, 0x01, 0x00, 0x00, 0x10, 0x01, 0x00, 0x00,
  0x94, 0x00, 0x00, 0x00, 0x10, 0x00, 0x00, 0x00, 0x04, 0x00, 0x00, 0x00,
  0x6d, 0x61, 0x69, 0x6e, 0x00, 0x00, 0x00, 0x00, 0x8e, 0xff, 0xff, 0xff,
  0x00, 0x00, 0x00, 0x09, 0x04, 0x00, 0x00, 0x00, 0x1c, 0x00, 0x00, 0x00,
  0x10, 0x00, 0x00, 0x00, 0x04, 0x00, 0x00, 0x00, 0x0a, 0xd2, 0xff, 0xff,
  0x00, 0x00, 0x80, 0x3f, 0x01, 0x00, 0x00, 0x00, 0x11, 0x00, 0x00, 0x00,
  0x01, 0x00, 0x00, 0x00, 0x10, 0x00, 0x00, 0x00, 0xf6, 0xfb, 0xff, 0xff,
  0x00, 0x00, 0x00, 0x19, 0x01, 0x00, 0x00, 0x00, 0x8a, 0xd1, 0xff, 0xff,
  0x10, 0x00, 0x00, 0x00, 0x12, 0x00, 0x00, 0x00, 0x14, 0x00, 0x00, 0x00,
  0x20, 0x00, 0x00, 0x00, 0x02, 0x00, 0x00, 0x00, 0x01, 0x00, 0x00, 0x00,
  0x04, 0x00, 0x00, 0x00, 0x08, 0x00, 0x00, 0x00, 0x49, 0x64, 0x65, 0x6e,
  0x74, 0x69, 0x74, 0x79, 0x00, 0x00, 0x00, 0x00, 0xc4, 0xd1, 0xff, 0xff,
  0x00, 0x00, 0x0e, 0x00, 0x18, 0x00, 0x08, 0x00, 0x0c, 0x00, 0x10, 0x00,
  0x07, 0x00, 0x14, 0x00, 0x0e, 0x00, 0x00, 0x00, 0x00, 0x00, 0x00, 0x08,
  0x03, 0x00, 0x00, 0x00, 0x18, 0x00, 0x00, 0x00, 0x0c, 0x00, 0x00, 0x00,
  0x04, 0x00, 0x00, 0x00, 0x98, 0xd1, 0xff, 0xff, 0x01, 0x00, 0x00, 0x00,
  0x10, 0x00, 0x00, 0x00, 0x03, 0x00, 0x00, 0x00, 0x0f, 0x00, 0x00, 0x00,
  0x05, 0x00, 0x00, 0x00, 0x02, 0x00, 0x00, 0x00, 0x02, 0xd2, 0xff, 0xff,
  0x10, 0x00, 0x00, 0x00, 0x11, 0x00, 0x00, 0x00, 0x14, 0x00, 0x00, 0x00,
  0x30, 0x00, 0x00, 0x00, 0x02, 0x00, 0x00, 0x00, 0x01, 0x00, 0x00, 0x00,
  0x04, 0x00, 0x00, 0x00, 0x1a, 0x00, 0x00, 0x00, 0x73, 0x65, 0x71, 0x75,
  0x65, 0x6e, 0x74, 0x69, 0x61, 0x6c, 0x2f, 0x64, 0x65, 0x6e, 0x73, 0x65,
  0x5f, 0x31, 0x2f, 0x42, 0x69, 0x61, 0x73, 0x41, 0x64, 0x64, 0x00, 0x00,
  0xf4, 0xd1, 0xff, 0xff, 0xd6, 0xfd, 0xff, 0xff, 0x00, 0x00, 0x00, 0x08,
  0x03, 0x00, 0x00, 0x00, 0x24, 0x00, 0x00, 0x00, 0x18, 0x00, 0x00, 0x00,
  0x0c, 0x00, 0x00, 0x00, 0x00, 0x00, 0x06, 0x00, 0x08, 0x00, 0x07, 0x00,
  0x06, 0x00, 0x00, 0x00, 0x00, 0x00, 0x00, 0x01, 0x01, 0x00, 0x00, 0x00,
  0x0f, 0x00, 0x00, 0x00, 0x03, 0x00, 0x00, 0x00, 0x0e, 0x00, 0x00, 0x00,
  0x04, 0x00, 0x00, 0x00, 0x01, 0x00, 0x00, 0x00, 0xfe, 0xfc, 0xff, 0xff,
  0x00, 0x00, 0x00, 0x09, 0x01, 0x00, 0x00, 0x00, 0x92, 0xd2, 0xff, 0xff,
  0x10, 0x00, 0x00, 0x00, 0x10, 0x00, 0x00, 0x00, 0x14, 0x00, 0x00, 0x00,
  0x2c, 0x00, 0x00, 0x00, 0x02, 0x00, 0x00, 0x00, 0x01, 0x00, 0x00, 0x00,
  0x10, 0x00, 0x00, 0x00, 0x15, 0x00, 0x00, 0x00, 0x73, 0x65, 0x71, 0x75,
  0x65, 0x6e, 0x74, 0x69, 0x61, 0x6c, 0x2f, 0x64, 0x65, 0x6e, 0x73, 0x65,
  0x2f, 0x52, 0x65, 0x6c, 0x75, 0x00, 0x00, 0x00, 0xd8, 0xd2, 0xff, 0xff,
  0x00, 0x00, 0x0a, 0x00, 0x10, 0x00, 0x04, 0x00, 0x08, 0x00, 0x0c, 0x00,
  0x0a, 0x00, 0x00, 0x00, 0x02, 0x00, 0x00, 0x00, 0x10, 0x00, 0x00, 0x00,
  0x04, 0x00, 0x00, 0x00, 0x01, 0x00, 0x00, 0x00, 0x0e, 0x00, 0x00, 0x00,
  0x02, 0x00, 0x00, 0x00, 0x0d, 0x00, 0x00, 0x00, 0x03, 0x00, 0x00, 0x00,
  0x7a, 0xfd, 0xff, 0xff, 0x00, 0x00, 0x00, 0x16, 0x01, 0x00, 0x00, 0x00,
  0x0e, 0xd3, 0xff, 0xff, 0x10, 0x00, 0x00, 0x00, 0x0f, 0x00, 0x00, 0x00,
  0x14, 0x00, 0x00, 0x00, 0x30, 0x00, 0x00, 0x00, 0x02, 0x00, 0x00, 0x00,
  0x01, 0x00, 0x00, 0x00, 0x70, 0x00, 0x00, 0x00, 0x1a, 0x00, 0x00, 0x00,
  0x73, 0x65, 0x71, 0x75, 0x65, 0x6e, 0x74, 0x69, 0x61, 0x6c, 0x2f, 0x66,
  0x6c, 0x61, 0x74, 0x74, 0x65, 0x6e, 0x2f, 0x52, 0x65, 0x73, 0x68, 0x61,
  0x70, 0x65, 0x00, 0x00, 0x00, 0xd3, 0xff, 0xff, 0xe2, 0xfe, 0xff, 0xff,
  0x00, 0x00, 0x00, 0x05, 0x01, 0x00, 0x00, 0x00, 0x38, 0x00, 0x00, 0x00,
  0x2c, 0x00, 0x00, 0x00, 0x14, 0x00, 0x00, 0x00, 0x00, 0x00, 0x0e, 0x00,
  0x14, 0x00, 0x00, 0x00, 0x10, 0x00, 0x0c, 0x00, 0x08, 0x00, 0x04, 0x00,
  0x0e, 0x00, 0x00, 0x00, 0x03, 0x00, 0x00, 0x00, 0x01, 0x00, 0x00, 0x00,
  0x03, 0x00, 0x00, 0x00, 0x01, 0x00, 0x00, 0x00, 0x01, 0x00, 0x00, 0x00,
  0x0d, 0x00, 0x00, 0x00, 0x01, 0x00, 0x00, 0x00, 0x0c, 0x00, 0x00, 0x00,
  0x9e, 0xd3, 0xff, 0xff, 0x10, 0x00, 0x00, 0x00, 0x0e, 0x00, 0x00, 0x00,
  0x1c, 0x00, 0x00, 0x00, 0x40, 0x00, 0x00, 0x00, 0x04, 0x00, 0x00, 0x00,
  0x01, 0x00, 0x00, 0x00, 0x07, 0x00, 0x00, 0x00, 0x01, 0x00, 0x00, 0x00,
  0x10, 0x00, 0x00, 0x00, 0x22, 0x00, 0x00, 0x00, 0x73, 0x65, 0x71, 0x75,
  0x65, 0x6e, 0x74, 0x69, 0x61, 0x6c, 0x2f, 0x6d, 0x61, 0x78, 0x5f, 0x70,
  0x6f, 0x6f, 0x6c, 0x69, 0x6e, 0x67, 0x32, 0x64, 0x5f, 0x31, 0x2f, 0x4d,
  0x61, 0x78, 0x50, 0x6f, 0x6f, 0x6c, 0x00, 0x00, 0xa0, 0xd3, 0xff, 0xff,
  0xc2, 0xfe, 0xff, 0xff, 0x00, 0x00, 0x00, 0x01, 0x24, 0x00, 0x00, 0x00,
  0x18, 0x00, 0x00, 0x00, 0x04, 0x00, 0x00, 0x00, 0xb4, 0xfe, 0xff, 0xff,
  0x01, 0x00, 0x00, 0x00, 0x01, 0x00, 0x00, 0x00, 0x00, 0x00, 0x00, 0x01,
  0x01, 0x00, 0x00, 0x00, 0x0c, 0x00, 0x00, 0x00, 0x03, 0x00, 0x00, 0x00,
  0x0b, 0x00, 0x00, 0x00, 0x07, 0x00, 0x00, 0x00, 0x09, 0x00, 0x00, 0x00,
  0x2e, 0xd4, 0xff, 0xff, 0x10, 0x00, 0x00, 0x00, 0x0d, 0x00, 0x00, 0x00,
  0x1c, 0x00, 0x00, 0x00, 0x2c, 0x00, 0x00, 0x00, 0x04, 0x00, 0x00, 0x00,
  0x01, 0x00, 0x00, 0x00, 0x15, 0x00, 0x00, 0x00, 0x01, 0x00, 0x00, 0x00,
  0x10, 0x00, 0x00, 0x00, 0x0c, 0x00, 0x00, 0x00, 0x74, 0x66, 0x6c, 0x2e,
  0x63, 0x6f, 0x6e, 0x76, 0x5f, 0x32, 0x64, 0x31, 0x00, 0x00, 0x00, 0x00,
  0x74, 0xd4, 0xff, 0xff, 0x00, 0x00, 0x0e, 0x00, 0x1a, 0x00, 0x08, 0x00,
  0x0c, 0x00, 0x10, 0x00, 0x07, 0x00, 0x14, 0x00, 0x0e, 0x00, 0x00, 0x00,
  0x00, 0x00, 0x00, 0x05, 0x01, 0x00, 0x00, 0x00, 0x3c, 0x00, 0x00, 0x00,
  0x30, 0x00, 0x00, 0x00, 0x14, 0x00, 0x00, 0x00, 0x00, 0x00, 0x0e, 0x00,
  0x18, 0x00, 0x17, 0x00, 0x10, 0x00, 0x0c, 0x00, 0x08, 0x00, 0x04, 0x00,
  0x0e, 0x00, 0x00, 0x00, 0x03, 0x00, 0x00, 0x00, 0x03, 0x00, 0x00, 0x00,
  0x03, 0x00, 0x00, 0x00, 0x03, 0x00, 0x00, 0x00, 0x00, 0x00, 0x00, 0x01,
  0x01, 0x00, 0x00, 0x00, 0x0b, 0x00, 0x00, 0x00, 0x01, 0x00, 0x00, 0x00,
  0x0a, 0x00, 0x00, 0x00, 0x46, 0xff, 0xff, 0xff, 0x00, 0x00, 0x00, 0x11,
  0x01, 0x00, 0x00, 0x00, 0xda, 0xd4, 0xff, 0xff, 0x10, 0x00, 0x00, 0x00,
  0x0c, 0x00, 0x00, 0x00, 0x1c, 0x00, 0x00, 0x00, 0x40, 0x00, 0x00, 0x00,
  0x04, 0x00, 0x00, 0x00, 0x01, 0x00, 0x00, 0x00, 0x15, 0x00, 0x00, 0x00,
  0x01, 0x00, 0x00, 0x00, 0x08, 0x00, 0x00, 0x00, 0x20, 0x00, 0x00, 0x00,
  0x73, 0x65, 0x71, 0x75, 0x65, 0x6e, 0x74, 0x69, 0x61, 0x6c, 0x2f, 0x6d,
  0x61, 0x78, 0x5f, 0x70, 0x6f, 0x6f, 0x6c, 0x69, 0x6e, 0x67, 0x32, 0x64,
  0x2f, 0x4d, 0x61, 0x78, 0x50, 0x6f, 0x6f, 0x6c, 0x00, 0x00, 0x00, 0x00,
  0x34, 0xd5, 0xff, 0xff, 0x00, 0x00, 0x0e, 0x00, 0x14, 0x00, 0x00, 0x00,
  0x08, 0x00, 0x0c, 0x00, 0x07, 0x00, 0x10, 0x00, 0x0e, 0x00, 0x00, 0x00,
  0x00, 0x00, 0x00, 0x01, 0x30, 0x00, 0x00, 0x00, 0x24, 0x00, 0x00, 0x00,
  0x10, 0x00, 0x00, 0x00, 0x0c, 0x00, 0x10, 0x00, 0x00, 0x00, 0x04, 0x00,
  0x08, 0x00, 0x0f, 0x00, 0x0c, 0x00, 0x00, 0x00, 0x01, 0x00, 0x00, 0x00,
  0x01, 0x00, 0x00, 0x00, 0x00, 0x00, 0x00, 0x01, 0x01, 0x00, 0x00, 0x00,
  0x0a, 0x00, 0x00, 0x00, 0x03, 0x00, 0x00, 0x00, 0x00, 0x00, 0x00, 0x00,
  0x06, 0x00, 0x00, 0x00, 0x08, 0x00, 0x00, 0x00, 0x00, 0x00, 0x0a, 0x00,
  0x0c, 0x00, 0x07, 0x00, 0x00, 0x00, 0x08, 0x00, 0x0a, 0x00, 0x00, 0x00,
  0x00, 0x00, 0x00, 0x03, 0x01, 0x00, 0x00, 0x00, 0x9e, 0xd5, 0xff, 0xff,
  0x10, 0x00, 0x00, 0x00, 0x0b, 0x00, 0x00, 0x00, 0x1c, 0x00, 0x00, 0x00,
  0x28, 0x00, 0x00, 0x00, 0x04, 0x00, 0x00, 0x00, 0x01, 0x00, 0x00, 0x00,
  0x40, 0x00, 0x00, 0x00, 0x03, 0x00, 0x00, 0x00, 0x08, 0x00, 0x00, 0x00,
  0x0b, 0x00, 0x00, 0x00, 0x74, 0x66, 0x6c, 0x2e, 0x63, 0x6f, 0x6e, 0x76,
  0x5f, 0x32, 0x64, 0x00, 0x88, 0xd5, 0xff, 0xff, 0x7e, 0xd6, 0xff, 0xff,
  0x04, 0x00, 0x00, 0x00, 0x40, 0x00, 0x00, 0x00, 0x5f, 0x39, 0x2a, 0xc0,
  0xeb, 0x49, 0xb8, 0xbd, 0x04, 0x9b, 0x05, 0xc0, 0xb3, 0x8b, 0x1c, 0xbf,
  0x8f, 0x7e, 0x60, 0xc0, 0x9c, 0xb1, 0x17, 0xc0, 0xa9, 0xa1, 0x34, 0xc0,
  0xbd, 0x6c, 0x10, 0xc0, 0xb0, 0xc1, 0x81, 0x3e, 0x4f, 0xaf, 0x80, 0xbd,
  0x78, 0x7c, 0xc4, 0x3c, 0x8a, 0x08, 0x84, 0xbd, 0x13, 0xfb, 0xf7, 0xbf,
  0x17, 0xca, 0xb6, 0xbf, 0xfd, 0x2f, 0xb9, 0xbf, 0x55, 0x34, 0xbb, 0xbc,
  0x26, 0xd6, 0xff, 0xff, 0x10, 0x00, 0x00, 0x00, 0x0a, 0x00, 0x00, 0x00,
  0x10, 0x00, 0x00, 0x00, 0x20, 0x00, 0x00, 0x00, 0x01, 0x00, 0x00, 0x00,
  0x10, 0x00, 0x00, 0x00, 0x0d, 0x00, 0x00, 0x00, 0x73, 0x74, 0x64, 0x2e,
  0x63, 0x6f, 0x6e, 0x73, 0x74, 0x61, 0x6e, 0x74, 0x31, 0x00, 0x00, 0x00,
  0x08, 0xd6, 0xff, 0xff, 0xfe, 0xd6, 0xff, 0xff, 0x04, 0x00, 0x00, 0x00,
  0x20, 0x00, 0x00, 0x00, 0x7d, 0x13, 0xe5, 0xbe, 0x45, 0x80, 0x59, 0x3e,
  0x57, 0xd5, 0x44, 0xc0, 0xbf, 0xfc, 0x2b, 0x3c, 0x60, 0xa4, 0x40, 0xc0,
  0xf4, 0x4b, 0x0d, 0xc0, 0x75, 0x5d, 0x5a, 0xbe, 0xfb, 0xa3, 0x41, 0xc0,
  0x86, 0xd6, 0xff, 0xff, 0x10, 0x00, 0x00, 0x00, 0x09, 0x00, 0x00, 0x00,
  0x10, 0x00, 0x00, 0x00, 0x20, 0x00, 0x00, 0x00, 0x01, 0x00, 0x00, 0x00,
  0x08, 0x00, 0x00, 0x00, 0x0c, 0x00, 0x00, 0x00, 0x73, 0x74, 0x64, 0x2e,
  0x63, 0x6f, 0x6e, 0x73, 0x74, 0x61, 0x6e, 0x74, 0x00, 0x00, 0x00, 0x00,
  0x68, 0xd6, 0xff, 0xff, 0x5e, 0xd7, 0xff, 0xff, 0x04, 0x00, 0x00, 0x00,
  0x00, 0x08, 0x00, 0x00, 0xc4, 0xe0, 0x88, 0xbd, 0x02, 0x7d, 0x1a, 0x3e,
  0x1a, 0xde, 0x2d, 0xbe, 0xc0, 0x35, 0xbf, 0xbd, 0x31, 0x40, 0x97, 0xbe,
  0x57, 0xc6, 0x1b, 0xbe, 0xac, 0x9b, 0x42, 0xbe, 0xf9, 0xf8, 0x39, 0xbd,
  0xaa, 0xca, 0x4d, 0xbe, 0x16, 0x8a, 0x8e, 0xbd, 0xc9, 0xc7, 0x0e, 0xbd,
  0xe9, 0x67, 0xd0, 0xbd, 0xd0, 0x81, 0x32, 0x3f, 0x71, 0xbe, 0xf8, 0xbd,
  0xad, 0x32, 0x06, 0xbe, 0x46, 0xee, 0x67, 0xbc, 0x73, 0xad, 0x35, 0xbe,
  0xec, 0x03, 0xe1, 0xbd, 0x81, 0x93, 0xfb, 0xbb, 0x5f, 0x9f, 0xac, 0x3d,
  0x2b, 0xbb, 0x8a, 0x3e, 0x5a, 0x3b, 0xb9, 0xbd, 0xb6, 0x8a, 0xba, 0x3d,
  0x83, 0xa8, 0x6c, 0x3d, 0x96, 0x13, 0x95, 0xbe, 0xf2, 0x07, 0xd2, 0xbe,
  0xcf, 0x70, 0xc3, 0x3d, 0x58, 0x32, 0x97, 0xbd, 0xe1, 0x2d, 0x8b, 0xbe,
  0xa6, 0x77, 0x43, 0xbd, 0xc6, 0x88, 0xdc, 0xbb, 0xa7, 0xff, 0x82, 0xbd,
  0x56, 0x51, 0x47, 0xbd, 0xfe, 0xd6, 0x4b, 0xbe, 0x29, 0xd8, 0x30, 0x3e,
  0x70, 0xc5, 0x80, 0x3e, 0xea, 0xb4, 0xc6, 0xbd, 0x58, 0xb6, 0xc3, 0x3e,
  0x9a, 0xe6, 0x7a, 0xbd, 0xea, 0xc3, 0xc2, 0xbd, 0xcd, 0x26, 0x17, 0xbd,
  0x29, 0xf0, 0x5e, 0xbc, 0x08, 0xfd, 0x20, 0xbb, 0x2d, 0xab, 0xad, 0x3d,
  0x44, 0xf9, 0x4a, 0xbd, 0x0f, 0xc7, 0xb8, 0x3d, 0x8d, 0xf8, 0xa4, 0xbe,
  0xe0, 0x9e, 0xc9, 0xbe, 0xdc, 0x2b, 0x06, 0xbd, 0x67, 0xe7, 0x13, 0x3d,
  0xdd, 0xca, 0x50, 0x3d, 0xe2, 0x8d, 0x13, 0xbc, 0xab, 0x07, 0x92, 0x3c,
  0xeb, 0xff, 0xe5, 0x3d, 0x6f, 0xa7, 0xa6, 0xbe, 0x3a, 0xac, 0xc3, 0xbe,
  0x67, 0x36, 0x10, 0x3d, 0x3a, 0x36, 0x1d, 0x3e, 0xd1, 0xed, 0x9d, 0x3d,
  0x29, 0x98, 0xb1, 0xbd, 0x8c, 0xb6, 0x14, 0x3d, 0x29, 0x83, 0xa7, 0x3d,
  0x6b, 0x0b, 0x96, 0xbe, 0x99, 0xbc, 0x99, 0xbe, 0xd6, 0x53, 0xf3, 0xbe,
  0x25, 0x3f, 0x80, 0xbd, 0x9e, 0x26, 0x73, 0x3e, 0xc7, 0xd3, 0x9a, 0x3e,
  0xba, 0x7e, 0xac, 0x3e, 0x7d, 0x7a, 0x8b, 0x3d, 0x2a, 0x5e, 0x10, 0x3e,
  0x86, 0x76, 0x87, 0x3e, 0x2a, 0xff, 0xf0, 0xbe, 0x5f, 0xd5, 0xae, 0xbe,
  0xaf, 0xcb, 0x2c, 0xbc, 0x4e, 0x96, 0x8d, 0xbd, 0x79, 0xb8, 0x0b, 0xbf,
  0x3f, 0xdf, 0xa7, 0x3d, 0x40, 0xeb, 0x85, 0x3b, 0xa7, 0xfe, 0x1a, 0xbe,
  0xce, 0xf4, 0x41, 0xbe, 0x8e, 0x53, 0xcd, 0xbd, 0xb6, 0x1b, 0x05, 0x3e,
  0x54, 0x12, 0xb5, 0xbd, 0x0c, 0x08, 0xa2, 0xbe, 0x65, 0xdd, 0x35, 0x3e,
  0xcb, 0xda, 0xa6, 0xbd, 0xa1, 0xf3, 0x43, 0xbe, 0x0e, 0x43, 0x2b, 0x3c,
  0xe8, 0x0d, 0xac, 0x3e, 0x82, 0x51, 0x1a, 0x3e, 0xb5, 0xf3, 0x4d, 0xbe,
  0x09, 0x47, 0x7b, 0xbe, 0x43, 0x94, 0x89, 0x3d, 0x87, 0x36, 0xeb, 0xbd,
  0x8b, 0x93, 0x58, 0xbe, 0xc3, 0xba, 0xfa, 0xbd, 0x4c, 0x40, 0xe7, 0x3d,
  0x26, 0xc7, 0x44, 0xbf, 0xdc, 0x58, 0xef, 0xbe, 0x12, 0xdf, 0x7a, 0xbf,
  0x85, 0x25, 0x6f, 0xbe, 0xfb, 0x03, 0xb1, 0xbe, 0xe2, 0xee, 0x0c, 0xbe,
  0x80, 0x43, 0xdd, 0xbd, 0x68, 0x68, 0x0a, 0xbd, 0x3a, 0xf2, 0x52, 0x3d,
  0x02, 0x99, 0xaa, 0xbe, 0xa7, 0xe8, 0xbc, 0xbf, 0x71, 0x9c, 0x7a, 0x3e,
  0x06, 0x3a, 0x84, 0xbe, 0x23, 0xbb, 0x80, 0x3d, 0xc5, 0xc7, 0xd7, 0x3d,
  0x5f, 0x21, 0x03, 0x3e, 0x37, 0x1b, 0x68, 0x3e, 0x5a, 0xf5, 0x46, 0xbf,
  0xf1, 0x10, 0xf3, 0x3c, 0x42, 0xde, 0x57, 0x3e, 0x64, 0xc4, 0xe9, 0xbc,
  0x19, 0x3c, 0xbd, 0xbe, 0x29, 0x52, 0x10, 0xbd, 0xe4, 0x08, 0x60, 0x3c,
  0xe9, 0x95, 0x9f, 0x3d, 0x5a, 0xf4, 0x9a, 0x3e, 0xa0, 0xa6, 0x51, 0x3e,
  0x13, 0x0a, 0xef, 0x3d, 0xd8, 0x90, 0xd8, 0xbd, 0x31, 0x9d, 0x8a, 0xbe,
  0x9f, 0xfc, 0xb0, 0xbd, 0xf5, 0x50, 0x88, 0xbd, 0xe3, 0xfc, 0xb8, 0x3e,
  0xaf, 0x69, 0x45, 0xbe, 0x4b, 0x9c, 0xbc, 0xbe, 0xde, 0xa7, 0x1e, 0x3f,
  0xb7, 0xf3, 0xa6, 0xbd, 0xb6, 0xcb, 0x9b, 0x3c, 0xed, 0x8a, 0x5c, 0x3d,
  0x07, 0x7d, 0x51, 0xbd, 0x45, 0xa6, 0x11, 0x3e, 0xfc, 0x3a, 0xb6, 0xbe,
  0xe4, 0x38, 0x0c, 0xbd, 0xd8, 0xec, 0x9c, 0x3e, 0x62, 0x8f, 0xcc, 0xbb,
  0x34, 0x1f, 0x09, 0xbe, 0x7d, 0xcc, 0x1e, 0xbb, 0x88, 0x6f, 0xdd, 0xbb,
  0x36, 0xc6, 0x30, 0xbf, 0x3e, 0x92, 0xeb, 0xba, 0x38, 0x3e, 0x3a, 0x3e,
  0x3b, 0x34, 0x44, 0xbf, 0x02, 0xe6, 0x4b, 0xbc, 0x8b, 0xf1, 0x12, 0xbe,
  0x95, 0x4a, 0xbe, 0xbd, 0x0c, 0x54, 0x9b, 0x3c, 0xdf, 0x03, 0xce, 0xbe,
  0xa9, 0xcb, 0x58, 0x3e, 0x29, 0xb4, 0xfc, 0x3d, 0xa9, 0x1d, 0x9a, 0xbe,
  0xbb, 0xba, 0x29, 0xbc, 0x45, 0x86, 0xfa, 0x3d, 0x0b, 0xf8, 0xcf, 0x3e,
  0xa1, 0x33, 0x76, 0x3e, 0xff, 0xf0, 0x98, 0x3d, 0xd7, 0xde, 0x91, 0xbe,
  0xd4, 0x74, 0xb3, 0x3e, 0x40, 0x7c, 0x2f, 0xbe, 0x17, 0xa0, 0xcb, 0x3e,
  0x95, 0x0b, 0xc1, 0xbe, 0x43, 0xe6, 0x88, 0xbe, 0x08, 0x14, 0xa9, 0xbc,
  0x05, 0x56, 0x29, 0xbf, 0x96, 0x25, 0xea, 0x3c, 0xa9, 0x03, 0xc7, 0x3d,
  0xf2, 0x90, 0xdf, 0xbe, 0x19, 0xb1, 0x19, 0xbe, 0xfe, 0xe2, 0x14, 0xbe,
  0x60, 0x5d, 0x0b, 0xbf, 0x63, 0x45, 0x3d, 0x3c, 0xff, 0x9f, 0x85, 0x3c,
  0x47, 0xe3, 0xaf, 0x3d, 0x98, 0x65, 0x19, 0xbe, 0x2d, 0x80, 0x54, 0xbd,
  0x54, 0x6e, 0x59, 0xbe, 0x19, 0xe4, 0xa9, 0xbc, 0x1b, 0xda, 0xe2, 0xbe,
  0x4a, 0x93, 0x33, 0xbe, 0x7d, 0x2a, 0x4d, 0x3e, 0x5c, 0xad, 0xb6, 0x3d,
  0xfb, 0x17, 0x9e, 0xbe, 0x74, 0xe8, 0xac, 0x3e, 0x4f, 0x0e, 0x5c, 0xbe,
  0x53, 0x31, 0x14, 0x3e, 0x2e, 0x64, 0x14, 0xbe, 0xfa, 0xaa, 0xdb, 0xbc,
  0xcf, 0x03, 0xcd, 0xbe, 0xdf, 0x35, 0x46, 0xbe, 0xe9, 0x8d, 0x69, 0xbe,
  0x72, 0xde, 0xdb, 0xbe, 0x81, 0xcc, 0x11, 0xbd, 0xff, 0x6a, 0x61, 0xbd,
  0xd0, 0xde, 0x54, 0xbe, 0x7f, 0xfe, 0xd0, 0xbd, 0xed, 0x76, 0x23, 0xbf,
  0x6c, 0xd1, 0x20, 0xbe, 0x30, 0xea, 0x38, 0xbe, 0x51, 0xdc, 0x26, 0xbf,
  0x04, 0xaa, 0xfa, 0xbd, 0x6f, 0x76, 0x29, 0xbd, 0xfb, 0xfd, 0x06, 0xbe,
  0x90, 0xe0, 0x37, 0xbd, 0xae, 0x6f, 0x30, 0x3e, 0x88, 0x7a, 0x8c, 0xbd,
  0xe9, 0xd2, 0xa1, 0x3e, 0x8a, 0x20, 0xb7, 0x3e, 0x77, 0x66, 0x06, 0xbe,
  0x76, 0xd7, 0xe3, 0x3c, 0xd3, 0x65, 0xa8, 0x3e, 0x5f, 0xc4, 0x86, 0xbd,
  0x82, 0x65, 0xa1, 0x3d, 0xce, 0x22, 0x8f, 0x3b, 0x98, 0x5e, 0x0f, 0x3e,
  0x46, 0x90, 0xeb, 0x3e, 0x39, 0x5f, 0xa3, 0x3d, 0xba, 0x4d, 0x7c, 0x3d,
  0x2d, 0x7f, 0xa4, 0xbd, 0x30, 0x75, 0x38, 0xbd, 0xc7, 0x8e, 0x3e, 0x3f,
  0x20, 0x9a, 0x38, 0xbd, 0x4d, 0xd1, 0xb3, 0xba, 0x17, 0xb7, 0x46, 0x3e,
  0xa2, 0xa2, 0x2f, 0xbd, 0x09, 0xbc, 0x04, 0xbd, 0x38, 0xc4, 0xb6, 0xbd,
  0x6d, 0x07, 0xf8, 0xbb, 0xcb, 0x68, 0x98, 0xbe, 0xa4, 0x66, 0x5e, 0x3c,
  0x9f, 0x8c, 0x0d, 0x3e, 0x4d, 0x8f, 0xbc, 0xbe, 0xf1, 0x53, 0x3a, 0xbd,
  0xcc, 0xb5, 0x47, 0xbd, 0x9b, 0xd6, 0xab, 0xbd, 0x08, 0x44, 0x16, 0xbd,
  0x34, 0x0a, 0xae, 0xbd, 0x17, 0x8d, 0x64, 0xbc, 0x7b, 0xa7, 0xb1, 0xbd,
  0xf0, 0x0c, 0x94, 0x3e, 0x65, 0x27, 0x05, 0xbe, 0x5a, 0x38, 0x46, 0xbd,
  0xac, 0x0a, 0xdd, 0xbc, 0x3d, 0xdc, 0x2d, 0xbd, 0xf5, 0xc5, 0xc2, 0x3d,
  0x78, 0x3f, 0x6b, 0x3c, 0x7d, 0x62, 0xb7, 0xbe, 0x91, 0x0c, 0x42, 0xbc,
  0xfe, 0x54, 0x5c, 0xbd, 0x11, 0x45, 0x7b, 0xbd, 0xef, 0xcb, 0xa4, 0xbe,
  0x45, 0xeb, 0xba, 0xbe, 0x22, 0xe4, 0x63, 0x3d, 0xcd, 0x16, 0x2f, 0xbd,
  0x51, 0xcc, 0x3e, 0xbd, 0x98, 0x72, 0x57, 0xbd, 0xa4, 0x14, 0x35, 0xbe,
  0x67, 0x6b, 0xe9, 0xbd, 0x0e, 0xc2, 0x24, 0xbe, 0x78, 0x65, 0x91, 0xbe,
  0x90, 0xfa, 0xfd, 0xbc, 0xa7, 0x33, 0x67, 0x3e, 0xae, 0x8c, 0x89, 0x3d,
  0x12, 0xa4, 0x12, 0xbd, 0xfa, 0x6b, 0x6a, 0x3e, 0xbf, 0xa3, 0xf2, 0x3d,
  0xda, 0xa0, 0x19, 0x3d, 0x00, 0x75, 0xac, 0xbe, 0x7b, 0x12, 0xb5, 0x3d,
  0x6c, 0xc4, 0x59, 0xbd, 0xcc, 0xdc, 0x7c, 0x3d, 0xe9, 0x65, 0xea, 0x3d,
  0x61, 0x0b, 0xb6, 0x3d, 0xbe, 0x87, 0xe8, 0xbd, 0x94, 0x5c, 0x99, 0xbd,
  0x2e, 0x12, 0x7d, 0xbe, 0x5a, 0xbe, 0xf5, 0xbc, 0xec, 0x9c, 0xc8, 0x3d,
  0x9e, 0xc9, 0x8b, 0x3d, 0x77, 0xe5, 0x05, 0x3d, 0xc8, 0xe6, 0x99, 0x3e,
  0x27, 0xfc, 0xbb, 0xbb, 0x20, 0x01, 0x4a, 0xbd, 0x99, 0xa8, 0xb0, 0x3e,
  0x44, 0x65, 0x63, 0xbd, 0xe0, 0x95, 0xf4, 0xbc, 0x4a, 0xc1, 0x3e, 0xbe,
  0x8b, 0x29, 0xd0, 0x3a, 0x0a, 0x10, 0xe2, 0xbc, 0xd3, 0x9c, 0x19, 0x3d,
  0x26, 0x49, 0x93, 0xbd, 0xd7, 0x05, 0x25, 0x3d, 0xa3, 0x35, 0x8f, 0xbd,
  0x81, 0xf0, 0x91, 0xbd, 0xba, 0x7a, 0x55, 0x39, 0x34, 0x0b, 0x1a, 0xbd,
  0x1f, 0x00, 0x48, 0x3c, 0xd2, 0xd9, 0xa5, 0x3e, 0xe8, 0xc6, 0x06, 0xbd,
  0xe9, 0x7d, 0x64, 0x3b, 0xfc, 0x9d, 0x96, 0xbd, 0xdb, 0x09, 0x86, 0x3e,
  0x39, 0xc2, 0x6a, 0x3d, 0xca, 0x54, 0x0a, 0xbd, 0x4e, 0xfb, 0x82, 0x3c,
  0x71, 0xa7, 0x2e, 0xbd, 0x01, 0xf1, 0x08, 0x3d, 0xd0, 0x60, 0x8e, 0x3c,
  0x3b, 0x0b, 0xf7, 0xbd, 0xba, 0xde, 0xa8, 0xbd, 0xd3, 0x06, 0xe9, 0x3c,
  0x29, 0x80, 0xdc, 0xbc, 0xee, 0xb3, 0x6c, 0xbc, 0x9e, 0x8d, 0xbe, 0x3b,
  0x1c, 0x26, 0x7f, 0x3e, 0x93, 0x13, 0x46, 0x3d, 0xb6, 0xb2, 0x87, 0xbe,
  0x96, 0x7c, 0x56, 0x3d, 0xf0, 0x7e, 0xc6, 0xbd, 0x91, 0x51, 0xa6, 0xbe,
  0xb4, 0xf9, 0xf7, 0x3d, 0xc0, 0x9e, 0x6a, 0xbe, 0x1b, 0x0e, 0xb9, 0x3e,
  0x47, 0x53, 0xf1, 0xbd, 0xd0, 0xbe, 0x31, 0x3e, 0xd4, 0x62, 0xdb, 0xbc,
  0x39, 0x23, 0x11, 0x3d, 0xda, 0xc3, 0x5f, 0x3e, 0x33, 0xd8, 0x51, 0xbd,
  0x60, 0x97, 0x82, 0xbe, 0x0d, 0x21, 0xbf, 0xbd, 0x0a, 0x90, 0x06, 0x3c,
  0xc1, 0xa0, 0xba, 0xbc, 0x96, 0x15, 0x1a, 0x3e, 0x60, 0x0f, 0x68, 0xbd,
  0x03, 0x75, 0xd6, 0xbd, 0x9e, 0x09, 0xb5, 0x3d, 0xb6, 0xdc, 0x51, 0xbe,
  0xf6, 0x2d, 0x8d, 0xbd, 0x59, 0xee, 0xbb, 0x3c, 0x95, 0xb4, 0x7d, 0xbd,
  0xe1, 0xa9, 0xab, 0x3e, 0x3e, 0x35, 0x24, 0xbc, 0x81, 0xa7, 0xfd, 0x3d,
  0xdd, 0x14, 0x2e, 0xbd, 0x94, 0x4f, 0xbe, 0xbd, 0x99, 0x1f, 0x2a, 0x3e,
  0x74, 0x7c, 0xa3, 0x3e, 0x43, 0x86, 0xea, 0x3d, 0x89, 0x0a, 0xba, 0xbe,
  0x88, 0x6a, 0x15, 0x3e, 0xe1, 0x58, 0x24, 0x3e, 0x0a, 0xc4, 0x77, 0xbe,
  0x63, 0x24, 0xe0, 0xbe, 0xb6, 0x99, 0xd6, 0x3d, 0x02, 0x89, 0xdb, 0xbd,
  0x9d, 0x9f, 0x9f, 0x3c, 0x75, 0x76, 0x8d, 0x3e, 0xe6, 0xce, 0xc3, 0x3d,
  0x0c, 0xc1, 0xf5, 0x3d, 0xb5, 0xf4, 0x81, 0xbe, 0xef, 0xdd, 0xc8, 0xbe,
  0x97, 0x06, 0x03, 0xbd, 0x8c, 0xc2, 0xc0, 0x3c, 0x76, 0x5d, 0x98, 0x3d,
  0xea, 0x93, 0x4e, 0x3d, 0x59, 0x0e, 0xf1, 0x3d, 0x33, 0xc8, 0x4c, 0x3e,
  0xd4, 0x2e, 0x92, 0xbe, 0xdb, 0xcc, 0x6b, 0xbe, 0xc1, 0x8b, 0x6f, 0xbd,
  0xe2, 0x5d, 0x18, 0xbe, 0x30, 0xd0, 0xc0, 0x3c, 0xb1, 0x87, 0xf4, 0x3e,
  0x8d, 0xe0, 0x29, 0x3a, 0xfd, 0xc4, 0x9c, 0x3d, 0x05, 0xef, 0x91, 0xbe,
  0x3f, 0x41, 0x16, 0xbe, 0x40, 0xb1, 0x5b, 0xbd, 0x9d, 0x49, 0xf6, 0xbd,
  0x3e, 0xfa, 0xa8, 0x3d, 0x07, 0x47, 0x85, 0xbe, 0x3f, 0x6d, 0xab, 0x3d,
  0xd8, 0xa6, 0x03, 0x3f, 0xd5, 0xa8, 0xe5, 0xbd, 0xa5, 0xb5, 0x6d, 0xbe,
  0x34, 0xcc, 0x62, 0x3d, 0x68, 0x84, 0xa6, 0xbd, 0x23, 0xf3, 0x9b, 0xbe,
  0xf9, 0x4e, 0x59, 0xbe, 0x1c, 0x5d, 0x69, 0x3d, 0x58, 0x2f, 0xe6, 0x3e,
  0xb6, 0xa0, 0xcb, 0xbd, 0x03, 0xc7, 0x84, 0xbe, 0xf8, 0xb9, 0xae, 0x3c,
  0x3c, 0x6c, 0x2e, 0xbc, 0x89, 0x28, 0x3d, 0x3e, 0xa8, 0x50, 0x3c, 0x3e,
  0x63, 0x68, 0x1c, 0x3e, 0x82, 0x7a, 0xad, 0xbe, 0x45, 0xda, 0xb2, 0xbd,
  0x8b, 0xfc, 0x0b, 0xbd, 0x82, 0x3a, 0xd6, 0x3d, 0xae, 0xfa, 0xbd, 0xbc,
  0xff, 0x4d, 0x0e, 0x3d, 0x16, 0x48, 0x36, 0xbd, 0x4c, 0x7b, 0x7e, 0x3d,
  0xe6, 0x4f, 0xa6, 0x3e, 0x19, 0x3d, 0x93, 0xbc, 0x57, 0x56, 0x9a, 0xbd,
  0x50, 0xda, 0x56, 0xbd, 0x6f, 0x94, 0x4a, 0xbe, 0x74, 0x55, 0x8b, 0x3e,
  0x1f, 0x39, 0x45, 0x3e, 0x6d, 0xbe, 0x8f, 0x3d, 0x57, 0x3e, 0x10, 0x3e,
  0xe5, 0x6f, 0x05, 0x3d, 0x30, 0x76, 0x92, 0x3e, 0x4c, 0xef, 0x6b, 0xbe,
  0x79, 0xe8, 0xf9, 0xbe, 0xd9, 0x80, 0x77, 0x3c, 0x72, 0xc9, 0xa3, 0xbc,
  0xd5, 0x0b, 0x9a, 0x3c, 0xbd, 0x61, 0xca, 0xbc, 0x15, 0x6d, 0x4d, 0x3e,
  0x34, 0xef, 0xc1, 0xbc, 0x03, 0xd7, 0x67, 0xbe, 0xf7, 0xab, 0x35, 0x3c,
  0xdd, 0x7f, 0x20, 0x3e, 0x54, 0xff, 0x1b, 0xbe, 0xd4, 0x1f, 0x84, 0xbe,
  0x69, 0x02, 0x1c, 0x3e, 0x89, 0x4e, 0x21, 0x3d, 0x30, 0xe5, 0xaa, 0xbe,
  0xf3, 0x9b, 0x02, 0xbe, 0xea, 0x91, 0x83, 0xbd, 0xb6, 0xd1, 0x67, 0x3e,
  0xc0, 0x0f, 0xa2, 0xbe, 0x38, 0x92, 0x91, 0xbe, 0x76, 0xd8, 0x0e, 0x3e,
  0x76, 0x0c, 0x4b, 0xbd, 0x87, 0xdc, 0xfa, 0xbe, 0xb4, 0x0b, 0xba, 0xbe,
  0x09, 0x2a, 0x1e, 0xbe, 0x52, 0x00, 0xf4, 0x3c, 0x2b, 0x2c, 0xf5, 0xbd,
  0x77, 0x45, 0x9b, 0xbc, 0x75, 0x13, 0xb3, 0xbd, 0x09, 0x1d, 0xc2, 0xbd,
  0x2d, 0x7c, 0x45, 0xbe, 0x64, 0xc7, 0x8b, 0xbe, 0xc2, 0x76, 0x85, 0xbe,
  0x4e, 0x36, 0xe6, 0x3d, 0x60, 0xda, 0xdc, 0xbd, 0x89, 0x4f, 0x17, 0x3d,
  0x32, 0xc9, 0x34, 0x3e, 0xd3, 0x82, 0x41, 0xbe, 0x4d, 0x3a, 0x53, 0xbe,
  0x93, 0xa3, 0xca, 0xbd, 0x03, 0xb7, 0x36, 0xbf, 0xa6, 0x8e, 0x31, 0x3f,
  0x16, 0xfc, 0x80, 0xbd, 0xfd, 0x20, 0x8b, 0x3d, 0xdb, 0xb3, 0x11, 0x3e,
  0xdc, 0x4f, 0x3c, 0xbc, 0x05, 0x79, 0x40, 0x3e, 0x9e, 0x1e, 0x80, 0xbd,
  0x63, 0x4e, 0x86, 0xbe, 0xa9, 0x5d, 0x89, 0xbd, 0x46, 0xbd, 0xdb, 0xbe,
  0x04, 0xf4, 0xd7, 0xbd, 0x2e, 0x63, 0x24, 0x3d, 0x3f, 0x99, 0x19, 0x3e,
  0x3b, 0x00, 0xb3, 0x3d, 0x7b, 0x7f, 0x54, 0xbd, 0xf7, 0x21, 0xb2, 0x3d,
  0xd6, 0x11, 0xdb, 0xbd, 0x31, 0x98, 0xae, 0xbe, 0xb1, 0x5b, 0xbf, 0x3d,
  0x3b, 0x39, 0x9b, 0xbd, 0xf3, 0x3c, 0x74, 0x3c, 0x13, 0x53, 0x85, 0xbd,
  0x68, 0x2c, 0x57, 0x3d, 0x1a, 0xa2, 0xae, 0x3d, 0x0e, 0x7f, 0x4d, 0xbe,
  0xf0, 0x9c, 0x41, 0xbf, 0xa6, 0x77, 0xd6, 0x3d, 0x71, 0x3f, 0x71, 0xbe,
  0xfc, 0x17, 0x42, 0x3d, 0x79, 0xab, 0x1b, 0x3e, 0xc8, 0x34, 0x88, 0x3d,
  0x3d, 0xc5, 0xcd, 0xbd, 0x95, 0x75, 0xd1, 0xbd, 0x3e, 0xaf, 0x13, 0xbf,
  0x59, 0xab, 0xd6, 0x3d, 0x2f, 0xee, 0x26, 0xbe, 0x35, 0x0b, 0x5a, 0xbe,
  0xc2, 0xbb, 0x55, 0xbe, 0x7d, 0x43, 0x04, 0x3b, 0x52, 0xba, 0x76, 0xbe,
  0xae, 0xea, 0x92, 0xbd, 0x02, 0x6e, 0x76, 0xbe, 0xe5, 0x81, 0xd3, 0xbd,
  0x2e, 0x07, 0x08, 0x3d, 0x91, 0x71, 0x09, 0xbe, 0xc0, 0xf9, 0x8a, 0xbd,
  0xc6, 0xde, 0xff, 0xff, 0x10, 0x00, 0x00, 0x00, 0x08, 0x00, 0x00, 0x00,
  0x1c, 0x00, 0x00, 0x00, 0x38, 0x00, 0x00, 0x00, 0x04, 0x00, 0x00, 0x00,
  0x10, 0x00, 0x00, 0x00, 0x04, 0x00, 0x00, 0x00, 0x01, 0x00, 0x00, 0x00,
  0x08, 0x00, 0x00, 0x00, 0x1a, 0x00, 0x00, 0x00, 0x73, 0x65, 0x71, 0x75,
  0x65, 0x6e, 0x74, 0x69, 0x61, 0x6c, 0x2f, 0x63, 0x6f, 0x6e, 0x76, 0x32,
  0x64, 0x5f, 0x31, 0x2f, 0x43, 0x6f, 0x6e, 0x76, 0x32, 0x44, 0x00, 0x00,
  0xc0, 0xde, 0xff, 0xff, 0xb6, 0xdf, 0xff, 0xff, 0x04, 0x00, 0x00, 0x00,
  0x80, 0x01, 0x00, 0x00, 0x9d, 0x6d, 0x62, 0xbd, 0x7a, 0xbb, 0xa4, 0xbd,
  0x63, 0x67, 0x47, 0xbe, 0xcd, 0x5d, 0x92, 0x3e, 0x52, 0x11, 0x9e, 0x3c,
  0xec, 0x02, 0x65, 0x3e, 0xa3, 0x36, 0xdc, 0x3e, 0xab, 0x68, 0xff, 0x3d,
  0x94, 0x41, 0x1c, 0xbd, 0x70, 0xa6, 0x5e, 0xbe, 0x48, 0x01, 0x82, 0x3d,
  0x56, 0xad, 0x89, 0xbd, 0xad, 0xa1, 0xe1, 0x3e, 0x1a, 0x96, 0xf1, 0xbd,
  0xb9, 0xd7, 0x67, 0x3e, 0x0c, 0x26, 0x93, 0x3d, 0x4d, 0x19, 0x9e, 0x3c,
  0x85, 0xf9, 0x06, 0xbe, 0xff, 0x03, 0x2d, 0x3e, 0xab, 0x06, 0xe4, 0xbd,
  0x94, 0x52, 0x76, 0x3d, 0xa4, 0x92, 0xb2, 0x3d, 0xfa, 0x3d, 0xc3, 0x3d,
  0x51, 0x14, 0x24, 0xbe, 0xa4, 0x20, 0x5e, 0xbe, 0xbc, 0xe8, 0x57, 0xbd,
  0xf9, 0x32, 0x00, 0xbd, 0x1a, 0x73, 0x8e, 0xbe, 0xc5, 0x8e, 0xc6, 0xbe,
  0x2a, 0x65, 0xbf, 0xbc, 0x5f, 0x96, 0x20, 0x3e, 0x6c, 0x1f, 0x46, 0x3e,
  0xd2, 0x19, 0x69, 0x3d, 0xc9, 0x4a, 0xd3, 0x3e, 0x5d, 0x26, 0x65, 0x3e,
  0x91, 0x8d, 0x50, 0x3d, 0x51, 0x9a, 0x89, 0xbe, 0x76, 0x49, 0x65, 0x3d,
  0x82, 0xb4, 0xa6, 0x3c, 0x07, 0x3b, 0x10, 0x3f, 0xab, 0xf2, 0xe1, 0x3c,
  0x14, 0xb0, 0x84, 0xbd, 0x71, 0x65, 0xaf, 0xbe, 0xd8, 0xf8, 0x1b, 0xbe,
  0x15, 0xcd, 0x39, 0xbd, 0x21, 0x5d, 0xb5, 0x3c, 0x6a, 0x98, 0x33, 0xbd,
  0xf2, 0x99, 0x6b, 0xbd, 0x04, 0x32, 0xc4, 0x3d, 0x20, 0x46, 0x2d, 0xbc,
  0x9a, 0x6b, 0xea, 0xba, 0x2d, 0x97, 0x16, 0x3f, 0x9e, 0x4e, 0xf3, 0x3d,
  0x12, 0xe8, 0x2b, 0x3c, 0xf2, 0x0f, 0xeb, 0xbd, 0x1f, 0xf9, 0x04, 0x3d,
  0xb8, 0x09, 0xde, 0x3c, 0x76, 0x48, 0xf4, 0xbe, 0x3a, 0x8c, 0x2a, 0xbe,
  0x01, 0x93, 0x8f, 0xbb, 0x7a, 0x3a, 0xd8, 0x3b, 0xb1, 0xf4, 0x93, 0xbd,
  0x97, 0x30, 0x29, 0xbd, 0x3a, 0x7c, 0x17, 0xbe, 0x2a, 0xd5, 0xf4, 0xbe,
  0xbd, 0xb6, 0x7a, 0xbe, 0xae, 0x82, 0x36, 0x3d, 0x7e, 0x1e, 0xdc, 0x3e,
  0x26, 0xc0, 0x2a, 0x3e, 0xdf, 0x01, 0xc2, 0x3d, 0x00, 0x04, 0xe3, 0x3d,
  0xa9, 0x1c, 0xd2, 0x3d, 0xc8, 0xd1, 0x69, 0xbd, 0x86, 0x8c, 0x81, 0x3d,
  0xef, 0x43, 0x1f, 0x3e, 0x97, 0x9b, 0xec, 0xbd, 0xe3, 0xdc, 0xae, 0x3c,
  0x9c, 0x2b, 0xbd, 0x3d, 0x23, 0xf0, 0x7e, 0x3d, 0x90, 0xa9, 0xa7, 0xbb,
  0x0e, 0x54, 0x49, 0x3d, 0xc1, 0x71, 0xc2, 0x3c, 0x42, 0x08, 0xd8, 0x3c,
  0x09, 0xf1, 0x7a, 0x3d, 0x56, 0xf7, 0xde, 0x3d, 0x16, 0x51, 0xea, 0x3d,
  0xd7, 0x0d, 0x72, 0xbe, 0xcc, 0x7a, 0xee, 0x3c, 0xfc, 0x54, 0xc4, 0x3d,
  0x66, 0xc0, 0x4d, 0xbe, 0x23, 0xcb, 0x22, 0x3d, 0xd1, 0xea, 0x3f, 0xbd,
  0x0b, 0xac, 0x47, 0xbd, 0x2d, 0x9f, 0xb2, 0x3d, 0x68, 0x3a, 0x2d, 0xbe,
  0xf9, 0x16, 0x9a, 0x3d, 0x9e, 0xe0, 0xff, 0xff, 0x10, 0x00, 0x00, 0x00,
  0x07, 0x00, 0x00, 0x00, 0x1c, 0x00, 0x00, 0x00, 0x38, 0x00, 0x00, 0x00,
  0x04, 0x00, 0x00, 0x00, 0x08, 0x00, 0x00, 0x00, 0x04, 0x00, 0x00, 0x00,
  0x03, 0x00, 0x00, 0x00, 0x01, 0x00, 0x00, 0x00, 0x18, 0x00, 0x00, 0x00,
  0x73, 0x65, 0x71, 0x75, 0x65, 0x6e, 0x74, 0x69, 0x61, 0x6c, 0x2f, 0x63,
  0x6f, 0x6e, 0x76, 0x32, 0x64, 0x2f, 0x43, 0x6f, 0x6e, 0x76, 0x32, 0x44,
  0x00, 0x00, 0x00, 0x00, 0x98, 0xe0, 0xff, 0xff, 0x8e, 0xe1, 0xff, 0xff,
  0x04, 0x00, 0x00, 0x00, 0x00, 0x01, 0x00, 0x00, 0x42, 0xfb, 0x40, 0xbd,
  0xec, 0x60, 0x2f, 0x3e, 0x58, 0x14, 0x3d, 0x3e, 0x9d, 0x22, 0x8b, 0x3d,
  0x81, 0x23, 0x7c, 0xbe, 0x1b, 0x59, 0x5d, 0x3e, 0x67, 0x06, 0xf1, 0xbd,
  0xd4, 0xe8, 0x2c, 0x3d, 0x6c, 0xc0, 0xdc, 0x3e, 0x13, 0x6e, 0x97, 0x3e,
  0xc2, 0x0d, 0xed, 0xbd, 0x96, 0x32, 0x40, 0xbe, 0x05, 0x3f, 0x53, 0x3e,
  0xd6, 0xe7, 0xf0, 0xbe, 0xfa, 0x4b, 0x53, 0xbe, 0xcb, 0xb8, 0xa8, 0xbd,
  0xb7, 0xa6, 0xe8, 0xbe, 0x5a, 0x82, 0x35, 0x3e, 0x7b, 0x8c, 0xac, 0xbe,
  0x19, 0xc4, 0x2c, 0x3d, 0x1d, 0xbf, 0x8e, 0xbd, 0x9e, 0xfc, 0x80, 0x3e,
  0x3b, 0xb2, 0x4c, 0xbd, 0x8c, 0x45, 0x32, 0xbe, 0xe4, 0x6d, 0xbc, 0x3e,
  0x36, 0x68, 0xc1, 0x3e, 0xd1, 0x4a, 0x29, 0xbe, 0xce, 0xc2, 0xe8, 0xbd,
  0x79, 0x9c, 0x85, 0x3e, 0x63, 0xee, 0xc6, 0xbe, 0xc8, 0xd3, 0x40, 0xbe,
  0x3c, 0xc7, 0x1f, 0x3d, 0xce, 0xa8, 0x9e, 0x3e, 0xf6, 0xb9, 0x68, 0x3e,
  0xc6, 0x83, 0x82, 0xbe, 0xb5, 0x60, 0xc6, 0x3d, 0xae, 0x93, 0xe2, 0xbe,
  0xe1, 0x5b, 0x7c, 0x3e, 0x69, 0x96, 0x2f, 0xbd, 0x96, 0x1f, 0x72, 0xbe,
  0x2f, 0x8c, 0xc3, 0x3e, 0x58, 0x17, 0xa4, 0x3e, 0xf5, 0x0a, 0xba, 0xbe,
  0xd1, 0x51, 0xdf, 0xbd, 0x08, 0x2b, 0x70, 0x3e, 0x7f, 0xd4, 0xe0, 0xbd,
  0x9d, 0xa6, 0x1f, 0xbe, 0xc9, 0xb7, 0xfd, 0x3c, 0x41, 0xfa, 0xc7, 0x3e,
  0x75, 0xf9, 0x43, 0x3e, 0x70, 0xba, 0x8f, 0xbe, 0x22, 0xaa, 0x0d, 0x3e,
  0x31, 0xd6, 0xa2, 0x3e, 0x1f, 0xc2, 0x9d, 0x3e, 0x09, 0xd2, 0x92, 0xbd,
  0xf4, 0x68, 0xea, 0xbe, 0x42, 0x34, 0xbe, 0x3e, 0xee, 0x3e, 0xb5, 0x3e,
  0x58, 0xd8, 0x43, 0xbe, 0xfe, 0xf6, 0x67, 0xbd, 0x9c, 0xf4, 0x62, 0x3e,
  0xd8, 0x42, 0x26, 0xbe, 0x54, 0xee, 0x44, 0xbe, 0x75, 0x51, 0xde, 0x3d,
  0xf6, 0xe1, 0xff, 0xff, 0x10, 0x00, 0x00, 0x00, 0x06, 0x00, 0x00, 0x00,
  0x14, 0x00, 0x00, 0x00, 0x30, 0x00, 0x00, 0x00, 0x02, 0x00, 0x00, 0x00,
  0x04, 0x00, 0x00, 0x00, 0x10, 0x00, 0x00, 0x00, 0x19, 0x00, 0x00, 0x00,
  0x73, 0x65, 0x71, 0x75, 0x65, 0x6e, 0x74, 0x69, 0x61, 0x6c, 0x2f, 0x64,
  0x65, 0x6e, 0x73, 0x65, 0x5f, 0x31, 0x2f, 0x4d, 0x61, 0x74, 0x4d, 0x75,
  0x6c, 0x00, 0x00, 0x00, 0xe8, 0xe1, 0xff, 0xff, 0xde, 0xe2, 0xff, 0xff,
  0x04, 0x00, 0x00, 0x00, 0x00, 0x1c, 0x00, 0x00, 0x11, 0x7c, 0x01, 0x3d,
  0x34, 0x65, 0x96, 0xbc, 0x53, 0x4c, 0x48, 0xbd, 0x7c, 0xe9, 0x94, 0xbd,
  0x19, 0x62, 0x6f, 0xbe, 0xd2, 0xfb, 0xd2, 0xbc, 0x5b, 0x25, 0x8b, 0xbe,
  0x84, 0xdb, 0x94, 0xbe, 0x6b, 0x5d, 0x1a, 0xbd, 0xb1, 0xfe, 0x2d, 0xbb,
  0xc7, 0xe7, 0x46, 0x3c, 0x8c, 0xfa, 0x05, 0xbd, 0xed, 0x4e, 0xfa, 0x3c,
  0x75, 0x01, 0x2b, 0xbe, 0xed, 0xba, 0x7d, 0xbe, 0xd1, 0xd9, 0x63, 0xbe,
  0xb4, 0x22, 0x7a, 0xbb, 0xb8, 0x74, 0x30, 0xbd, 0x81, 0xf6, 0xa5, 0x3d,
  0xf0, 0x4c, 0x17, 0xbe, 0xa7, 0x8a, 0xa9, 0xbd, 0xf6, 0xea, 0x32, 0xbe,
  0xad, 0x3c, 0x0c, 0x3d, 0x3c, 0x0a, 0x86, 0xbe, 0x3d, 0x1f, 0x81, 0xbe,
  0x25, 0xba, 0x63, 0xbe, 0x06, 0x94, 0x21, 0xbe, 0x14, 0xb3, 0x06, 0xbe,
  0x27, 0x40, 0xb7, 0x3c, 0xc3, 0xea, 0xa6, 0xbd, 0x3f, 0x2d, 0xa6, 0xbd,
  0xb6, 0xc6, 0x87, 0xbe, 0x4e, 0xd0, 0x8d, 0x3d, 0xb5, 0x1b, 0xbf, 0x3d,
  0x20, 0x91, 0x01, 0xbe, 0xa8, 0xa5, 0xd8, 0x3d, 0xfe, 0xe1, 0xe9, 0xbd,
  0x87, 0x22, 0x30, 0xbe, 0x41, 0x60, 0x87, 0x3d, 0xb1, 0x96, 0x93, 0xbd,
  0x2f, 0x14, 0xdb, 0xbb, 0x47, 0x19, 0xb0, 0xbd, 0x0d, 0x93, 0xc5, 0x3c,
  0xde, 0x9a, 0x1a, 0xbe, 0x63, 0x81, 0x44, 0xbd, 0x80, 0xb6, 0xf1, 0x3c,
  0x83, 0x3d, 0x68, 0x3d, 0x70, 0x04, 0x57, 0x3a, 0xb9, 0xf5, 0xfd, 0x3d,
  0x4e, 0x08, 0x46, 0xbe, 0x12, 0xd8, 0x12, 0xbe, 0x00, 0x89, 0x0a, 0xbe,
  0xb4, 0x78, 0xc5, 0x3d, 0x23, 0x66, 0x1b, 0xbe, 0x2a, 0x81, 0x51, 0x39,
  0x14, 0xc3, 0xff, 0xbd, 0x60, 0x46, 0x07, 0xbe, 0x99, 0x33, 0x1a, 0xbd,
  0x6c, 0xee, 0x47, 0xbe, 0xd6, 0x28, 0x5f, 0xbe, 0x99, 0xf7, 0xc7, 0x3c,
  0x6b, 0x10, 0x08, 0xbe, 0x36, 0xdc, 0x6f, 0xbe, 0x0a, 0x2b, 0x28, 0xbe,
  0x26, 0x1e, 0xec, 0x3d, 0x39, 0x3f, 0x0d, 0xbe, 0x16, 0x2a, 0x85, 0xbe,
  0xad, 0x39, 0x36, 0x3e, 0xc3, 0x37, 0x7e, 0xbc, 0xe5, 0x1c, 0x29, 0x3d,
  0x32, 0x23, 0xc9, 0x3c, 0xaf, 0x91, 0x96, 0xbe, 0xcf, 0x79, 0x6a, 0xbe,
  0x11, 0xed, 0x9e, 0xbe, 0x43, 0x16, 0xc8, 0xbd, 0x63, 0x26, 0xe1, 0xbd,
  0xc3, 0xd0, 0x86, 0xbe, 0xde, 0x78, 0xd8, 0xbd, 0x2d, 0xb0, 0xec, 0x3c,
  0xb0, 0x10, 0xe8, 0xbd, 0x58, 0x17, 0x37, 0xbd, 0x51, 0xa4, 0x55, 0xbe,
  0x45, 0x01, 0x29, 0xbd, 0xe6, 0xcd, 0x98, 0xbc, 0x21, 0xba, 0xc5, 0x3c,
  0x59, 0xb2, 0x20, 0xbe, 0x38, 0xa1, 0x37, 0x3a, 0xaf, 0x0a, 0x80, 0xbe,
  0x72, 0xcb, 0x55, 0x3c, 0xde, 0x56, 0x8b, 0x3d, 0xaf, 0x37, 0x89, 0x39,
  0xfb, 0x7f, 0x38, 0xbe, 0xb3, 0x04, 0xc3, 0xbb, 0x75, 0x8b, 0x09, 0xbd,
  0x0c, 0xd9, 0x7a, 0x3d, 0x80, 0x00, 0x58, 0xbe, 0x90, 0xe0, 0x46, 0xbe,
  0x0d, 0x7d, 0x5c, 0xbe, 0x72, 0xe3, 0x50, 0xbe, 0x4b, 0x0c, 0x17, 0x3e,
  0x57, 0x73, 0xef, 0x3c, 0xf7, 0x92, 0x35, 0xbe, 0xbd, 0x49, 0x3e, 0xbe,
  0x06, 0x6c, 0xb8, 0xbd, 0xd9, 0xfb, 0x05, 0xbd, 0xb8, 0x19, 0xbc, 0xbd,
  0x43, 0x42, 0x24, 0xbe, 0x08, 0x9e, 0x0a, 0xbe, 0xdf, 0xed, 0x52, 0xbe,
  0x54, 0xda, 0x75, 0xbe, 0xdb, 0x05, 0x2d, 0xbe, 0x87, 0xf1, 0xc3, 0x3d,
  0xb0, 0x50, 0xdc, 0x3d, 0x75, 0x59, 0x5c, 0xbe, 0xeb, 0xa0, 0x96, 0xbd,
  0xe8, 0x51, 0x38, 0x3e, 0xb6, 0x66, 0x83, 0x3d, 0xee, 0xf1, 0x16, 0x3e,
  0x0e, 0x01, 0x6b, 0xbe, 0xe7, 0x57, 0x24, 0x3d, 0xba, 0x28, 0x1b, 0xbf,
  0x03, 0x66, 0x29, 0x3d, 0x4e, 0x04, 0x23, 0x3e, 0x8a, 0xbc, 0x1c, 0x3e,
  0x0b, 0xa9, 0x9f, 0x3d, 0x56, 0x93, 0x03, 0xbf, 0xfe, 0x7a, 0xf7, 0xbe,
  0x71, 0xb6, 0x9a, 0x3d, 0xfb, 0xb9, 0xa2, 0x3e, 0x42, 0x1c, 0x72, 0xbe,
  0x4b, 0xc5, 0x01, 0x3e, 0x0e, 0x0f, 0xcf, 0xbe, 0xf6, 0x8f, 0x3f, 0x3d,
  0xf9, 0x62, 0x03, 0xbe, 0x9a, 0x01, 0x75, 0xbe, 0x5a, 0x3e, 0x0e, 0x3c,
  0x3e, 0x63, 0x28, 0xbe, 0xe7, 0x48, 0xc8, 0x3c, 0x02, 0x0c, 0x89, 0xbd,
  0xa3, 0x23, 0x4f, 0x3e, 0x3a, 0x8d, 0x8a, 0xbe, 0x52, 0x8f, 0x43, 0xbe,
  0x78, 0x67, 0xf4, 0x3d, 0xcf, 0x95, 0xf4, 0x3d, 0x14, 0x87, 0x22, 0xbf,
  0x37, 0xcc, 0x33, 0xbe, 0x70, 0x97, 0xc0, 0x3d, 0x1e, 0x25, 0xb6, 0xbe,
  0x30, 0x0b, 0xf2, 0x3d, 0x8d, 0xa6, 0x08, 0xbf, 0x98, 0xe6, 0xf1, 0xbe,
  0x7f, 0x0c, 0xf3, 0x3d, 0x91, 0xd5, 0x35, 0xbc, 0x31, 0xc2, 0x8f, 0x3d,
  0x80, 0x70, 0xc9, 0xbd, 0x26, 0x06, 0xb4, 0xbe, 0x54, 0xba, 0xb0, 0xbe,
  0xf7, 0x27, 0x6d, 0xbe, 0x06, 0x90, 0x00, 0x3c, 0x27, 0xd9, 0xdb, 0x3d,
  0xe3, 0x85, 0x35, 0xbf, 0xdf, 0x02, 0x0f, 0xbe, 0xf1, 0xd4, 0xab, 0xbe,
  0x33, 0xb9, 0xe5, 0xbd, 0x85, 0xde, 0x27, 0xbf, 0xf9, 0xe2, 0x42, 0xbf,
  0xe1, 0xf2, 0x26, 0xbe, 0x2d, 0x2a, 0xcc, 0xbe, 0xfa, 0xed, 0x35, 0xbc,
  0x97, 0x44, 0x80, 0x3b, 0x75, 0xbb, 0xf9, 0xbd, 0x56, 0x8a, 0xab, 0xbe,
  0x32, 0x91, 0xb8, 0xbe, 0x90, 0xb4, 0xfe, 0xbc, 0x46, 0x99, 0xe1, 0xbd,
  0xe8, 0x0a, 0x6a, 0x3e, 0x77, 0x15, 0x74, 0x3d, 0x1d, 0xdb, 0xff, 0xbd,
  0x53, 0x06, 0x51, 0xbe, 0x6a, 0x95, 0x9a, 0x3e, 0xbe, 0xbd, 0x1d, 0x3e,
  0x89, 0xd3, 0x9b, 0x3c, 0xc0, 0x7e, 0x1e, 0xbd, 0x8d, 0x2f, 0x6d, 0xbe,
  0x2c, 0xec, 0x44, 0xbe, 0x69, 0x65, 0xbc, 0xbb, 0xce, 0xbb, 0xc3, 0x38,
  0x46, 0xa0, 0x3c, 0x3e, 0x90, 0xe3, 0xdc, 0xbd, 0xfd, 0x12, 0x6e, 0xbe,
  0x42, 0xa8, 0x9f, 0xbe, 0xea, 0xa4, 0x83, 0xbd, 0x16, 0x21, 0x3a, 0x3d,
  0xd3, 0x12, 0x5d, 0xbe, 0x22, 0x88, 0x77, 0xbb, 0xb3, 0x2f, 0x59, 0x3e,
  0xbe, 0x7e, 0xdb, 0x3d, 0x34, 0x33, 0xc9, 0x3b, 0x43, 0x45, 0x92, 0xbb,
  0x5d, 0x9c, 0x86, 0x3d, 0xf1, 0x38, 0x23, 0xbe, 0x46, 0xd5, 0xcf, 0xbc,
  0x98, 0xd7, 0x13, 0x3d, 0x53, 0xc8, 0x40, 0x3e, 0xea, 0x77, 0xea, 0xbc,
  0x9a, 0x92, 0x93, 0xbd, 0xe0, 0x27, 0x43, 0xbe, 0x93, 0x7f, 0xd3, 0xbd,
  0xee, 0xca, 0xd6, 0x3b, 0x21, 0x30, 0x07, 0xbc, 0xb1, 0x06, 0xbb, 0xbb,
  0xd2, 0xae, 0x68, 0x3e, 0x9b, 0x4f, 0xf2, 0x3c, 0x7a, 0x43, 0x2f, 0xbc,
  0xac, 0xb3, 0x33, 0x3d, 0x99, 0xca, 0xdf, 0x3c, 0x09, 0xf8, 0x03, 0xbe,
  0x79, 0x62, 0x03, 0xbd, 0x9f, 0xe8, 0x95, 0xbb, 0xe1, 0x62, 0x2e, 0x3d,
  0x70, 0x5c, 0x7c, 0x3a, 0x79, 0xb1, 0xf6, 0xbd, 0xf2, 0xd9, 0x43, 0x3b,
  0xf3, 0x47, 0x62, 0xbb, 0xa1, 0xa9, 0x75, 0xbd, 0x67, 0xc8, 0x8e, 0x3d,
  0x40, 0x65, 0x99, 0x3c, 0x98, 0xd5, 0xb8, 0x3d, 0xb2, 0xbd, 0x50, 0xbe,
  0x54, 0xe9, 0x55, 0x3d, 0x90, 0xcd, 0x74, 0x3c, 0x92, 0xeb, 0xdf, 0xbd,
  0x9f, 0x4d, 0x7c, 0xbe, 0x1b, 0x57, 0xc8, 0xbd, 0x38, 0x1a, 0xf7, 0x3b,
  0xac, 0x22, 0x24, 0xbe, 0x52, 0x32, 0x27, 0xbe, 0xc4, 0x99, 0x00, 0x3e,
  0xfc, 0x73, 0x3e, 0xbd, 0xaa, 0x44, 0xcb, 0x3d, 0x4f, 0x4b, 0x39, 0x3d,
  0xd9, 0x0f, 0xc4, 0xbb, 0x85, 0x8b, 0x03, 0xbd, 0x7e, 0x6a, 0x22, 0xbe,
  0x87, 0xaa, 0x45, 0xbd, 0x82, 0x73, 0x49, 0xbe, 0x0f, 0xaa, 0xad, 0x3d,
  0x9f, 0xba, 0xfd, 0xbd, 0xec, 0xa9, 0x02, 0xbe, 0xf0, 0x04, 0xcc, 0xbc,
  0x99, 0xd2, 0xf4, 0x3b, 0x49, 0x69, 0x4c, 0x3e, 0x5b, 0xee, 0x38, 0xbe,
  0x2d, 0xe0, 0xc0, 0xbd, 0x9c, 0x43, 0xbb, 0x3d, 0xc0, 0x51, 0x2b, 0xbe,
  0xe7, 0x61, 0x78, 0xbd, 0xd9, 0x20, 0x51, 0xbc, 0xef, 0xf8, 0x2c, 0x3e,
  0xcc, 0xb8, 0xff, 0xbd, 0xd1, 0x54, 0x24, 0xbe, 0xd7, 0xc4, 0x83, 0xbe,
  0xa8, 0x4d, 0xf1, 0x3d, 0x38, 0xa6, 0x36, 0x3c, 0x51, 0x6a, 0xa9, 0x3d,
  0xc8, 0x7a, 0x82, 0xbe, 0x11, 0x2b, 0x00, 0xbe, 0x95, 0xf0, 0x49, 0xbd,
  0x5f, 0x1b, 0xf0, 0xbc, 0xbc, 0x9d, 0x83, 0x3b, 0xff, 0x8e, 0x1d, 0xbe,
  0x2b, 0xbc, 0x25, 0xbe, 0xe9, 0x1e, 0x94, 0xbc, 0x97, 0x24, 0x56, 0xbd,
  0x4a, 0xb5, 0x94, 0xbd, 0x8f, 0x27, 0xad, 0xbb, 0x1f, 0xe4, 0x1b, 0xbe,
  0x6d, 0xd7, 0x11, 0xbe, 0x37, 0xc6, 0xb0, 0x3d, 0x31, 0x23, 0x67, 0xbe,
  0x2f, 0x4e, 0x52, 0xbd, 0x6a, 0x4a, 0x5c, 0xbe, 0xd1, 0x61, 0x92, 0x3d,
  0x8c, 0x5e, 0x18, 0xbe, 0x87, 0x4a, 0xd6, 0xbd, 0xb3, 0xb5, 0x85, 0xbd,
  0x03, 0xf0, 0x88, 0xbd, 0x72, 0x5c, 0x42, 0x3e, 0xef, 0x37, 0x7b, 0xbd,
  0xdd, 0xb0, 0x48, 0xbe, 0xf3, 0xf5, 0x71, 0x3d, 0xe6, 0xd1, 0x0e, 0x3d,
  0x0a, 0x70, 0x9e, 0x3d, 0xff, 0xc4, 0x23, 0x3d, 0x1a, 0x78, 0xe5, 0x3c,
  0x7e, 0xa7, 0xf2, 0xbd, 0x19, 0x03, 0x8c, 0xbd, 0x4b, 0x7a, 0x4f, 0xbe,
  0x22, 0xde, 0x70, 0xbe, 0xea, 0x07, 0xb0, 0xbc, 0x2b, 0xc1, 0x29, 0xbe,
  0x25, 0x74, 0x4e, 0xbe, 0xd5, 0x46, 0xc8, 0x3d, 0x43, 0x58, 0x24, 0x3e,
  0xda, 0x87, 0xb7, 0xbd, 0x6a, 0xaf, 0xea, 0xbd, 0x13, 0x66, 0xa3, 0xbd,
  0x2d, 0x17, 0x02, 0xbe, 0xc8, 0x69, 0xc3, 0xbc, 0x71, 0xd1, 0xe0, 0xbd,
  0xaa, 0x70, 0x90, 0xbd, 0xb5, 0x26, 0x6d, 0xbc, 0x99, 0x7c, 0x1a, 0xbe,
  0xae, 0xdb, 0xa5, 0xbe, 0x05, 0x70, 0x62, 0xbe, 0x4b, 0xf4, 0x0a, 0x3e,
  0x5c, 0x6a, 0xa5, 0xbd, 0x02, 0x91, 0x61, 0xbd, 0x69, 0xbb, 0x8e, 0xbd,
  0x3c, 0x47, 0x63, 0xbc, 0x5a, 0x7d, 0xec, 0xbd, 0x19, 0x26, 0x87, 0xbe,
  0x01, 0x2d, 0x6f, 0x3c, 0x9c, 0xdf, 0x3e, 0x3d, 0x7d, 0x89, 0x17, 0x3c,
  0xe7, 0x04, 0x3a, 0xbe, 0x7d, 0xf1, 0xd3, 0x3d, 0x96, 0xc6, 0x56, 0xbe,
  0x07, 0x33, 0xc7, 0x3c, 0xb3, 0xb5, 0xcd, 0xbd, 0x3e, 0x8b, 0x5f, 0xbe,
  0x14, 0x20, 0xab, 0x3d, 0xb2, 0xee, 0x64, 0xbe, 0xe4, 0x46, 0x97, 0x3d,
  0x82, 0xf4, 0xfb, 0xbd, 0x7d, 0xcc, 0x16, 0x3e, 0xf5, 0xca, 0x67, 0xbe,
  0x77, 0x40, 0xb2, 0x3e, 0xbe, 0x35, 0x49, 0xbe, 0x87, 0x46, 0x03, 0xbe,
  0x8c, 0x77, 0x66, 0xbe, 0x23, 0xb1, 0xda, 0xbd, 0x88, 0xa1, 0x16, 0xbe,
  0xb3, 0x60, 0x14, 0xbd, 0xd5, 0xa6, 0x35, 0x3e, 0xa7, 0x64, 0x6f, 0xbe,
  0x65, 0xc4, 0xe8, 0x3d, 0x05, 0xd5, 0x49, 0x3e, 0x31, 0x46, 0x29, 0xbe,
  0xcf, 0xf0, 0x1e, 0xbe, 0x62, 0x10, 0x8d, 0xbe, 0x3b, 0x6a, 0x62, 0x3e,
  0xb5, 0xb3, 0x9d, 0xbd, 0x5e, 0x3a, 0x91, 0x3e, 0x11, 0x84, 0xee, 0xbd,
  0x55, 0x86, 0x80, 0xbd, 0xd0, 0xb8, 0x4f, 0xbe, 0x81, 0x89, 0xa5, 0xbe,
  0x7e, 0x54, 0xed, 0xbd, 0x99, 0x0f, 0x7d, 0xbc, 0xbb, 0x0e, 0x5a, 0x3d,
  0x47, 0xe2, 0x77, 0x3d, 0x83, 0x93, 0x51, 0x3d, 0xfe, 0x84, 0x91, 0x3e,
  0x68, 0xb7, 0xe2, 0xbb, 0xb1, 0x85, 0x79, 0xbe, 0xe9, 0x04, 0x55, 0xbe,
  0xa1, 0x5c, 0xd3, 0x3d, 0xa5, 0x70, 0xfb, 0xbd, 0x1d, 0x9d, 0x1b, 0x3e,
  0x01, 0x5c, 0x1d, 0xbd, 0x8d, 0x15, 0x65, 0x3e, 0xdd, 0xd5, 0x18, 0xbe,
  0x2f, 0x18, 0x56, 0xbe, 0xa6, 0x07, 0x54, 0xbe, 0x63, 0x0b, 0x4d, 0x3d,
  0xe7, 0xc2, 0x96, 0x3d, 0x49, 0x3e, 0x11, 0x3d, 0xe1, 0x7e, 0xe8, 0x3d,
  0xf0, 0xc4, 0xad, 0x3e, 0xd3, 0xfb, 0x1b, 0x3e, 0x3e, 0xbc, 0x79, 0xbd,
  0x4c, 0x8b, 0xe6, 0xbd, 0x8f, 0x9b, 0x83, 0x3e, 0xf2, 0x95, 0x9d, 0xbd,
  0xcc, 0x9d, 0x57, 0x3e, 0x46, 0x8f, 0x40, 0xbd, 0xf8, 0xa7, 0xf7, 0x3d,
  0x78, 0xbc, 0xbd, 0xbc, 0x68, 0x26, 0x1b, 0xbd, 0xb3, 0x16, 0xe6, 0xbb,
  0xef, 0xa1, 0xdd, 0x3d, 0xa2, 0x0a, 0x27, 0x3d, 0x06, 0xce, 0x81, 0xbe,
  0x85, 0x25, 0x0f, 0x3e, 0x9f, 0x0f, 0x5c, 0x3e, 0xfc, 0x5b, 0x5b, 0xbc,
  0x85, 0x5b, 0x40, 0x3d, 0x78, 0x04, 0xe1, 0xbd, 0xca, 0xa3, 0x48, 0x3d,
  0x1b, 0x46, 0x3d, 0xbe, 0x88, 0x7f, 0xae, 0x3e, 0xdb, 0x03, 0x2a, 0xbe,
  0x22, 0x46, 0x0b, 0xbe, 0x0c, 0x9c, 0xf7, 0xbd, 0x79, 0x1a, 0x3d, 0xbe,
  0xe5, 0x2c, 0x2d, 0xbe, 0x65, 0xac, 0xac, 0x3d, 0xc2, 0x08, 0x03, 0x3c,
  0x7c, 0x4f, 0xea, 0x3c, 0xb4, 0xcb, 0xec, 0x3c, 0x1a, 0x6d, 0x4e, 0x3e,
  0x3f, 0x69, 0x8e, 0x3d, 0x7b, 0x6a, 0xdf, 0x3c, 0x66, 0x04, 0xf2, 0xbc,
  0x69, 0xf9, 0x90, 0xbc, 0x7b, 0xc0, 0xe5, 0xbd, 0x3a, 0xb5, 0x6c, 0x3e,
  0x27, 0x4d, 0x77, 0xbd, 0x91, 0x6d, 0x82, 0xbe, 0x1c, 0xc9, 0xea, 0xbd,
  0x5b, 0x83, 0xa0, 0xbe, 0xa3, 0x25, 0x88, 0xbe, 0xaf, 0x4c, 0xb0, 0x3d,
  0xb0, 0xf2, 0x2c, 0xbd, 0x83, 0xf7, 0x8e, 0xbd, 0x83, 0x6e, 0x2e, 0x3c,
  0x29, 0x24, 0x07, 0x3e, 0xc6, 0x1c, 0x4e, 0x3d, 0xff, 0x34, 0x69, 0xbd,
  0xe9, 0xe9, 0x4c, 0xbe, 0x64, 0x34, 0xf2, 0x3d, 0xd5, 0x40, 0x0a, 0xbe,
  0x2e, 0xeb, 0x50, 0x3e, 0xb0, 0xc2, 0x37, 0xbe, 0x77, 0xd1, 0x38, 0xbe,
  0x0f, 0x55, 0x09, 0xbd, 0x99, 0xf7, 0x31, 0xbe, 0x5f, 0xb1, 0x4d, 0xbe,
  0xfd, 0x7e, 0xf8, 0xbc, 0x3a, 0x3a, 0x06, 0xbd, 0xbd, 0x59, 0x7d, 0xbe,
  0xcb, 0x87, 0xff, 0x3c, 0x44, 0xbf, 0x0f, 0x3e, 0xb9, 0xe7, 0xdd, 0xbd,
  0xdb, 0x13, 0x3a, 0xbe, 0x51, 0xb9, 0x83, 0xbe, 0xaf, 0x39, 0xf2, 0x3d,
  0x91, 0x48, 0xe7, 0xbd, 0x84, 0x2f, 0x14, 0x3e, 0x38, 0x46, 0x19, 0xbe,
  0x17, 0xe1, 0x19, 0xbe, 0xff, 0xf1, 0x57, 0xbe, 0x78, 0x85, 0x29, 0xbe,
  0xa7, 0x80, 0x94, 0xbd, 0xbe, 0xcd, 0x2e, 0x3d, 0x5b, 0x58, 0xce, 0x3c,
  0x8c, 0x7d, 0x13, 0xbd, 0x74, 0xa5, 0x3e, 0xbe, 0x73, 0x52, 0x38, 0x3e,
  0x9a, 0x74, 0x5e, 0xbd, 0x24, 0xd7, 0x61, 0xbe, 0x34, 0xa9, 0x5e, 0xbd,
  0x14, 0x7c, 0xd6, 0x3d, 0x44, 0xac, 0x32, 0xbe, 0x67, 0xcc, 0xed, 0xbc,
  0x40, 0x9d, 0xae, 0x3d, 0xaf, 0x83, 0xb5, 0xbd, 0xe4, 0x3d, 0xec, 0xbd,
  0x68, 0xd1, 0x82, 0x3d, 0xfc, 0xd5, 0x6a, 0xbe, 0x14, 0x30, 0x81, 0x3d,
  0xff, 0x11, 0x89, 0xbe, 0x22, 0x91, 0x04, 0xbd, 0x4e, 0xbe, 0x83, 0xbe,
  0x0a, 0xfa, 0xd0, 0x3d, 0x04, 0x50, 0x14, 0x3d, 0xe0, 0x6c, 0x19, 0xbe,
  0x2c, 0xa3, 0x83, 0xbe, 0x79, 0x8d, 0x2e, 0xbc, 0xfb, 0x2b, 0xd3, 0x3d,
  0xfb, 0xb5, 0xac, 0x3d, 0xad, 0xae, 0xdd, 0x3d, 0xbc, 0x66, 0x69, 0x3c,
  0x87, 0x16, 0x76, 0xbe, 0x46, 0x91, 0x85, 0xbe, 0x49, 0xf8, 0xeb, 0x3d,
  0x8a, 0x33, 0x3b, 0xbe, 0x0e, 0x8d, 0xe9, 0xbd, 0xc2, 0xae, 0x53, 0xbe,
  0xf6, 0x83, 0x89, 0xbe, 0x34, 0x5f, 0x3e, 0x3d, 0xb9, 0xb8, 0x70, 0xbe,
  0x31, 0x41, 0x43, 0xbe, 0x4b, 0xdd, 0xff, 0xbd, 0x7c, 0x2f, 0x33, 0xbe,
  0xc0, 0xb2, 0x49, 0xbe, 0x12, 0x35, 0x05, 0xbe, 0xfb, 0x31, 0x50, 0x3e,
  0x0b, 0x95, 0x3c, 0x3e, 0x7e, 0x91, 0xb1, 0x3d, 0x0f, 0x59, 0xab, 0xbd,
  0x3e, 0xa8, 0x07, 0x3d, 0xde, 0x34, 0xa8, 0xbc, 0x04, 0x09, 0x7d, 0xbe,
  0x26, 0xe9, 0xa3, 0xbe, 0x4e, 0x97, 0xe6, 0x3c, 0x37, 0xdc, 0x59, 0xbe,
  0x84, 0xb9, 0x8e, 0xbe, 0x8b, 0xf7, 0x72, 0xbd, 0xba, 0xf6, 0x79, 0xbc,
  0xcc, 0x04, 0x1e, 0x3e, 0x70, 0x9e, 0x1d, 0xbd, 0x29, 0xa7, 0xe7, 0xba,
  0xb5, 0x94, 0x97, 0xbc, 0x4c, 0x37, 0x99, 0xbd, 0x39, 0x07, 0xa4, 0xbd,
  0x46, 0x29, 0x28, 0xbe, 0x55, 0xd0, 0xa4, 0xbd, 0x32, 0x41, 0x77, 0xbe,
  0x83, 0x0d, 0x3b, 0xbe, 0x22, 0x92, 0xf4, 0xbd, 0xb9, 0xc7, 0x89, 0xbe,
  0x80, 0xd3, 0x38, 0xbe, 0x75, 0xf2, 0xc2, 0x3c, 0x86, 0x27, 0xb9, 0xbd,
  0xce, 0x75, 0x65, 0x3d, 0x5d, 0xe9, 0x32, 0xbd, 0x4c, 0x73, 0xf5, 0x3d,
  0x51, 0x06, 0x12, 0x3d, 0x25, 0xd2, 0xb3, 0x3d, 0xa5, 0x4d, 0x8f, 0x3d,
  0xc3, 0xd0, 0xf4, 0xbc, 0x6d, 0x51, 0xe1, 0xbc, 0xf5, 0x0f, 0x26, 0xbe,
  0x86, 0x61, 0xce, 0x3d, 0x03, 0x42, 0x54, 0xbd, 0x6d, 0xe0, 0x57, 0xbe,
  0x44, 0xd0, 0x4d, 0xbe, 0x1b, 0xc6, 0x0f, 0xbe, 0x53, 0xf0, 0x10, 0xbe,
  0xa4, 0xe4, 0xf9, 0xbd, 0x60, 0x59, 0x64, 0xbe, 0x07, 0x4b, 0x43, 0xbe,
  0x52, 0x68, 0x56, 0xbe, 0x4e, 0x4c, 0x37, 0xbe, 0x99, 0x63, 0x78, 0x3d,
  0x63, 0xc4, 0xae, 0xbc, 0xa0, 0xe1, 0x5f, 0xbe, 0xfc, 0xc2, 0x56, 0xbe,
  0xf6, 0x92, 0x31, 0xbe, 0x70, 0x20, 0x55, 0xbe, 0x6d, 0xce, 0x07, 0xbe,
  0x1f, 0xba, 0x4c, 0xbe, 0x2a, 0x1d, 0xa6, 0xbd, 0xa1, 0x35, 0x5b, 0xbe,
  0xc9, 0xba, 0x99, 0xbe, 0x4a, 0x14, 0xfe, 0xbd, 0x91, 0x9e, 0x9c, 0xbe,
  0x4f, 0xfc, 0x06, 0x3e, 0xe3, 0x12, 0xbb, 0xbe, 0x29, 0x08, 0x6e, 0x3d,
  0x4c, 0xe5, 0xe2, 0xbe, 0x37, 0x25, 0xc5, 0xbe, 0x08, 0xcb, 0xee, 0xbe,
  0x77, 0xcd, 0xc3, 0xbe, 0x20, 0xbd, 0xab, 0xbe, 0xa8, 0xf9, 0xa8, 0xbe,
  0xd8, 0x42, 0x62, 0x3d, 0x18, 0x11, 0xd8, 0x3c, 0xfc, 0xde, 0x86, 0x3b,
  0xad, 0x78, 0x5f, 0x3e, 0x5e, 0x0b, 0x88, 0xbe, 0xde, 0x8b, 0x9b, 0xbe,
  0x97, 0xe9, 0xab, 0xbe, 0xa1, 0xd7, 0x82, 0x3e, 0x6b, 0xe7, 0x36, 0xbe,
  0xf3, 0x16, 0x98, 0x3d, 0x7f, 0xb1, 0x06, 0xbf, 0x7e, 0xe4, 0x63, 0x3e,
  0x35, 0xb0, 0xaa, 0xbe, 0xbf, 0xbf, 0xf8, 0xbe, 0xd4, 0x2f, 0xb0, 0xbe,
  0xff, 0x22, 0x35, 0xbe, 0xf3, 0x58, 0x6d, 0x3d, 0x9a, 0xab, 0x9f, 0x3d,
  0x52, 0x03, 0xa8, 0x3d, 0xa3, 0x39, 0x83, 0x3e, 0x83, 0x48, 0xfd, 0x3d,
  0x77, 0x94, 0xe1, 0xbe, 0xf5, 0xd8, 0xa5, 0xbe, 0x2b, 0x42, 0x99, 0xbb,
  0xed, 0xf1, 0x5d, 0xbe, 0x1c, 0x47, 0xc5, 0x3e, 0xaa, 0xa6, 0x61, 0xbe,
  0xd4, 0xb1, 0x18, 0x3e, 0xf5, 0xd5, 0x83, 0xbe, 0x70, 0xf2, 0xd6, 0xbe,
  0x2f, 0x40, 0x25, 0xbe, 0x20, 0x61, 0xef, 0x3d, 0x19, 0x4f, 0xa5, 0x3d,
  0xdd, 0xb4, 0x93, 0x3d, 0xaa, 0x7a, 0x9b, 0x3d, 0x20, 0x84, 0x57, 0x3e,
  0x56, 0x64, 0x00, 0x3e, 0x6b, 0x8a, 0x01, 0xbe, 0x91, 0x3a, 0x74, 0xbe,
  0x58, 0x4e, 0xec, 0x3c, 0x90, 0xf9, 0x8a, 0xbe, 0x54, 0xd6, 0x13, 0x3e,
  0xf7, 0x0f, 0x85, 0xbe, 0x1e, 0xf2, 0x2e, 0x3e, 0x68, 0xfd, 0x87, 0xbd,
  0x73, 0xa2, 0x60, 0xbd, 0x04, 0xc1, 0x8b, 0xbd, 0x62, 0x0e, 0xd0, 0x3d,
  0x57, 0x2a, 0x26, 0x3d, 0x87, 0x76, 0x5f, 0x3d, 0x91, 0xd3, 0x86, 0x3d,
  0x34, 0xd6, 0x0d, 0x3e, 0x1d, 0x10, 0xcb, 0x3d, 0x7f, 0xae, 0xac, 0xbe,
  0xe3, 0xbd, 0x0b, 0xbe, 0xf4, 0xa9, 0xb6, 0x3d, 0x47, 0x78, 0x79, 0xbe,
  0x0e, 0x4e, 0x09, 0x3c, 0x95, 0xa7, 0xb7, 0xbe, 0xb1, 0xa0, 0xd9, 0x3c,
  0x8d, 0xf6, 0xff, 0xbd, 0x69, 0x80, 0x7a, 0xbe, 0x3e, 0xba, 0xa8, 0xbe,
  0x07, 0x3c, 0x28, 0xbd, 0x72, 0xe5, 0x5d, 0x3d, 0xdd, 0x73, 0xa4, 0x3d,
  0x3c, 0x36, 0x6d, 0x3c, 0xbb, 0x6d, 0x93, 0x3e, 0xab, 0xca, 0x14, 0x3e,
  0x38, 0x23, 0xa1, 0xbe, 0xdb, 0xa4, 0x96, 0xbe, 0x47, 0x16, 0x40, 0x3c,
  0x72, 0xc1, 0xbb, 0xbe, 0xb1, 0x5c, 0xcd, 0x3d, 0x88, 0x07, 0xaa, 0xbe,
  0xad, 0x28, 0x7b, 0xbe, 0x7f, 0x9f, 0xdf, 0xbe, 0xd9, 0x45, 0xd2, 0xbe,
  0xc5, 0xaa, 0x18, 0xbf, 0xf8, 0x06, 0xb2, 0x3d, 0xe4, 0xe7, 0xb4, 0x3d,
  0x4b, 0x64, 0x6c, 0x3d, 0x2d, 0x39, 0x02, 0x3d, 0x69, 0xeb, 0x89, 0x3d,
  0x92, 0x86, 0x69, 0x3d, 0x80, 0x5e, 0xb2, 0xbe, 0xc5, 0x6b, 0xde, 0xbe,
  0x69, 0xcc, 0xb3, 0x3e, 0xd7, 0xfc, 0xd8, 0xbd, 0x80, 0xd2, 0xb0, 0x3c,
  0xe7, 0xbd, 0xbd, 0xbd, 0x96, 0xd2, 0x43, 0xbc, 0x53, 0xa5, 0x48, 0xbe,
  0x59, 0x30, 0xa4, 0xbc, 0x58, 0x22, 0xb7, 0xbe, 0x6b, 0xb1, 0x54, 0xbe,
  0xeb, 0x9c, 0xac, 0xbb, 0x24, 0x83, 0x95, 0xbc, 0xf1, 0x28, 0x83, 0xbc,
  0x6d, 0xd8, 0x96, 0x3d, 0xb7, 0x85, 0xde, 0xbd, 0xa9, 0x12, 0xe9, 0xbc,
  0xe9, 0x50, 0xdd, 0x3b, 0x54, 0xa7, 0x2c, 0x3e, 0x42, 0x08, 0x85, 0x3e,
  0x32, 0xf8, 0x07, 0xbe, 0x70, 0xee, 0x53, 0x3e, 0x93, 0x0b, 0x6f, 0x3d,
  0xbd, 0x4b, 0xea, 0x3d, 0x5a, 0xa3, 0x19, 0x3e, 0x46, 0x11, 0x3f, 0xbe,
  0x44, 0x2e, 0x21, 0x3d, 0x7f, 0xa9, 0x8f, 0xbe, 0x0f, 0xe7, 0xd1, 0x3c,
  0x5a, 0x81, 0x88, 0x3d, 0xdd, 0xb1, 0x99, 0x3e, 0x54, 0xd7, 0x35, 0x3c,
  0x09, 0x67, 0xd7, 0xbd, 0xe2, 0xec, 0x7a, 0xbe, 0xbf, 0x44, 0x0f, 0x3d,
  0xa2, 0xe9, 0xb0, 0xbd, 0x22, 0xc2, 0x51, 0xbd, 0x9c, 0x32, 0x0f, 0x3e,
  0x87, 0xb5, 0xf6, 0xbd, 0xc5, 0x04, 0x52, 0x3c, 0x23, 0x44, 0x31, 0xbe,
  0x1b, 0x62, 0x16, 0xbe, 0x8a, 0x7e, 0x53, 0xbd, 0x80, 0x76, 0x1b, 0xbe,
  0xcb, 0xf6, 0x38, 0xbd, 0x3f, 0xb3, 0xed, 0x3c, 0x2d, 0xd5, 0x1e, 0xbc,
  0x36, 0x7d, 0xae, 0xbe, 0xf8, 0x8f, 0x74, 0xbd, 0xce, 0x09, 0xe5, 0x3c,
  0x98, 0x52, 0x2d, 0x3d, 0x91, 0xa1, 0x41, 0xbe, 0x26, 0x4c, 0xc3, 0xbe,
  0x77, 0x3e, 0xd9, 0xbc, 0xfa, 0x49, 0x7b, 0x3d, 0x8a, 0x40, 0x6c, 0x3d,
  0xe6, 0x9c, 0xcd, 0x3c, 0xbb, 0x5c, 0xae, 0x3d, 0x8c, 0x9f, 0x42, 0x3e,
  0x93, 0xd2, 0x8d, 0x3c, 0x36, 0x91, 0x85, 0xbd, 0xad, 0x65, 0x92, 0x3c,
  0x42, 0x68, 0x71, 0xbe, 0xf9, 0xe0, 0x85, 0xbe, 0x4d, 0x45, 0x2e, 0xbe,
  0x59, 0x21, 0xab, 0xbd, 0x75, 0xcb, 0x42, 0xbe, 0x24, 0x94, 0x99, 0x3a,
  0xe4, 0xe0, 0xdc, 0x3b, 0x17, 0x43, 0x09, 0xbe, 0xe8, 0xb2, 0x9f, 0xbd,
  0x8c, 0x43, 0x81, 0xbc, 0xcc, 0x2e, 0x4e, 0xbe, 0x38, 0x4d, 0xa8, 0xbd,
  0xf2, 0x78, 0x31, 0xbe, 0xf1, 0x81, 0x3b, 0x3e, 0x2f, 0xa2, 0x95, 0x3d,
  0xf7, 0x0f, 0xfb, 0x3a, 0x8d, 0x15, 0x17, 0xbd, 0x9c, 0xef, 0x82, 0xbe,
  0x29, 0x69, 0xed, 0x3b, 0x4b, 0x77, 0x89, 0xbc, 0xb4, 0x2a, 0x5f, 0xbe,
  0x9e, 0x06, 0x23, 0xbd, 0x71, 0xdb, 0xf2, 0x3c, 0x77, 0x59, 0x17, 0x3e,
  0xdd, 0x00, 0x37, 0x3e, 0x3e, 0x05, 0x33, 0xbd, 0x42, 0x26, 0xbc, 0xbd,
  0xd1, 0xa5, 0x9f, 0xbc, 0x69, 0x41, 0x4c, 0xbd, 0x97, 0x6f, 0x63, 0xbd,
  0x31, 0x31, 0x1a, 0xbd, 0xd1, 0xe6, 0xb9, 0xbd, 0x7d, 0x18, 0xda, 0x3c,
  0x0e, 0x8c, 0xb7, 0xbd, 0x99, 0x79, 0xe7, 0x3d, 0xa0, 0x27, 0x04, 0xbe,
  0xb7, 0xc8, 0x61, 0x3e, 0xf1, 0x45, 0x05, 0x3e, 0xe6, 0xb9, 0x04, 0x3d,
  0x9f, 0x75, 0x28, 0x3e, 0x60, 0x35, 0x6c, 0x3e, 0x43, 0x38, 0x08, 0x3c,
  0xe6, 0xbf, 0xdd, 0x3c, 0x77, 0x7f, 0x21, 0xbd, 0x43, 0xe0, 0x59, 0xbd,
  0xeb, 0x1a, 0x0b, 0xbe, 0x41, 0xe1, 0x26, 0xbd, 0xcc, 0x91, 0xbf, 0x3d,
  0x3e, 0x83, 0x14, 0x3e, 0x93, 0x55, 0x74, 0x3d, 0x54, 0x92, 0x6e, 0xbd,
  0x46, 0x6b, 0x1e, 0xbe, 0x72, 0x68, 0x8d, 0xbd, 0x77, 0x76, 0x0e, 0xbd,
  0xca, 0x45, 0xf0, 0x3d, 0xc9, 0xdc, 0x29, 0x3e, 0x90, 0x6f, 0x93, 0xbe,
  0x23, 0x11, 0x71, 0x3c, 0x11, 0x27, 0xe0, 0x3c, 0x3a, 0xae, 0x73, 0xbe,
  0x7e, 0x1f, 0x82, 0xbd, 0xdb, 0x59, 0xdd, 0xbd, 0x7d, 0xa9, 0x44, 0xbd,
  0x1e, 0x53, 0x25, 0xbe, 0x98, 0xb2, 0xa4, 0xbd, 0x67, 0x0a, 0x1c, 0xbe,
  0x96, 0x0b, 0x8b, 0x3d, 0xa2, 0x7e, 0x79, 0xbd, 0xbe, 0xe4, 0x9d, 0x3d,
  0x74, 0xcb, 0xab, 0xbc, 0x25, 0xa7, 0xd6, 0x3b, 0xa7, 0xaf, 0x34, 0x3e,
  0xf6, 0x22, 0x05, 0x3e, 0x07, 0xce, 0x78, 0xbd, 0xc8, 0x3a, 0x53, 0x3d,
  0xcc, 0xe2, 0x8e, 0xbe, 0x10, 0x6b, 0x94, 0xbe, 0x58, 0xfa, 0x57, 0xbb,
  0xeb, 0x13, 0xdd, 0xbd, 0x3e, 0x4e, 0x68, 0xbe, 0xf1, 0x7d, 0x40, 0x3d,
  0x16, 0xb9, 0xfa, 0xbd, 0xc2, 0x1b, 0x25, 0x3e, 0xa1, 0xf4, 0x72, 0xbe,
  0x0c, 0x14, 0xc8, 0xbd, 0xb3, 0xcf, 0x82, 0xbe, 0x45, 0xab, 0x45, 0xbe,
  0xb2, 0x53, 0xd7, 0xbd, 0xb8, 0x0b, 0xf6, 0xbd, 0x4d, 0x4e, 0x89, 0xbd,
  0xde, 0x78, 0x1d, 0xbe, 0x81, 0xa1, 0x48, 0xbe, 0xad, 0x96, 0x40, 0xbe,
  0xe0, 0x4a, 0x9b, 0xbd, 0x35, 0x17, 0x78, 0xbd, 0xcd, 0x38, 0x18, 0xbe,
  0xf6, 0x26, 0xa4, 0x3d, 0x0f, 0xb0, 0x61, 0xbe, 0x46, 0x1d, 0x17, 0xbe,
  0x76, 0xa9, 0x2f, 0xbe, 0x65, 0x3a, 0x9b, 0xbd, 0xbc, 0x97, 0x0b, 0xbe,
  0x95, 0x19, 0x7c, 0xbd, 0x83, 0x77, 0x2a, 0xbe, 0x26, 0x3c, 0x0d, 0x3e,
  0x25, 0xf3, 0x1b, 0x3d, 0xe2, 0x4e, 0x1d, 0xbe, 0x25, 0x74, 0xc2, 0xbd,
  0x07, 0x0b, 0x19, 0xbe, 0x9e, 0xef, 0xca, 0xbd, 0x25, 0xf0, 0x43, 0xbe,
  0x39, 0x56, 0x9b, 0xbe, 0xed, 0x95, 0x74, 0xbe, 0xbe, 0x0d, 0xce, 0x3d,
  0x1e, 0x75, 0x72, 0xbe, 0x92, 0x35, 0x0d, 0x3e, 0x81, 0xc6, 0x6a, 0xbe,
  0xe5, 0xbf, 0xe2, 0xbb, 0x0d, 0xab, 0x46, 0x3d, 0x26, 0x68, 0x9b, 0xbd,
  0xe6, 0xae, 0xa6, 0xbd, 0xd8, 0xb3, 0x6c, 0x3c, 0xd6, 0x08, 0xa9, 0xbd,
  0x00, 0xc8, 0x0b, 0xbe, 0xa5, 0xae, 0x81, 0x3d, 0xb0, 0xe8, 0x06, 0x3d,
  0x81, 0x34, 0x75, 0xbe, 0x4c, 0xfa, 0xb2, 0xbd, 0xb6, 0xf8, 0x55, 0xbd,
  0x1b, 0xa2, 0x46, 0x3e, 0x34, 0x9c, 0x5d, 0xba, 0x07, 0x2a, 0x15, 0xbe,
  0x75, 0xc3, 0xf5, 0x3d, 0xfe, 0x48, 0xa0, 0xbd, 0x81, 0x31, 0x23, 0xbe,
  0x81, 0x0a, 0x44, 0xbd, 0xb9, 0xc7, 0xb1, 0xbd, 0x26, 0xb1, 0x68, 0xbe,
  0x71, 0xff, 0x96, 0xbd, 0x07, 0xcc, 0x9f, 0x3c, 0x9e, 0x99, 0x10, 0xbe,
  0x60, 0xd3, 0x87, 0xbd, 0xbb, 0x55, 0x14, 0xbe, 0x5d, 0x0b, 0x4f, 0xbd,
  0x27, 0xf0, 0x88, 0xbe, 0xc5, 0xd8, 0xae, 0x3d, 0xf1, 0x8b, 0xcd, 0xbc,
  0x1a, 0xcb, 0xc1, 0x3d, 0xec, 0x9c, 0xea, 0xbd, 0xee, 0xb6, 0xa8, 0x3a,
  0xf3, 0xab, 0x45, 0xbc, 0xee, 0x65, 0x0e, 0xbe, 0x73, 0xf9, 0x50, 0xbd,
  0x9c, 0x42, 0xda, 0x3d, 0x9c, 0xce, 0xe6, 0x3a, 0x77, 0x8c, 0xcb, 0xbc,
  0xd3, 0xf1, 0x54, 0xbe, 0xc1, 0xfe, 0x47, 0x3d, 0xbb, 0x13, 0xa4, 0xbe,
  0x42, 0x34, 0x78, 0xbe, 0xe8, 0x3d, 0x39, 0xbc, 0xa9, 0x38, 0xe1, 0x3d,
  0x0d, 0xe6, 0x47, 0x3e, 0x2b, 0xa7, 0x19, 0x3e, 0xf3, 0x16, 0x23, 0xbe,
  0x08, 0xef, 0x58, 0x3c, 0xbb, 0x79, 0x39, 0xbd, 0x91, 0x8e, 0x79, 0xbe,
  0x48, 0x6d, 0x7f, 0x3d, 0xf9, 0x9a, 0x9c, 0xbd, 0x70, 0x5e, 0xe7, 0xbd,
  0xee, 0x13, 0xca, 0xbc, 0x87, 0x89, 0xb2, 0x3d, 0x7d, 0x91, 0x30, 0xbe,
  0x78, 0xd5, 0xeb, 0xbd, 0xe6, 0xd2, 0xd6, 0x3b, 0x5c, 0x0e, 0x3e, 0xbd,
  0x6c, 0x25, 0x00, 0xbe, 0xc4, 0x3d, 0xbc, 0xbb, 0xdb, 0xb2, 0x02, 0xbe,
  0xcb, 0x98, 0xff, 0xbd, 0xd6, 0xe0, 0xed, 0xbe, 0x2f, 0x1e, 0x99, 0xbe,
  0x7f, 0xcd, 0xa7, 0xbe, 0x4c, 0x8e, 0x99, 0xbe, 0xa8, 0x44, 0xbf, 0x3c,
  0xe0, 0x51, 0x13, 0xbe, 0xd7, 0x5c, 0xaa, 0x3e, 0xe4, 0x3c, 0xe1, 0xba,
  0xfd, 0x73, 0xab, 0xbb, 0xd1, 0x85, 0x8d, 0xbf, 0x7d, 0x4d, 0x5b, 0x3a,
  0x27, 0xdf, 0x73, 0xbe, 0xc7, 0xf8, 0x4f, 0x3d, 0x14, 0x69, 0x0c, 0xbe,
  0x66, 0x54, 0x44, 0x3e, 0xdc, 0xba, 0xb9, 0xbe, 0x50, 0x33, 0x93, 0xbe,
  0x14, 0x98, 0xa7, 0xbe, 0x82, 0xf5, 0x77, 0xbe, 0x79, 0xbb, 0x29, 0xbe,
  0xd8, 0x19, 0x92, 0x3e, 0x33, 0x0c, 0x7f, 0x3e, 0x7b, 0x2f, 0x7a, 0x3e,
  0x82, 0xb1, 0xef, 0x3d, 0xde, 0x88, 0x3d, 0xbb, 0xb3, 0xe7, 0xe2, 0xbe,
  0xfb, 0xb5, 0xd1, 0xbb, 0xa8, 0x76, 0xc6, 0xbe, 0xfa, 0x5c, 0x12, 0x3e,
  0x5d, 0xcb, 0x39, 0xbe, 0xcb, 0x37, 0x6b, 0x3e, 0x0d, 0x6e, 0x96, 0xbd,
  0x6c, 0xb0, 0x02, 0xbe, 0xad, 0xdc, 0xac, 0xbe, 0x0d, 0x68, 0x9c, 0xbd,
  0x85, 0x05, 0x0c, 0x3e, 0xab, 0x11, 0x64, 0x3e, 0xd6, 0x36, 0x4c, 0x3f,
  0x95, 0x33, 0x49, 0x3e, 0x72, 0x2f, 0x50, 0x3b, 0xe7, 0xdc, 0xb3, 0x3c,
  0x4c, 0xce, 0x25, 0xbf, 0xef, 0x98, 0xa1, 0xbd, 0x0b, 0xac, 0x6f, 0xbe,
  0x9e, 0x30, 0xdb, 0x3c, 0x28, 0xf8, 0xfa, 0x3d, 0x36, 0x3c, 0xaf, 0x3e,
  0x67, 0xe3, 0x94, 0xbd, 0x16, 0x5a, 0x7b, 0xbe, 0x7a, 0x22, 0xa6, 0xbe,
  0x61, 0xa8, 0x18, 0x3e, 0xe8, 0x7e, 0x2d, 0xbd, 0x2f, 0x4f, 0x99, 0x3e,
  0xb4, 0x38, 0xd7, 0x3e, 0x79, 0x05, 0x50, 0x3e, 0x6b, 0x3c, 0x70, 0x3c,
  0xf1, 0xd7, 0x6a, 0xbd, 0x72, 0xb5, 0x12, 0xbf, 0x71, 0x61, 0x06, 0xbe,
  0x0b, 0xdd, 0x08, 0xbe, 0x3a, 0xb0, 0xc9, 0xbd, 0xd7, 0x4a, 0x6d, 0xbe,
  0x5e, 0xd8, 0x33, 0x3e, 0x6f, 0x11, 0xa9, 0xbc, 0x89, 0x38, 0x89, 0x3a,
  0x36, 0xe1, 0x41, 0xbe, 0x10, 0x5e, 0x61, 0xbd, 0x95, 0xc1, 0x64, 0xbe,
  0x4e, 0x3f, 0x00, 0x3e, 0x2d, 0x6a, 0xf4, 0x3d, 0xbc, 0x37, 0x3d, 0x3d,
  0xc7, 0x4a, 0x00, 0xbe, 0xb3, 0xc7, 0x0d, 0xbc, 0xb1, 0xc7, 0xca, 0xbe,
  0x9d, 0x29, 0x2e, 0xbe, 0x32, 0xcb, 0x8e, 0xbe, 0xaa, 0x5f, 0x49, 0x3a,
  0x7c, 0x98, 0x13, 0x3d, 0x24, 0x98, 0xb2, 0x3e, 0xca, 0xde, 0x03, 0x3d,
  0x2b, 0x09, 0x83, 0xbe, 0xab, 0x9f, 0x39, 0xbe, 0xa7, 0x2e, 0x51, 0xbe,
  0x36, 0x08, 0xee, 0xbd, 0xf9, 0x25, 0xb7, 0x3d, 0x40, 0x0f, 0x23, 0x3d,
  0x94, 0xf4, 0x00, 0x3e, 0xc8, 0x14, 0x68, 0xbd, 0xd4, 0xdf, 0x2c, 0xbc,
  0x03, 0xd9, 0xad, 0x3d, 0xc0, 0xf4, 0xae, 0xbd, 0x25, 0xdf, 0x64, 0xbe,
  0xa3, 0x34, 0x19, 0x3a, 0x1e, 0x3f, 0x1f, 0x3d, 0xe5, 0xb8, 0x91, 0x3e,
  0x37, 0x3e, 0x48, 0xbc, 0xba, 0xc8, 0x31, 0xbe, 0xdc, 0xe6, 0x5b, 0xbe,
  0x5f, 0xd3, 0x6f, 0xbe, 0xcc, 0xfb, 0x8f, 0xbe, 0xdb, 0xec, 0xa0, 0x3d,
  0x9c, 0x16, 0x8c, 0x3d, 0xa8, 0x90, 0xe6, 0x3c, 0x86, 0x15, 0xc2, 0x3d,
  0x38, 0xe9, 0x18, 0xbd, 0x1d, 0x52, 0x1e, 0xbe, 0x5c, 0xb9, 0x60, 0xbc,
  0x75, 0x67, 0x50, 0xbe, 0x1b, 0xf7, 0x1c, 0x3e, 0xc8, 0x25, 0x08, 0x3d,
  0x44, 0x7f, 0x2d, 0x3e, 0x7a, 0x06, 0xab, 0xbe, 0xe3, 0xc4, 0x18, 0x3d,
  0xda, 0xe4, 0xbf, 0x3e, 0xee, 0xdd, 0x2e, 0x3e, 0xb5, 0xce, 0x18, 0x3d,
  0xbe, 0x06, 0x74, 0xbd, 0x29, 0x56, 0x35, 0xbe, 0x70, 0x66, 0xb2, 0xbc,
  0x9e, 0x81, 0x17, 0xbe, 0xdb, 0x7a, 0xf5, 0x3d, 0xd0, 0xaf, 0x1a, 0x3e,
  0xb5, 0x21, 0xd8, 0xbe, 0x94, 0xdb, 0x9c, 0xbd, 0x3e, 0x38, 0x23, 0xbe,
  0x51, 0xf4, 0x96, 0x3e, 0x26, 0x2e, 0xe5, 0xbc, 0xad, 0x63, 0x63, 0xbe,
  0xe9, 0xab, 0xa5, 0x3d, 0xba, 0x24, 0xc8, 0x3d, 0xd5, 0x17, 0x9f, 0xbb,
  0x52, 0x94, 0x28, 0xbd, 0x32, 0xb5, 0xb5, 0xbd, 0xb1, 0x3d, 0x91, 0xbe,
  0xf6, 0x21, 0x58, 0xbe, 0xc8, 0xe0, 0xd1, 0xbd, 0x9e, 0xb2, 0x6c, 0xbd,
  0x91, 0xf0, 0x82, 0xbd, 0xe1, 0xc5, 0x11, 0xbd, 0x54, 0xab, 0x80, 0xbd,
  0xe9, 0xf6, 0xba, 0xbd, 0xc0, 0x53, 0x62, 0x3e, 0x62, 0x9b, 0x42, 0xbe,
  0x5c, 0xe3, 0xb2, 0xbe, 0x7c, 0x55, 0xbe, 0x3e, 0x8e, 0x28, 0x71, 0x3e,
  0x0a, 0xbe, 0x9b, 0x3e, 0x30, 0x3d, 0x22, 0x3e, 0xe6, 0x18, 0x02, 0xbe,
  0x48, 0xaa, 0x0c, 0xbe, 0xfa, 0x71, 0x79, 0xbd, 0xa1, 0x26, 0xf9, 0xbd,
  0x63, 0xf2, 0x97, 0xbe, 0x7c, 0x68, 0x30, 0xbc, 0x6e, 0x62, 0xa0, 0xbd,
  0xaa, 0xd2, 0x89, 0x3d, 0x4e, 0x2b, 0xf9, 0x3d, 0x57, 0xce, 0x4f, 0x3d,
  0xc9, 0x5d, 0x9e, 0xbe, 0xab, 0xca, 0x04, 0x3e, 0x37, 0xae, 0x1b, 0x3f,
  0xc0, 0xd3, 0x12, 0x3e, 0xdb, 0x59, 0xb8, 0x3e, 0x0c, 0x63, 0x54, 0x3e,
  0x29, 0x21, 0xce, 0xbd, 0x08, 0xc1, 0x60, 0xbd, 0x91, 0xc1, 0xf0, 0xbd,
  0xd3, 0xca, 0xde, 0xbd, 0x97, 0x8d, 0x84, 0xbd, 0x8f, 0xb5, 0xea, 0x3d,
  0x8b, 0xed, 0x0d, 0x3d, 0x86, 0x04, 0x4e, 0x3d, 0xa9, 0x57, 0xec, 0x3b,
  0x7a, 0x75, 0x32, 0x3e, 0x91, 0x28, 0x3a, 0xbe, 0x8c, 0xbe, 0x5f, 0x3d,
  0x57, 0x68, 0x35, 0x3e, 0xce, 0x18, 0x6e, 0x3e, 0xe0, 0xfd, 0x7e, 0x3e,
  0x48, 0x57, 0x80, 0xbe, 0x5a, 0x93, 0x46, 0xbe, 0x00, 0x86, 0xb0, 0xbd,
  0xd6, 0x26, 0x52, 0x3d, 0xd8, 0x93, 0xcd, 0x3d, 0x92, 0x7d, 0xc1, 0x3d,
  0x88, 0xd7, 0x86, 0x3d, 0x45, 0x94, 0x83, 0xbd, 0x30, 0x0f, 0xe9, 0xbd,
  0x91, 0x3e, 0x87, 0xbe, 0x3e, 0x27, 0x73, 0x3e, 0x45, 0x44, 0x0a, 0xbe,
  0xc3, 0x50, 0x5b, 0xbe, 0xd1, 0xab, 0x05, 0x3e, 0x1f, 0xb2, 0x5c, 0x3e,
  0x75, 0xb0, 0xdb, 0x3c, 0x5c, 0xeb, 0x3b, 0xbe, 0x2b, 0x45, 0x3e, 0xbe,
  0xdd, 0xa9, 0x88, 0xbe, 0x46, 0x3b, 0xd9, 0xbc, 0x0f, 0xf7, 0x96, 0xbd,
  0x30, 0x6f, 0xd3, 0x3d, 0xd0, 0x24, 0x5a, 0xbc, 0x48, 0x8f, 0xa3, 0x3d,
  0x1f, 0x7d, 0x1c, 0xbe, 0x4e, 0x7c, 0x0e, 0xbe, 0x6d, 0x5c, 0xd7, 0x3d,
  0x81, 0x4c, 0xa6, 0xbd, 0x62, 0xf2, 0xf7, 0xbd, 0x4d, 0x5d, 0x07, 0x3d,
  0xbf, 0xa7, 0x35, 0x3e, 0x4f, 0x95, 0x1d, 0x3d, 0xd3, 0x16, 0x16, 0xbf,
  0x59, 0xd0, 0x70, 0xbd, 0xc2, 0x23, 0xe5, 0xbd, 0x4c, 0xab, 0xc6, 0xbc,
  0xa3, 0x46, 0x84, 0xbd, 0x5e, 0xda, 0x3d, 0x3c, 0x50, 0xa4, 0xa7, 0x3c,
  0x1d, 0xb8, 0x3a, 0xbd, 0xf4, 0x35, 0x01, 0xbd, 0xd6, 0xe7, 0x19, 0xbe,
  0x94, 0xc9, 0xc0, 0xbb, 0x88, 0xb4, 0xd1, 0xbc, 0x6d, 0x0d, 0x74, 0x3d,
  0xfc, 0xb7, 0x9b, 0xbd, 0x9a, 0xe4, 0xf3, 0x3d, 0x94, 0xe3, 0xfd, 0xbd,
  0x4b, 0xc3, 0xea, 0xbc, 0x14, 0xd8, 0x86, 0xbc, 0xd2, 0x36, 0xe9, 0xbc,
  0xfc, 0x60, 0x74, 0xbe, 0x64, 0x0d, 0x1b, 0xbe, 0xba, 0x30, 0xd6, 0xbd,
  0x13, 0x80, 0x71, 0xbe, 0xb8, 0x70, 0x14, 0xbe, 0xe0, 0x09, 0x70, 0x3d,
  0xdb, 0x06, 0x11, 0x3c, 0x91, 0x12, 0x68, 0x3b, 0xe6, 0xdc, 0xed, 0xbd,
  0x97, 0xf2, 0x9e, 0x3d, 0xef, 0xa0, 0x64, 0xbe, 0x1f, 0x3a, 0x10, 0xbe,
  0x16, 0x8f, 0x90, 0x3c, 0xe9, 0x1a, 0x3c, 0xbe, 0xc3, 0x89, 0x4f, 0x3d,
  0x25, 0x80, 0xf3, 0xbd, 0xc8, 0x19, 0x34, 0x3e, 0x53, 0x2a, 0x14, 0xbe,
  0x36, 0x74, 0x95, 0xbd, 0xe0, 0xa3, 0x2b, 0xbe, 0xfb, 0xe1, 0xcd, 0xbd,
  0x4c, 0xad, 0x33, 0xbe, 0xfb, 0xd4, 0x0f, 0x3e, 0xb6, 0x58, 0x5a, 0xbe,
  0xfa, 0x8b, 0xe4, 0x3c, 0x83, 0xa6, 0xd0, 0x3b, 0xc4, 0xdd, 0x8f, 0x3d,
  0x22, 0xf4, 0x8c, 0xbd, 0xec, 0xcf, 0x6a, 0x3b, 0x8d, 0xb9, 0xad, 0x3d,
  0x75, 0x02, 0x9b, 0xbd, 0x11, 0x52, 0xc4, 0x3c, 0x7a, 0xcc, 0x0b, 0xbe,
  0x06, 0xb4, 0xa5, 0x3d, 0x1a, 0x59, 0x3c, 0xbd, 0xa7, 0x6f, 0x77, 0xbe,
  0x1f, 0x20, 0x4f, 0xbe, 0x61, 0xd8, 0x6f, 0x3d, 0x67, 0x07, 0x33, 0xbe,
  0x80, 0x99, 0x87, 0x3d, 0x68, 0xa1, 0x63, 0xbe, 0xec, 0x6e, 0x45, 0xbe,
  0x02, 0x43, 0x28, 0xbe, 0xf1, 0xe3, 0xa8, 0x3d, 0x22, 0x0c, 0xa0, 0x3d,
  0x5a, 0xa1, 0x47, 0x3e, 0xc8, 0x32, 0x40, 0x3d, 0xf4, 0x9c, 0xc7, 0xbb,
  0xd7, 0x3c, 0x2d, 0xbe, 0x61, 0x34, 0x32, 0xbe, 0x56, 0x9e, 0x8a, 0xbe,
  0xc9, 0xfc, 0x3a, 0xbe, 0x38, 0xf9, 0xda, 0xbd, 0xfd, 0x95, 0x60, 0xbc,
  0x1e, 0x10, 0x66, 0xbd, 0x7f, 0x47, 0x0d, 0x3d, 0x96, 0x72, 0x01, 0x3e,
  0xf6, 0x46, 0xb6, 0xbd, 0x02, 0x94, 0x14, 0x3e, 0xfd, 0x62, 0x5c, 0x3d,
  0x57, 0x33, 0x37, 0xbe, 0x43, 0x30, 0x22, 0xbe, 0x77, 0x83, 0xdd, 0xbd,
  0x2b, 0x9c, 0x8e, 0xbd, 0xb7, 0xc5, 0x8b, 0xbd, 0x6b, 0xd2, 0xe8, 0x3c,
  0x59, 0x83, 0x91, 0xbe, 0x98, 0xaf, 0x5d, 0xbe, 0x87, 0xf9, 0x51, 0xbe,
  0x25, 0xe1, 0xad, 0xbc, 0x9d, 0xba, 0x10, 0xbe, 0x06, 0x4e, 0xcb, 0x3c,
  0xdf, 0x04, 0x56, 0xbe, 0xe6, 0xb0, 0xc2, 0xbd, 0x8e, 0x3d, 0x2e, 0xbe,
  0x30, 0xa8, 0x89, 0xbe, 0x55, 0x6e, 0x44, 0xbe, 0x4c, 0xa0, 0xc7, 0xbd,
  0x7d, 0xe6, 0x66, 0xbe, 0x33, 0xf1, 0x0b, 0x3e, 0xc8, 0x2f, 0x3d, 0xbd,
  0x46, 0x46, 0x86, 0xbe, 0xe1, 0x75, 0xb4, 0x3d, 0x37, 0xcd, 0xd1, 0xbc,
  0x8f, 0x22, 0x52, 0xbd, 0x94, 0x6b, 0xd4, 0x3d, 0x2c, 0x7a, 0xc0, 0xbd,
  0x12, 0x35, 0x7d, 0x3d, 0x94, 0xc7, 0x15, 0x3e, 0xec, 0xcd, 0xd7, 0xbd,
  0xd3, 0x1b, 0x32, 0xbd, 0x58, 0x78, 0x84, 0xbe, 0x9d, 0xf0, 0xfa, 0xbd,
  0x45, 0xae, 0x65, 0xbe, 0x64, 0x26, 0xad, 0x3c, 0xf9, 0x5c, 0xb7, 0xbd,
  0x8d, 0x32, 0x68, 0x3d, 0xc7, 0xb6, 0x38, 0xbe, 0xc0, 0x8c, 0x81, 0x3d,
  0xfe, 0x86, 0x99, 0xbc, 0x87, 0xcf, 0x77, 0xbd, 0x13, 0x14, 0x22, 0xbe,
  0x6c, 0x6f, 0x96, 0xbe, 0x9f, 0xf7, 0xa5, 0xba, 0x91, 0x8a, 0x2c, 0xbd,
  0xc7, 0xe7, 0xc7, 0xbd, 0xec, 0xa7, 0x8e, 0xbe, 0xae, 0x95, 0x15, 0x3e,
  0xd1, 0x01, 0xa9, 0xbe, 0xbc, 0xec, 0x4e, 0xbe, 0xfd, 0x50, 0x02, 0xbf,
  0x54, 0xf4, 0x4e, 0xbe, 0xfe, 0x5a, 0xc7, 0xbe, 0xb4, 0x1d, 0xa7, 0xbe,
  0xa2, 0xd3, 0x25, 0x3d, 0xe6, 0x88, 0xa0, 0x3d, 0xd4, 0x45, 0x88, 0x3d,
  0x9b, 0xb2, 0x2a, 0x3e, 0xd0, 0xdc, 0x91, 0xbe, 0x41, 0x98, 0x76, 0xbe,
  0xb6, 0x01, 0xbd, 0xbe, 0x15, 0x68, 0xb4, 0x3c, 0x1b, 0x40, 0x44, 0xbe,
  0x7a, 0xe0, 0xd8, 0x3d, 0x8e, 0xe3, 0xdc, 0xbe, 0x61, 0x23, 0x67, 0x3e,
  0xfb, 0x3b, 0xbe, 0xbe, 0x26, 0x4e, 0x11, 0xbe, 0x87, 0xf7, 0xf4, 0xbd,
  0x5c, 0xed, 0x4c, 0xbe, 0x49, 0x1b, 0x07, 0x3e, 0xc4, 0x10, 0x98, 0x3d,
  0xcc, 0xba, 0x73, 0x3c, 0x38, 0xfd, 0xaa, 0x3e, 0x95, 0xa6, 0x5a, 0x3e,
  0x5a, 0x16, 0xcc, 0xbe, 0xc0, 0xa5, 0x25, 0xbe, 0xf3, 0x05, 0x20, 0xbe,
  0xce, 0xa9, 0x80, 0xbe, 0x4d, 0x32, 0x18, 0x3e, 0x17, 0x35, 0xbb, 0xbe,
  0x8e, 0x68, 0xbb, 0x3c, 0x34, 0xee, 0xb8, 0xbe, 0x74, 0xfd, 0xb2, 0xbd,
  0x61, 0xcc, 0x83, 0xbe, 0xc1, 0xeb, 0x97, 0x3d, 0x44, 0x40, 0x0c, 0xbd,
  0x46, 0x35, 0x79, 0x3d, 0xe5, 0x9b, 0x89, 0x3d, 0x33, 0x69, 0xfd, 0x3d,
  0xb6, 0x5e, 0xe1, 0x3d, 0x78, 0x4f, 0x59, 0x3d, 0x9c, 0x96, 0xb9, 0xbd,
  0x9f, 0x47, 0xc1, 0xbd, 0xe4, 0x78, 0x96, 0xbe, 0x2f, 0x62, 0x73, 0x3e,
  0x04, 0xd9, 0xac, 0xbe, 0xff, 0x1c, 0xee, 0xbc, 0x57, 0x28, 0x9f, 0xbd,
  0x96, 0x05, 0xc3, 0xbd, 0x7e, 0x6a, 0x0b, 0xbe, 0x9b, 0x68, 0xd1, 0x3d,
  0xe3, 0xe4, 0x04, 0xbd, 0xce, 0x1b, 0xcc, 0x3d, 0x2a, 0x2a, 0x06, 0x3e,
  0xbc, 0x63, 0xa4, 0x3e, 0x2d, 0xd3, 0x21, 0x3e, 0x7c, 0xbf, 0x5a, 0xbe,
  0x8e, 0x43, 0x1f, 0xbe, 0x6c, 0x25, 0xa8, 0xbc, 0x24, 0x25, 0xcb, 0xbd,
  0x4c, 0x29, 0xfc, 0x3c, 0x8f, 0xa3, 0xb0, 0xbe, 0x62, 0xed, 0xb6, 0xbc,
  0x8e, 0xca, 0x18, 0xbe, 0x10, 0xf8, 0x2f, 0xbe, 0xa6, 0xc7, 0xc9, 0xbe,
  0xc0, 0x78, 0x62, 0xbd, 0x37, 0x4a, 0x61, 0xbc, 0x35, 0x9a, 0x93, 0x3d,
  0x44, 0x75, 0xdf, 0x3c, 0x69, 0xd7, 0x88, 0x3e, 0x76, 0xb1, 0x34, 0x3e,
  0xaa, 0x78, 0x8b, 0xbe, 0x0a, 0xb1, 0xfe, 0xbd, 0xec, 0xe2, 0xef, 0x3d,
  0x86, 0x80, 0x79, 0xbe, 0xf6, 0x3b, 0x2f, 0x3d, 0x81, 0x9a, 0x83, 0xbe,
  0x07, 0xfd, 0x28, 0xbd, 0x11, 0x4e, 0x6a, 0xbe, 0xc1, 0xd9, 0x0d, 0xbe,
  0xad, 0xf5, 0x0e, 0xbf, 0x9e, 0x34, 0x18, 0x3e, 0xcf, 0x15, 0x3f, 0x3d,
  0xc4, 0xc6, 0x3c, 0x3d, 0x79, 0xd7, 0x76, 0x3d, 0x34, 0x94, 0x16, 0x3e,
  0xc7, 0xe7, 0xc2, 0x3c, 0xaf, 0x42, 0x29, 0xbe, 0x17, 0x1f, 0xd1, 0xbe,
  0x1e, 0x1a, 0xc0, 0x3e, 0x0c, 0x90, 0x05, 0xbe, 0x5f, 0xb5, 0x2e, 0xbd,
  0xfc, 0x63, 0xa6, 0xbd, 0xc2, 0xa5, 0x06, 0xbc, 0xb1, 0x1f, 0x0f, 0xbe,
  0xcb, 0x76, 0xdc, 0xbc, 0x02, 0x6f, 0x7a, 0xbe, 0xa4, 0x53, 0x8a, 0xbe,
  0x58, 0xcf, 0x1e, 0xbd, 0x10, 0x17, 0x68, 0x3b, 0x90, 0x8d, 0x92, 0x3c,
  0xaf, 0x77, 0xfa, 0x3d, 0xf2, 0x0c, 0x4d, 0xbe, 0x96, 0x7a, 0x95, 0xbb,
  0x50, 0x52, 0x73, 0xbc, 0x03, 0x2c, 0x30, 0x3e, 0x8f, 0x98, 0x03, 0x3e,
  0x0b, 0x57, 0xae, 0x3e, 0xcd, 0x8c, 0x94, 0x3e, 0x20, 0xd7, 0xa9, 0x3d,
  0x8e, 0xb8, 0x7d, 0xbb, 0x18, 0x64, 0x30, 0xbe, 0x7e, 0x5d, 0xed, 0xbc,
  0xc8, 0x79, 0x0b, 0xbe, 0xd9, 0xb7, 0x72, 0xbc, 0x18, 0x35, 0x37, 0x3d,
  0x81, 0x24, 0x17, 0xbf, 0x3c, 0xfb, 0xd1, 0xbe, 0x5e, 0x28, 0xae, 0xbe,
  0x39, 0xf4, 0xca, 0x3e, 0x12, 0x4f, 0x12, 0xbe, 0xdb, 0x93, 0xa1, 0x3d,
  0x46, 0x9a, 0x69, 0x3d, 0xa1, 0xdd, 0xbe, 0x3e, 0x04, 0xad, 0x53, 0x3e,
  0x8b, 0x0e, 0x2a, 0x3e, 0x9a, 0xb0, 0x26, 0xbe, 0xc9, 0x70, 0xdb, 0xbe,
  0x53, 0x85, 0xa7, 0xbd, 0x18, 0x46, 0x08, 0xbe, 0x2a, 0x62, 0x79, 0xbd,
  0x5e, 0x5d, 0x1e, 0xbd, 0x26, 0xe9, 0x86, 0xbe, 0xa3, 0x5f, 0x88, 0xbd,
  0x7b, 0x96, 0xdc, 0xbc, 0x44, 0x54, 0x8e, 0x3e, 0xea, 0x6c, 0x94, 0xbd,
  0x3d, 0x77, 0xd4, 0xbe, 0x8f, 0x05, 0xc6, 0x3e, 0xb4, 0xeb, 0xa0, 0x3d,
  0x87, 0x81, 0xb1, 0x3e, 0xa6, 0x05, 0x0c, 0x3e, 0xd1, 0xc1, 0xaa, 0x3b,
  0x04, 0x0a, 0x77, 0x3d, 0x4f, 0x42, 0xc8, 0x3d, 0x35, 0xaa, 0xc2, 0xbd,
  0x58, 0xf8, 0xe3, 0xbd, 0x7d, 0x81, 0xf7, 0xbc, 0xb4, 0x86, 0x70, 0xbe,
  0x37, 0x87, 0xd4, 0x3d, 0x8a, 0xef, 0x98, 0xbd, 0x7a, 0xa4, 0x08, 0xbe,
  0xeb, 0xed, 0xa9, 0xbe, 0x4e, 0xd7, 0x12, 0xbe, 0xfd, 0x07, 0x03, 0x3f,
  0x42, 0x96, 0x94, 0x3d, 0x77, 0x68, 0x73, 0x3e, 0x28, 0xeb, 0x4b, 0xbc,
  0x0f, 0x7c, 0x1b, 0xbc, 0xa6, 0x0e, 0xa6, 0xbd, 0xe3, 0xec, 0x05, 0x3d,
  0x82, 0x90, 0x87, 0xbd, 0x4f, 0x1d, 0x98, 0x3d, 0xdd, 0x05, 0xc6, 0x3b,
  0x7e, 0xee, 0x13, 0xbe, 0xd3, 0x46, 0x1e, 0xbb, 0x34, 0x56, 0x25, 0xbe,
  0x18, 0xa9, 0x1c, 0x3e, 0xa6, 0xe0, 0x8a, 0xbd, 0xd0, 0x23, 0x9b, 0xbe,
  0x97, 0x0e, 0x58, 0x3e, 0xb4, 0x12, 0x2d, 0x3e, 0x70, 0xa6, 0x7f, 0x3e,
  0x17, 0x0b, 0x6e, 0xbe, 0x3b, 0x6f, 0x1b, 0xbe, 0xdb, 0xfd, 0xc5, 0xbd,
  0x5f, 0x72, 0x11, 0xbe, 0x78, 0x5b, 0x45, 0x3e, 0xa6, 0xa8, 0xfa, 0x3a,
  0x90, 0xde, 0x90, 0xbc, 0x0c, 0x3b, 0x2a, 0x3d, 0xbb, 0x4c, 0x77, 0xbe,
  0xf9, 0x05, 0x9c, 0xbe, 0x2c, 0x6f, 0x62, 0x3e, 0x3e, 0xc0, 0xbb, 0xbd,
  0xdd, 0xa1, 0x4e, 0x3a, 0x90, 0x7d, 0x75, 0x3e, 0xef, 0x3c, 0x59, 0x3e,
  0x17, 0x74, 0x85, 0x3e, 0xc7, 0x4b, 0x0a, 0xbe, 0x33, 0x47, 0xfa, 0xbd,
  0xac, 0x72, 0x7b, 0xbe, 0x4e, 0xdf, 0xe1, 0x3c, 0x80, 0xc7, 0x87, 0xbd,
  0x27, 0xf6, 0x68, 0xbd, 0x6d, 0xf1, 0x74, 0xbc, 0x21, 0x38, 0x8c, 0xbe,
  0x07, 0x2b, 0x42, 0xbe, 0x17, 0xe8, 0x33, 0xbe, 0xa5, 0xee, 0x84, 0x3e,
  0xfe, 0x9f, 0xe1, 0xbd, 0xe1, 0x3e, 0x59, 0x3e, 0x9a, 0xcf, 0x54, 0x3e,
  0x31, 0x0b, 0xe6, 0x3d, 0xa7, 0xfb, 0xfe, 0x3d, 0x9e, 0xdd, 0x6b, 0xbe,
  0x3b, 0xfd, 0x46, 0x3d, 0x1b, 0xac, 0x81, 0xbe, 0x97, 0x70, 0x76, 0xbc,
  0x03, 0xc1, 0xfd, 0xbc, 0x6b, 0x7f, 0x61, 0xbd, 0xc6, 0xe6, 0x74, 0x3d,
  0x4c, 0x9f, 0x29, 0xbe, 0x44, 0x29, 0xd4, 0xbd, 0x8b, 0x2c, 0xb7, 0xbd,
  0x0a, 0x39, 0x8e, 0x3c, 0x6a, 0x62, 0xa5, 0xbd, 0x38, 0xa3, 0xdc, 0xbd,
  0xc2, 0x56, 0x8e, 0xbe, 0x6b, 0xe1, 0x55, 0xbe, 0xcb, 0xaa, 0x18, 0x3e,
  0xb4, 0x4d, 0x1b, 0x3e, 0xc4, 0x5e, 0xd9, 0xbd, 0x8f, 0x70, 0x6e, 0x3e,
  0xb8, 0x2b, 0xf3, 0x3a, 0xe3, 0xa8, 0xb2, 0xbc, 0xe3, 0xc4, 0x9b, 0xbd,
  0xd2, 0x5e, 0x94, 0xbe, 0xed, 0xc0, 0x69, 0x3d, 0x0d, 0x1f, 0x1a, 0x3e,
  0x9e, 0xd5, 0x58, 0xbe, 0x01, 0x3e, 0x27, 0xbd, 0x73, 0xec, 0x8a, 0xbe,
  0xf1, 0x1d, 0xf0, 0xbc, 0x4c, 0x4f, 0x3c, 0xbe, 0x1a, 0x59, 0xf8, 0x3d,
  0x01, 0xd7, 0x20, 0xbd, 0x08, 0x0a, 0x8d, 0x3d, 0x9b, 0xfa, 0x93, 0xbd,
  0xd2, 0xc3, 0xa4, 0x38, 0xd3, 0xf8, 0x9c, 0x3c, 0xe3, 0xd5, 0x63, 0xbe,
  0x4e, 0xe3, 0x88, 0x3d, 0x83, 0xef, 0x4f, 0xbe, 0x04, 0xcd, 0x2f, 0xbe,
  0xca, 0x66, 0x1f, 0xbd, 0x30, 0x93, 0x5f, 0xbd, 0xfa, 0xa5, 0xd3, 0xbd,
  0x65, 0x8d, 0x0a, 0xbe, 0xd7, 0x29, 0xa2, 0x3d, 0x25, 0x0d, 0xd5, 0xbd,
  0xf0, 0x40, 0xa3, 0xbd, 0xed, 0x32, 0x05, 0xbe, 0x26, 0xde, 0xbb, 0xbd,
  0x8e, 0x76, 0x92, 0xbe, 0x40, 0x19, 0x4a, 0x3d, 0x15, 0x34, 0x46, 0xbe,
  0x0a, 0xdf, 0xa6, 0xbd, 0x63, 0xc4, 0x38, 0xbe, 0x43, 0x72, 0x23, 0xbc,
  0xff, 0x96, 0xd1, 0x3d, 0x28, 0xea, 0xfc, 0x3d, 0x90, 0x3c, 0xbd, 0xbd,
  0xef, 0x61, 0x2b, 0x3e, 0x14, 0x9b, 0x4e, 0xbe, 0x9b, 0xea, 0x24, 0xbe,
  0x59, 0xbe, 0x13, 0xbd, 0x28, 0x5d, 0xa7, 0x3d, 0x67, 0x1f, 0x23, 0xbe,
  0x6f, 0x1f, 0x89, 0xbd, 0x21, 0x9a, 0x32, 0xbe, 0xc7, 0x49, 0x88, 0xbd,
  0x9d, 0x95, 0xaa, 0xbd, 0x9d, 0xd2, 0xbc, 0xbd, 0x7b, 0x64, 0x0f, 0xbe,
  0x57, 0x61, 0xb5, 0xbd, 0x92, 0x75, 0x95, 0x3d, 0x5a, 0x3a, 0x18, 0x3e,
  0xe3, 0x5d, 0x3e, 0xbd, 0x63, 0xc0, 0xf2, 0x3d, 0xca, 0xd0, 0x24, 0xbe,
  0xa2, 0xc0, 0x87, 0xbd, 0xea, 0x4b, 0x13, 0x3e, 0x39, 0xf9, 0x70, 0xbe,
  0xc1, 0x5b, 0x12, 0xba, 0x94, 0x01, 0x7e, 0xbe, 0xa7, 0x4c, 0x4f, 0xbd,
  0x55, 0xb9, 0x2c, 0xbe, 0x8b, 0xe6, 0x12, 0xbd, 0x79, 0x8e, 0x0a, 0xbe,
  0x38, 0x3f, 0xf7, 0xbd, 0xb8, 0x17, 0xfa, 0xbd, 0xed, 0x1a, 0xcf, 0xbc,
  0x08, 0x53, 0x93, 0x3d, 0x1d, 0x73, 0xbc, 0xbd, 0xee, 0xc5, 0xe2, 0x3c,
  0xf6, 0xdf, 0xc4, 0x3d, 0xe2, 0xa9, 0x34, 0x3e, 0x65, 0xaa, 0x20, 0x3c,
  0xb8, 0x8d, 0x4e, 0xbd, 0x80, 0xc8, 0x71, 0xbd, 0x90, 0xf4, 0xa1, 0xbe,
  0x07, 0x54, 0x6c, 0xbd, 0x5f, 0x93, 0x0a, 0xbe, 0x2b, 0x82, 0x0c, 0x3d,
  0x96, 0xb6, 0xb0, 0xbe, 0x07, 0x60, 0x6d, 0xbe, 0x3d, 0x1b, 0x0c, 0xbe,
  0xfc, 0xc3, 0x87, 0xbe, 0xf6, 0x4d, 0x78, 0x3d, 0xf7, 0xf8, 0x2c, 0xbe,
  0x1e, 0xf0, 0x37, 0xbd, 0x2b, 0x8d, 0xd0, 0xbd, 0x13, 0xac, 0x16, 0x3d,
  0xd8, 0xeb, 0xa8, 0x3d, 0xff, 0x01, 0x57, 0xbe, 0x22, 0x01, 0x29, 0xbd,
  0xdb, 0x86, 0xc5, 0xbd, 0xdb, 0xe3, 0xc2, 0xbd, 0x51, 0x49, 0xdd, 0xbd,
  0x0f, 0x86, 0x28, 0xbe, 0x02, 0xb7, 0x4a, 0xbe, 0xdd, 0xf5, 0xb1, 0xbd,
  0x47, 0x45, 0x23, 0xbe, 0x2e, 0xbc, 0xa7, 0x3d, 0xab, 0xf4, 0x55, 0x3d,
  0x6b, 0x93, 0xd1, 0xbd, 0x56, 0xbc, 0x07, 0xbe, 0x34, 0x2c, 0x48, 0xbe,
  0x0b, 0xaa, 0x9e, 0x3e, 0x36, 0xf8, 0x19, 0xbf, 0xf9, 0x0d, 0xf1, 0xbc,
  0xbb, 0xc9, 0x20, 0xbe, 0x1d, 0xc8, 0xd3, 0xbd, 0x1b, 0xad, 0x17, 0xbf,
  0x3e, 0x99, 0x25, 0xbe, 0x12, 0x73, 0x80, 0xbe, 0xc4, 0x4d, 0xa9, 0xbe,
  0x79, 0x8b, 0x33, 0xbf, 0x4f, 0xc1, 0xcb, 0xbc, 0x60, 0x37, 0xf7, 0xbe,
  0xb2, 0x77, 0x6d, 0xbe, 0xbd, 0x05, 0x99, 0xbd, 0x9f, 0x18, 0xdf, 0xbc,
  0xdc, 0x3a, 0x93, 0xbe, 0x1e, 0x97, 0x2c, 0x3e, 0x1a, 0xb8, 0x31, 0xbd,
  0x5f, 0x7f, 0xa5, 0x3d, 0x98, 0x84, 0x21, 0xbe, 0x55, 0x7d, 0xde, 0xbd,
  0xde, 0x5a, 0x37, 0xbe, 0x11, 0x6f, 0x96, 0xbd, 0xaf, 0xdb, 0x12, 0xbe,
  0x25, 0xd0, 0xf1, 0xbd, 0x30, 0x5c, 0x6c, 0xbf, 0x49, 0xd2, 0x04, 0xbc,
  0x59, 0x3b, 0x5d, 0xbe, 0x49, 0xa2, 0x0a, 0xbc, 0xe6, 0xf6, 0x49, 0xbd,
  0xaa, 0x5e, 0x24, 0x3d, 0x13, 0xdb, 0x20, 0xbe, 0xaf, 0xa3, 0xb0, 0xbd,
  0x31, 0xba, 0xdb, 0x3c, 0x81, 0xe4, 0x8a, 0x3d, 0x75, 0x34, 0x51, 0xbe,
  0xda, 0x48, 0x8a, 0xbc, 0x14, 0x35, 0x10, 0xbe, 0x8a, 0xd1, 0x5d, 0x3d,
  0xe8, 0xf8, 0x83, 0xbe, 0xbf, 0x1b, 0x11, 0xbe, 0x48, 0x55, 0x46, 0xbf,
  0xfa, 0xb1, 0x0b, 0xbd, 0x36, 0x7e, 0x56, 0xbe, 0x5b, 0xc4, 0xc1, 0x3d,
  0xe0, 0x2f, 0xed, 0x3c, 0x24, 0x4b, 0x8e, 0x3d, 0x4f, 0x42, 0x99, 0x3c,
  0xe3, 0xdb, 0x03, 0x3e, 0x88, 0x6b, 0xd4, 0xbe, 0x40, 0xa0, 0xe5, 0x3c,
  0xa2, 0x60, 0xd8, 0xbc, 0xc9, 0x14, 0x7b, 0xbe, 0xc2, 0x7d, 0x8c, 0xbe,
  0x45, 0x7d, 0x33, 0xbe, 0xf0, 0x58, 0xa3, 0xbd, 0x80, 0x08, 0xbf, 0xbd,
  0x9b, 0x7b, 0x32, 0xbf, 0x39, 0xd6, 0x57, 0x3c, 0xef, 0x7a, 0x7d, 0xbe,
  0xdc, 0x78, 0x09, 0xbe, 0x21, 0xdd, 0x90, 0xbe, 0x8d, 0x50, 0x42, 0xbd,
  0xeb, 0xfe, 0x1a, 0xbe, 0xa2, 0x9b, 0x0e, 0x3e, 0xa2, 0xab, 0x9b, 0xbe,
  0xbf, 0x5f, 0x18, 0xbe, 0x3f, 0x77, 0xbd, 0xbb, 0xae, 0x93, 0x95, 0x3e,
  0xd5, 0xe2, 0x9a, 0x3c, 0xe4, 0x84, 0x0c, 0x3e, 0x04, 0x58, 0xfe, 0x3c,
  0x3c, 0x04, 0xab, 0xbd, 0x31, 0x4b, 0x02, 0xbf, 0x2f, 0xcf, 0xc7, 0x3c,
  0x4d, 0x25, 0xce, 0xbd, 0x50, 0x62, 0xf6, 0x3c, 0xbc, 0xd2, 0xe8, 0xbd,
  0x8c, 0x91, 0x92, 0xbd, 0x93, 0x2f, 0x25, 0xbe, 0xb9, 0xaa, 0x1c, 0x3e,
  0xa3, 0x2e, 0xb7, 0x3d, 0xb3, 0xe1, 0x34, 0xbe, 0x2e, 0x5e, 0x80, 0xbd,
  0xa9, 0xb8, 0x38, 0x3e, 0xf2, 0xf5, 0x07, 0x3e, 0x28, 0x45, 0xaf, 0x3d,
  0x3f, 0x6b, 0x84, 0xbd, 0xb4, 0x1e, 0x9a, 0x3d, 0x00, 0xf8, 0xb1, 0xbe,
  0x5a, 0x34, 0xf2, 0x3c, 0x04, 0x40, 0x87, 0x3d, 0x9d, 0xfd, 0x5f, 0x3e,
  0x90, 0xb0, 0x5f, 0x3d, 0xf4, 0xe7, 0x12, 0xbe, 0xf6, 0xed, 0x5a, 0xbe,
  0xc9, 0x17, 0x06, 0x3d, 0x93, 0xaf, 0x8a, 0x3d, 0x97, 0x10, 0x9d, 0xbd,
  0x2f, 0xfb, 0xba, 0xbc, 0xbe, 0x04, 0x8e, 0x3e, 0x64, 0x6d, 0xe3, 0xbb,
  0x7d, 0xe3, 0xcb, 0x3c, 0x1b, 0x3e, 0xec, 0x3d, 0xc1, 0x99, 0x8b, 0x3d,
  0x31, 0xdb, 0x82, 0xbe, 0x2b, 0x1a, 0x36, 0xbd, 0x1a, 0xb8, 0x83, 0x3d,
  0xe3, 0xcd, 0x1c, 0x3e, 0x1d, 0x9a, 0x5d, 0xbd, 0x54, 0xfc, 0x0d, 0xbe,
  0x85, 0x39, 0xa2, 0xbd, 0xa0, 0x7d, 0xa8, 0xbe, 0x1e, 0x80, 0x4a, 0xbe,
  0x74, 0x7c, 0xa6, 0xbd, 0x9c, 0x4f, 0x0f, 0xbd, 0x83, 0xcc, 0x69, 0xbe,
  0x97, 0x6c, 0x9a, 0xbe, 0x5e, 0x27, 0xa4, 0xbd, 0xee, 0x06, 0xad, 0xbe,
  0x21, 0x99, 0x4e, 0xbf, 0xb8, 0xee, 0x03, 0xbd, 0xcb, 0x4c, 0x85, 0x3d,
  0xc3, 0x4f, 0x73, 0xbd, 0x33, 0xcd, 0x0e, 0x3e, 0x12, 0x63, 0x06, 0xbf,
  0x76, 0xae, 0xb7, 0x3c, 0xec, 0x85, 0x24, 0xbe, 0x6f, 0x07, 0x53, 0x3e,
  0xba, 0x74, 0xcf, 0xbc, 0x13, 0x63, 0xc3, 0xbd, 0x4e, 0x9d, 0x0b, 0xbe,
  0x36, 0x90, 0x54, 0x3e, 0x60, 0xb5, 0xc7, 0xbe, 0x33, 0x0b, 0x95, 0xbd,
  0x13, 0x1c, 0x8d, 0xbd, 0x6d, 0x5e, 0x5f, 0xbf, 0x79, 0xf5, 0x93, 0x3d,
  0x0c, 0x70, 0x4a, 0x3d, 0x75, 0xc8, 0x32, 0xbb, 0xa2, 0x2c, 0x46, 0x3e,
  0xcb, 0x54, 0x4d, 0xbe, 0xe8, 0x71, 0x1e, 0x3c, 0xda, 0x28, 0xc0, 0x3d,
  0xe3, 0xe5, 0x81, 0x3d, 0x84, 0xfc, 0x9e, 0xbd, 0x5a, 0x37, 0xd3, 0xbd,
  0xd2, 0x6a, 0x26, 0x3d, 0x3d, 0x86, 0xdd, 0x3e, 0xe5, 0xfe, 0xab, 0xbe,
  0x6b, 0x7d, 0x3a, 0x3e, 0x9c, 0xda, 0xb2, 0xbe, 0xf4, 0xa7, 0x0a, 0xbf,
  0x52, 0xbe, 0x31, 0x3d, 0x07, 0x13, 0x84, 0x3d, 0x92, 0x1e, 0xdf, 0x3d,
  0x44, 0x67, 0x30, 0x3d, 0xac, 0x81, 0x30, 0xbe, 0xb4, 0x5a, 0x9f, 0x3d,
  0xb9, 0xa0, 0x10, 0xbc, 0x9e, 0x63, 0x91, 0x3d, 0xdf, 0x8a, 0x9e, 0xbd,
  0x6e, 0xaf, 0x26, 0xbd, 0x82, 0x4b, 0x26, 0xbe, 0x97, 0x59, 0x76, 0x3c,
  0x3d, 0xab, 0x80, 0xbe, 0xf2, 0x3b, 0x82, 0x3c, 0x8f, 0xf3, 0x6f, 0xbe,
  0xfe, 0xef, 0x66, 0xbf, 0x4a, 0x01, 0x15, 0xbc, 0x36, 0xfc, 0xaf, 0x3c,
  0x47, 0x6f, 0xa8, 0xbd, 0x25, 0x2f, 0xf3, 0x3b, 0x90, 0x1f, 0x2d, 0xbe,
  0xbd, 0xad, 0xe7, 0x3d, 0x11, 0xc5, 0x4b, 0x3b, 0x7e, 0xab, 0x41, 0xbb,
  0xbb, 0xed, 0xc9, 0xbd, 0x31, 0x36, 0x14, 0xbe, 0x14, 0xbe, 0x5e, 0xbd,
  0xcd, 0xfb, 0xb0, 0x3e, 0x41, 0xe0, 0x91, 0xbe, 0x45, 0x5f, 0xd2, 0x3d,
  0x74, 0xd1, 0x8e, 0xbe, 0xce, 0x26, 0x2e, 0xbf, 0x49, 0x80, 0xdf, 0x3d,
  0x71, 0xb6, 0xc2, 0x3c, 0x4f, 0x48, 0xb9, 0x3d, 0x90, 0x86, 0xea, 0x3d,
  0x75, 0x1f, 0x80, 0xbd, 0x18, 0x9b, 0x18, 0x3b, 0x56, 0x80, 0xd0, 0xbc,
  0xaa, 0x8f, 0x0f, 0xbd, 0xc2, 0xa4, 0x14, 0xbe, 0xc7, 0x3f, 0x1c, 0xbe,
  0xdd, 0xc0, 0x9c, 0xbc, 0xc0, 0xe4, 0x0d, 0x3e, 0x5c, 0x25, 0x04, 0xbf,
  0x38, 0x39, 0x59, 0x3c, 0x7d, 0xf1, 0x37, 0xbf, 0xb7, 0xe2, 0x43, 0xbf,
  0x3d, 0x75, 0xaa, 0x3b, 0xd9, 0x1b, 0x2a, 0x3d, 0x08, 0xc0, 0xe2, 0xba,
  0xe2, 0x0a, 0x80, 0xbd, 0x65, 0xc6, 0xa1, 0xbe, 0x48, 0xe5, 0xa0, 0xbd,
  0xfb, 0xa1, 0xbf, 0xbd, 0x63, 0x7d, 0x9c, 0x3e, 0x83, 0x0e, 0x08, 0xbe,
  0xfb, 0x6b, 0xa5, 0xbd, 0xf3, 0x90, 0x7e, 0xba, 0xd8, 0x41, 0x82, 0x3d,
  0x22, 0x42, 0xaf, 0xbe, 0xfa, 0x34, 0x2f, 0x3d, 0x50, 0xf8, 0x97, 0xbe,
  0xfe, 0xeb, 0x9a, 0xbe, 0xa5, 0x46, 0x13, 0xbd, 0x30, 0x0a, 0x5f, 0x3d,
  0xdd, 0x93, 0x49, 0x3d, 0xb1, 0xc0, 0xe4, 0x3b, 0x6d, 0x69, 0xb0, 0xbe,
  0x7a, 0xc4, 0xc7, 0x3c, 0x5d, 0x98, 0x08, 0x3d, 0x50, 0xa8, 0xd0, 0x3d,
  0x46, 0xfe, 0xff, 0xff, 0x10, 0x00, 0x00, 0x00, 0x05, 0x00, 0x00, 0x00,
  0x14, 0x00, 0x00, 0x00, 0x2c, 0x00, 0x00, 0x00, 0x02, 0x00, 0x00, 0x00,
  0x10, 0x00, 0x00, 0x00, 0x70, 0x00, 0x00, 0x00, 0x17, 0x00, 0x00, 0x00,
  0x73, 0x65, 0x71, 0x75, 0x65, 0x6e, 0x74, 0x69, 0x61, 0x6c, 0x2f, 0x64,
  0x65, 0x6e, 0x73, 0x65, 0x2f, 0x4d, 0x61, 0x74, 0x4d, 0x75, 0x6c, 0x00,
  0x34, 0xfe, 0xff, 0xff, 0x2a, 0xff, 0xff, 0xff, 0x04, 0x00, 0x00, 0x00,
  0x08, 0x00, 0x00, 0x00, 0xff, 0xff, 0xff, 0xff, 0x70, 0x00, 0x00, 0x00,
  0x00, 0x00, 0x0e, 0x00, 0x18, 0x00, 0x08, 0x00, 0x07, 0x00, 0x0c, 0x00,
  0x10, 0x00, 0x14, 0x00, 0x0e, 0x00, 0x00, 0x00, 0x00, 0x00, 0x00, 0x02,
  0x10, 0x00, 0x00, 0x00, 0x04, 0x00, 0x00, 0x00, 0x10, 0x00, 0x00, 0x00,
  0x2c, 0x00, 0x00, 0x00, 0x01, 0x00, 0x00, 0x00, 0x02, 0x00, 0x00, 0x00,
  0x18, 0x00, 0x00, 0x00, 0x73, 0x65, 0x71, 0x75, 0x65, 0x6e, 0x74, 0x69,
  0x61, 0x6c, 0x2f, 0x66, 0x6c, 0x61, 0x74, 0x74, 0x65, 0x6e, 0x2f, 0x43,
  0x6f, 0x6e, 0x73, 0x74, 0x00, 0x00, 0x00, 0x00, 0x9c, 0xfe, 0xff, 0xff,
  0x92, 0xff, 0xff, 0xff, 0x04, 0x00, 0x00, 0x00, 0x10, 0x00, 0x00, 0x00,
  0x06, 0x76, 0x11, 0x40, 0x66, 0x93, 0x4c, 0xbf, 0x52, 0x4f, 0xa3, 0xbf,
  0x87, 0x6f, 0x16, 0xbf, 0x0a, 0xff, 0xff, 0xff, 0x10, 0x00, 0x00, 0x00,
  0x03, 0x00, 0x00, 0x00, 0x10, 0x00, 0x00, 0x00, 0x3c, 0x00, 0x00, 0x00,
  0x01, 0x00, 0x00, 0x00, 0x04, 0x00, 0x00, 0x00, 0x29, 0x00, 0x00, 0x00,
  0x73, 0x65, 0x71, 0x75, 0x65, 0x6e, 0x74, 0x69, 0x61, 0x6c, 0x2f, 0x64,
  0x65, 0x6e, 0x73, 0x65, 0x5f, 0x31, 0x2f, 0x42, 0x69, 0x61, 0x73, 0x41,
  0x64, 0x64, 0x2f, 0x52, 0x65, 0x61, 0x64, 0x56, 0x61, 0x72, 0x69, 0x61,
  0x62, 0x6c, 0x65, 0x4f, 0x70, 0x00, 0x00, 0x00, 0x60, 0xff, 0xff, 0xff,
  0x00, 0x00, 0x06, 0x00, 0x08, 0x00, 0x04, 0x00, 0x06, 0x00, 0x00, 0x00,
  0x04, 0x00, 0x00, 0x00, 0x40, 0x00, 0x00, 0x00, 0xab, 0x22, 0x1e, 0xbe,
  0x0d, 0xf1, 0xf3, 0xbf, 0x97, 0x73, 0x4f, 0xbe, 0xb8, 0xbc, 0x39, 0x3d,
  0xc7, 0xa1, 0x71, 0xbe, 0xec, 0xfd, 0xf4, 0x3f, 0x45, 0xa3, 0x15, 0xbf,
  0xab, 0xa9, 0x8b, 0xbe, 0xd2, 0xde, 0xf3, 0xbf, 0x54, 0x34, 0x41, 0xbd,
  0x2b, 0xc9, 0x39, 0xbe, 0x1a, 0xc9, 0x8b, 0x3c, 0xd1, 0xb0, 0x65, 0xbf,
  0x6e, 0x74, 0xd6, 0xbd, 0x9d, 0xa8, 0x78, 0xbf, 0x93, 0xd7, 0xce, 0x3c,
  0xae, 0xff, 0xff, 0xff, 0x10, 0x00, 0x00, 0x00, 0x02, 0x00, 0x00, 0x00,
  0x10, 0x00, 0x00, 0x00, 0x3c, 0x00, 0x00, 0x00, 0x01, 0x00, 0x00, 0x00,
  0x10, 0x00, 0x00, 0x00, 0x27, 0x00, 0x00, 0x00, 0x73, 0x65, 0x71, 0x75,
  0x65, 0x6e, 0x74, 0x69, 0x61, 0x6c, 0x2f, 0x64, 0x65, 0x6e, 0x73, 0x65,
  0x2f, 0x42, 0x69, 0x61, 0x73, 0x41, 0x64, 0x64, 0x2f, 0x52, 0x65, 0x61,
  0x64, 0x56, 0x61, 0x72, 0x69, 0x61, 0x62, 0x6c, 0x65, 0x4f, 0x70, 0x00,
  0x04, 0x00, 0x06, 0x00, 0x04, 0x00, 0x00, 0x00, 0x00, 0x00, 0x0e, 0x00,
  0x14, 0x00, 0x04, 0x00, 0x00, 0x00, 0x08, 0x00, 0x0c, 0x00, 0x10, 0x00,
  0x0e, 0x00, 0x00, 0x00, 0x10, 0x00, 0x00, 0x00, 0x01, 0x00, 0x00, 0x00,
  0x1c, 0x00, 0x00, 0x00, 0x2c, 0x00, 0x00, 0x00, 0x04, 0x00, 0x00, 0x00,
  0x01, 0x00, 0x00, 0x00, 0x40, 0x00, 0x00, 0x00, 0x03, 0x00, 0x00, 0x00,
  0x01, 0x00, 0x00, 0x00, 0x0c, 0x00, 0x00, 0x00, 0x63, 0x6f, 0x6e, 0x76,
  0x32, 0x64, 0x5f, 0x69, 0x6e, 0x70, 0x75, 0x74, 0x00, 0x00, 0x00, 0x00,
  0xfc, 0xff, 0xff, 0xff, 0x04, 0x00, 0x04, 0x00, 0x04, 0x00, 0x00, 0x00
};

unsigned int model_tflite_len = 12384;// Fill the int in `src/model.cc` here